{
  "version": "1.0",
  "truncation": null,
  "padding": null,
  "added_tokens": [
    {
      "id": 0,
      "content": "<PAD>",
      "single_word": false,
      "lstrip": false,
      "rstrip": false,
      "normalized": false,
      "special": true
    },
    {
      "id": 1,
      "content": "<SOS>",
      "single_word": false,
      "lstrip": false,
      "rstrip": false,
      "normalized": false,
      "special": true
    },
    {
      "id": 2,
      "content": "<EOS>",
      "single_word": false,
      "lstrip": false,
      "rstrip": false,
      "normalized": false,
      "special": true
    },
    {
      "id": 3,
      "content": "<UNK>",
      "single_word": false,
      "lstrip": false,
      "rstrip": false,
      "normalized": false,
      "special": true
    }
  ],
  "normalizer": null,
  "pre_tokenizer": {
    "type": "ByteLevel",
    "add_prefix_space": false,
    "trim_offsets": true,
    "use_regex": true
  },
  "post_processor": null,
  "decoder": null,
  "model": {
    "type": "BPE",
    "dropout": null,
    "unk_token": "<UNK>",
    "continuing_subword_prefix": null,
    "end_of_word_suffix": null,
    "fuse_unk": false,
    "byte_fallback": false,
    "ignore_merges": false,
    "vocab": {
      "<PAD>": 0,
      "<SOS>": 1,
      "<EOS>": 2,
      "<UNK>": 3,
      "!": 4,
      "\"": 5,
      "#": 6,
      "$": 7,
      "%": 8,
      "&": 9,
      "'": 10,
      "(": 11,
      ")": 12,
      "*": 13,
      "+": 14,
      ",": 15,
      "-": 16,
      ".": 17,
      "/": 18,
      "0": 19,
      "1": 20,
      "2": 21,
      "3": 22,
      "4": 23,
      "5": 24,
      "6": 25,
      "7": 26,
      "8": 27,
      "9": 28,
      ":": 29,
      ";": 30,
      "<": 31,
      "=": 32,
      ">": 33,
      "?": 34,
      "@": 35,
      "A": 36,
      "B": 37,
      "C": 38,
      "D": 39,
      "E": 40,
      "F": 41,
      "G": 42,
      "H": 43,
      "I": 44,
      "J": 45,
      "K": 46,
      "L": 47,
      "M": 48,
      "N": 49,
      "O": 50,
      "P": 51,
      "Q": 52,
      "R": 53,
      "S": 54,
      "T": 55,
      "U": 56,
      "V": 57,
      "W": 58,
      "X": 59,
      "Y": 60,
      "Z": 61,
      "[": 62,
      "\\": 63,
      "]": 64,
      "^": 65,
      "_": 66,
      "`": 67,
      "a": 68,
      "b": 69,
      "c": 70,
      "d": 71,
      "e": 72,
      "f": 73,
      "g": 74,
      "h": 75,
      "i": 76,
      "j": 77,
      "k": 78,
      "l": 79,
      "m": 80,
      "n": 81,
      "o": 82,
      "p": 83,
      "q": 84,
      "r": 85,
      "s": 86,
      "t": 87,
      "u": 88,
      "v": 89,
      "w": 90,
      "x": 91,
      "y": 92,
      "z": 93,
      "{": 94,
      "|": 95,
      "}": 96,
      "~": 97,
      "¡": 98,
      "¢": 99,
      "£": 100,
      "¤": 101,
      "¥": 102,
      "¦": 103,
      "§": 104,
      "¨": 105,
      "©": 106,
      "ª": 107,
      "«": 108,
      "¬": 109,
      "®": 110,
      "¯": 111,
      "°": 112,
      "±": 113,
      "²": 114,
      "³": 115,
      "´": 116,
      "µ": 117,
      "¶": 118,
      "·": 119,
      "¸": 120,
      "¹": 121,
      "º": 122,
      "»": 123,
      "¼": 124,
      "½": 125,
      "¾": 126,
      "¿": 127,
      "Â": 128,
      "Ã": 129,
      "Ä": 130,
      "Å": 131,
      "Æ": 132,
      "Ç": 133,
      "È": 134,
      "É": 135,
      "Ê": 136,
      "Ë": 137,
      "Ì": 138,
      "Î": 139,
      "Ï": 140,
      "Ð": 141,
      "Ñ": 142,
      "Ó": 143,
      "Ô": 144,
      "Õ": 145,
      "Ö": 146,
      "×": 147,
      "Ø": 148,
      "Ù": 149,
      "Ú": 150,
      "Û": 151,
      "à": 152,
      "á": 153,
      "â": 154,
      "ã": 155,
      "ä": 156,
      "å": 157,
      "æ": 158,
      "ç": 159,
      "è": 160,
      "é": 161,
      "ê": 162,
      "ë": 163,
      "ì": 164,
      "í": 165,
      "ï": 166,
      "ð": 167,
      "ā": 168,
      "ă": 169,
      "Ą": 170,
      "ĉ": 171,
      "Ċ": 172,
      "č": 173,
      "ě": 174,
      "ğ": 175,
      "Ġ": 176,
      "Ģ": 177,
      "ģ": 178,
      "Ĥ": 179,
      "ĥ": 180,
      "Ħ": 181,
      "ħ": 182,
      "Ĩ": 183,
      "ĩ": 184,
      "Ī": 185,
      "ī": 186,
      "Ĭ": 187,
      "ĭ": 188,
      "Į": 189,
      "į": 190,
      "İ": 191,
      "ı": 192,
      "Ĳ": 193,
      "ĳ": 194,
      "Ĵ": 195,
      "ĵ": 196,
      "Ķ": 197,
      "ķ": 198,
      "ĸ": 199,
      "Ĺ": 200,
      "ĺ": 201,
      "Ļ": 202,
      "ļ": 203,
      "Ľ": 204,
      "ľ": 205,
      "Ŀ": 206,
      "ŀ": 207,
      "Ł": 208,
      "ł": 209,
      "Ń": 210,
      "ĠĠ": 211,
      "ĠĠĠĠ": 212,
      "čĊ": 213,
      "ĠĠĠĠĠĠĠĠ": 214,
      "ĠĠĠ": 215,
      "se": 216,
      "ĠĠĠĠĠĠĠ": 217,
      "in": 218,
      "re": 219,
      "on": 220,
      "at": 221,
      "Ġ=": 222,
      "or": 223,
      "er": 224,
      "st": 225,
      "ĠĠĠĠĠĠĠĠĠĠĠ": 226,
      "en": 227,
      "Ġi": 228,
      "de": 229,
      "al": 230,
      "sel": 231,
      "ar": 232,
      "self": 233,
      "Ġt": 234,
      "me": 235,
      "le": 236,
      "an": 237,
      "Ġf": 238,
      "Ġre": 239,
      "Ġc": 240,
      "ur": 241,
      "ti": 242,
      "Ġif": 243,
      "ce": 244,
      "Ġn": 245,
      "Ġp": 246,
      "Ġself": 247,
      "Ġin": 248,
      "ge": 249,
      "ĠĠĠĠĠĠĠĠĠĠĠĠĠĠĠĠ": 250,
      "Ġe": 251,
      "):": 252,
      "ro": 253,
      "he": 254,
      "ame": 255,
      "it": 256,
      "Ġ'": 257,
      "Ġa": 258,
      "ue": 259,
      "ĠĠĠĠĠĠĠĠĠĠĠĠĠĠĠ": 260,
      "lo": 261,
      "Ġs": 262,
      "ut": 263,
      "fi": 264,
      "urn": 265,
      "turn": 266,
      "pe": 267,
      "ot": 268,
      "li": 269,
      "ct": 270,
      "dat": 271,
      "di": 272,
      "ing": 273,
      "Ġo": 274,
      "ent": 275,
      "def": 276,
      "Ġreturn": 277,
      "co": 278,
      "un": 279,
      "ra": 280,
      "ss": 281,
      "one": 282,
      "tion": 283,
      "id": 284,
      "ion": 285,
      "Ġfor": 286,
      "Ġm": 287,
      "name": 288,
      "()": 289,
      "ad": 290,
      "None": 291,
      "val": 292,
      "Ġb": 293,
      "get": 294,
      "ed": 295,
      "la": 296,
      "mp": 297,
      "._": 298,
      "Ġ\"": 299,
      "and": 300,
      "data": 301,
      "Ġis": 302,
      "ke": 303,
      "Ġthe": 304,
      "ex": 305,
      "('": 306,
      "ri": 307,
      "ype": 308,
      "ate": 309,
      "ul": 310,
      "))": 311,
      "ch": 312,
      "Ġnot": 313,
      "',": 314,
      "ath": 315,
      "['": 316,
      "Ġw": 317,
      "arg": 318,
      "']": 319,
      "ck": 320,
      "um": 321,
      "es": 322,
      "el": 323,
      "ma": 324,
      "con": 325,
      "ter": 326,
      "Ġst": 327,
      "ror": 328,
      "Ġ(": 329,
      "up": 330,
      "ĠĠĠĠĠĠĠĠĠĠĠĠĠĠĠĠĠĠĠ": 331,
      "ĠNone": 332,
      "value": 333,
      "set": 334,
      "key": 335,
      "ser": 336,
      "ol": 337,
      "Ġ+": 338,
      "ta": 339,
      "ode": 340,
      "Ġl": 341,
      "ver": 342,
      "Ġex": 343,
      "mat": 344,
      "sp": 345,
      "args": 346,
      "end": 347,
      "il": 348,
      "Ġ_": 349,
      "Ġto": 350,
      "ap": 351,
      "')": 352,
      "Ġel": 353,
      "':": 354,
      "for": 355,
      "th": 356,
      "ts": 357,
      "path": 358,
      "Ġcon": 359,
      "Ġelse": 360,
      "ation": 361,
      "Ġd": 362,
      "ction": 363,
      "is": 364,
      "type": 365,
      "Ġ{": 366,
      "as": 367,
      "(\"": 368,
      "Ġ%": 369,
      "ext": 370,
      "ms": 371,
      "to": 372,
      "file": 373,
      "Ġand": 374,
      "Ġ[": 375,
      "ble": 376,
      "rror": 377,
      "Ġ==": 378,
      "Error": 379,
      "ect": 380,
      "list": 381,
      "od": 382,
      "op": 383,
      "log": 384,
      "si": 385,
      "ile": 386,
      "all": 387,
      "Ġh": 388,
      "bj": 389,
      "cep": 390,
      "ry": 391,
      "Ġg": 392,
      "ve": 393,
      "age": 394,
      "ise": 395,
      "Ġ*": 396,
      "te": 397,
      "Ġra": 398,
      "Ġ1": 399,
      "ort": 400,
      "ment": 401,
      "ult": 402,
      "Ġr": 403,
      "par": 404,
      "Ġof": 405,
      "qu": 406,
      "ance": 407,
      "int": 408,
      "format": 409,
      "Ġu": 410,
      "\",": 411,
      "ig": 412,
      "res": 413,
      "vi": 414,
      "app": 415,
      "str": 416,
      "Ġraise": 417,
      "Ġ0": 418,
      "Ġdata": 419,
      "fig": 420,
      "Ġ-": 421,
      "put": 422,
      "po": 423,
      "tr": 424,
      "ith": 425,
      "ite": 426,
      "Tr": 427,
      "Ġde": 428,
      "\")": 429,
      "Ġdi": 430,
      "ord": 431,
      "ren": 432,
      "pro": 433,
      "ub": 434,
      "et": 435,
      "rom": 436,
      "ine": 437,
      "stance": 438,
      "ĠĠĠĠĠĠĠĠĠĠĠĠĠĠĠĠĠĠĠĠĠĠĠĠĠĠĠĠĠĠĠĠ": 439,
      "Ġco": 440,
      "True": 441,
      "alse": 442,
      "que": 443,
      "ze": 444,
      "out": 445,
      "che": 446,
      "ĠĠĠĠĠ": 447,
      "date": 448,
      "False": 449,
      "fo": 450,
      "ew": 451,
      "time": 452,
      "Ġres": 453,
      "Ġor": 454,
      "),": 455,
      "Ġv": 456,
      "Ġpar": 457,
      "kw": 458,
      "per": 459,
      "Ġas": 460,
      "ack": 461,
      "Re": 462,
      "Ġme": 463,
      "ase": 464,
      "eld": 465,
      "Ġname": 466,
      "Ġse": 467,
      "us": 468,
      "Ġvalue": 469,
      "able": 470,
      "])": 471,
      "kwargs": 472,
      "ls": 473,
      "Ġpro": 474,
      "ist": 475,
      "ers": 476,
      "append": 477,
      "Ġlen": 478,
      "our": 479,
      "len": 480,
      "Ġexcep": 481,
      "dex": 482,
      "ow": 483,
      "sh": 484,
      "Ġth": 485,
      "Ġlog": 486,
      "quest": 487,
      "Ġfile": 488,
      "Ġstr": 489,
      "am": 490,
      "lif": 491,
      "code": 492,
      "instance": 493,
      "text": 494,
      "url": 495,
      "bu": 496,
      "ĠĠĠĠĠĠĠĠĠĠĠĠĠĠĠĠĠĠĠĠĠĠĠ": 497,
      "add": 498,
      "red": 499,
      "Ġx": 500,
      "jo": 501,
      "Ġelif": 502,
      "Ġexcept": 503,
      "art": 504,
      "sc": 505,
      "Ġget": 506,
      "='": 507,
      "error": 508,
      "Ġtry": 509,
      "ind": 510,
      "ource": 511,
      "],": 512,
      "Ġy": 513,
      "sion": 514,
      "Ġkey": 515,
      "ange": 516,
      "ff": 517,
      "bject": 518,
      "rent": 519,
      "Ġwith": 520,
      "Ġ{}": 521,
      "Ġfrom": 522,
      "info": 523,
      "ččĊ": 524,
      "__": 525,
      "mm": 526,
      "dir": 527,
      "ci": 528,
      "Ġbe": 529,
      "Ġout": 530,
      "Ġdef": 531,
      "ger": 532,
      "ure": 533,
      "In": 534,
      "Ġnp": 535,
      "pre": 536,
      "col": 537,
      "Ġan": 538,
      "tri": 539,
      "Ġ)": 540,
      "dict": 541,
      "load": 542,
      "ams": 543,
      "lass": 544,
      "onse": 545,
      "attr": 546,
      "config": 547,
      "ic": 548,
      "rip": 549,
      "Ġisinstance": 550,
      "Ġop": 551,
      "Ġch": 552,
      "oc": 553,
      "Ġpa": 554,
      "cess": 555,
      "pa": 556,
      "ĠS": 557,
      "und": 558,
      "Ġen": 559,
      "ime": 560,
      "Ġma": 561,
      "unt": 562,
      "Val": 563,
      "Ġlist": 564,
      "mple": 565,
      "ly": 566,
      "ht": 567,
      "loc": 568,
      "ĠĠĠĠĠĠĠĠĠĠĠĠĠĠĠĠĠĠĠĠĠĠĠĠ": 569,
      "ĠT": 570,
      "ĠC": 571,
      "'.": 572,
      "head": 573,
      "thod": 574,
      "ule": 575,
      "roup": 576,
      "Ex": 577,
      "sponse": 578,
      "read": 579,
      "Ġos": 580,
      "lu": 581,
      "size": 582,
      "[\"": 583,
      "low": 584,
      "ip": 585,
      "ssage": 586,
      "mb": 587,
      "ute": 588,
      "ield": 589,
      "fa": 590,
      "tions": 591,
      "ĠTrue": 592,
      "Ġ**": 593,
      "00": 594,
      "Ġ[]": 595,
      "Ġ>": 596,
      "odel": 597,
      "mo": 598,
      "Ġnew": 599,
      "ild": 600,
      "\":": 601,
      "ĠA": 602,
      "join": 603,
      "Value": 604,
      "lit": 605,
      "Ġro": 606,
      "():": 607,
      "ces": 608,
      "ĠFalse": 609,
      "Ġset": 610,
      "ali": 611,
      "--": 612,
      "Ġ+=": 613,
      "ray": 614,
      "rint": 615,
      "version": 616,
      "Ġresult": 617,
      "Ġ<": 618,
      "bo": 619,
      "ph": 620,
      "index": 621,
      "ery": 622,
      "vent": 623,
      "ory": 624,
      "Ġ2": 625,
      "lab": 626,
      "ssion": 627,
      "Ġpath": 628,
      "son": 629,
      "ost": 630,
      "ken": 631,
      "\"]": 632,
      ".__": 633,
      "atch": 634,
      "ape": 635,
      "Ġcol": 636,
      "os": 637,
      "ĠP": 638,
      "ault": 639,
      "reate": 640,
      "Ġcont": 641,
      "ac": 642,
      "lay": 643,
      "line": 644,
      ").": 645,
      "node": 646,
      "port": 647,
      "array": 648,
      "Ġtime": 649,
      "ari": 650,
      "ER": 651,
      "ca": 652,
      "json": 653,
      "ty": 654,
      "lement": 655,
      "label": 656,
      "query": 657,
      "lock": 658,
      "ork": 659,
      "atus": 660,
      "\".": 661,
      "iv": 662,
      "Ġtype": 663,
      "num": 664,
      "om": 665,
      "cur": 666,
      "Ġk": 667,
      "ary": 668,
      "ne": 669,
      "string": 670,
      "map": 671,
      "dd": 672,
      "ans": 673,
      "ag": 674,
      "ĠI": 675,
      "min": 676,
      "].": 677,
      "ValueError": 678,
      "Ġret": 679,
      "Con": 680,
      "back": 681,
      "Ġpre": 682,
      "py": 683,
      "fe": 684,
      "mage": 685,
      "ument": 686,
      "vice": 687,
      "Ġon": 688,
      "bug": 689,
      "split": 690,
      "!=": 691,
      "enti": 692,
      "ns": 693,
      "ep": 694,
      "sed": 695,
      "ĉĉ": 696,
      "lin": 697,
      "ĠValueError": 698,
      "arget": 699,
      "der": 700,
      "rite": 701,
      "=\"": 702,
      "Ġ!=": 703,
      "ator": 704,
      "ity": 705,
      "ception": 706,
      "unction": 707,
      "mmand": 708,
      "tra": 709,
      "update": 710,
      "ust": 711,
      "ys": 712,
      "base": 713,
      "Ġsh": 714,
      "Ġcur": 715,
      "Ġprint": 716,
      "ĠĠčĊ": 717,
      "Ġconfig": 718,
      "Ġline": 719,
      "state": 720,
      "field": 721,
      "Return": 722,
      "class": 723,
      "ir": 724,
      "lient": 725,
      "unc": 726,
      "obj": 727,
      "max": 728,
      "Ġfil": 729,
      "Ġwh": 730,
      "Ġrequest": 731,
      "Ġ`": 732,
      "Ġ/": 733,
      "user": 734,
      "odule": 735,
      "md": 736,
      "{}": 737,
      "ener": 738,
      "uth": 739,
      "Ġval": 740,
      "Ġun": 741,
      "ĠD": 742,
      "Ġal": 743,
      "ated": 744,
      "ON": 745,
      "fix": 746,
      "sk": 747,
      "count": 748,
      "start": 749,
      "ings": 750,
      "trib": 751,
      "rect": 752,
      "ĠĠĠĠĠĠ": 753,
      "Ġhas": 754,
      "group": 755,
      "lic": 756,
      "debug": 757,
      "by": 758,
      "pi": 759,
      "Ġkwargs": 760,
      "ress": 761,
      "Ġat": 762,
      "ign": 763,
      "ok": 764,
      "IN": 765,
      "sen": 766,
      "values": 767,
      "ann": 768,
      "im": 769,
      "ore": 770,
      "ec": 771,
      "Ġargs": 772,
      "Ġby": 773,
      "Ġint": 774,
      "Ġresponse": 775,
      "Ġuser": 776,
      "Ġid": 777,
      "tain": 778,
      "ab": 779,
      "params": 780,
      "ameter": 781,
      "sub": 782,
      "mport": 783,
      "word": 784,
      "ber": 785,
      "Ġnum": 786,
      "request": 787,
      "gth": 788,
      "\"\"": 789,
      "Ġnode": 790,
      "ample": 791,
      "ET": 792,
      "items": 793,
      "ded": 794,
      "'):": 795,
      "hel": 796,
      "())": 797,
      "Ġoutput": 798,
      "from": 799,
      "yn": 800,
      "Ġsub": 801,
      "Ġall": 802,
      "[:": 803,
      "Ġite": 804,
      "AT": 805,
      "ound": 806,
      "own": 807,
      "mpl": 808,
      "ang": 809,
      "arn": 810,
      "RE": 811,
      "ml": 812,
      "Exception": 813,
      "iter": 814,
      "vel": 815,
      "arch": 816,
      "ĠĠĠĠĠĠĠĠĠĠĠĠĠĠĠĠĠĠĠĠĠĠĠĠĠĠĠ": 817,
      "iven": 818,
      "ĠM": 819,
      "shape": 820,
      "Ġpo": 821,
      "ults": 822,
      "lace": 823,
      "([": 824,
      "work": 825,
      "scrip": 826,
      "da": 827,
      "gra": 828,
      "Ġfield": 829,
      "ĠL": 830,
      "inter": 831,
      "ree": 832,
      "if": 833,
      "comp": 834,
      "sert": 835,
      "Ġsi": 836,
      "cord": 837,
      "fil": 838,
      "pp": 839,
      "ard": 840,
      "Ġobject": 841,
      "with": 842,
      "Ġthis": 843,
      "Ġlogger": 844,
      "heck": 845,
      "form": 846,
      "ĠN": 847,
      "cont": 848,
      "ten": 849,
      "write": 850,
      "Ġmax": 851,
      "call": 852,
      "Ġspe": 853,
      "Ġmethod": 854,
      "wa": 855,
      "ST": 856,
      "Ġerror": 857,
      "Ġ}": 858,
      "gs": 859,
      "keys": 860,
      "Ġte": 861,
      "loat": 862,
      "clu": 863,
      "spa": 864,
      "rame": 865,
      "Ġrange": 866,
      "cs": 867,
      "object": 868,
      "gn": 869,
      "row": 870,
      "Ġ:": 871,
      "Ġ\\": 872,
      "ket": 873,
      "ĠĠĠĠĠĠĠĠĠ": 874,
      "ave": 875,
      "filen": 876,
      "its": 877,
      "Ġstart": 878,
      "rep": 879,
      "Ġdict": 880,
      "lat": 881,
      "model": 882,
      "status": 883,
      "Ġurl": 884,
      "uct": 885,
      "Ġgiven": 886,
      "qui": 887,
      "filename": 888,
      "output": 889,
      "result": 890,
      "ations": 891,
      "ariable": 892,
      "ĠR": 893,
      "Ġac": 894,
      "em": 895,
      "Ġthat": 896,
      "Ġhead": 897,
      "Ġcomp": 898,
      "spe": 899,
      "message": 900,
      "token": 901,
      "ump": 902,
      "valid": 903,
      "rea": 904,
      "np": 905,
      "Ġadd": 906,
      "ull": 907,
      "ĠF": 908,
      "method": 909,
      "Ġarg": 910,
      "names": 911,
      "((": 912,
      "Type": 913,
      "run": 914,
      "..": 915,
      "last": 916,
      "reg": 917,
      "'],": 918,
      "lim": 919,
      "ses": 920,
      "ler": 921,
      "tp": 922,
      "Ġdo": 923,
      "ĠO": 924,
      "Ġtr": 925,
      "Co": 926,
      "mplate": 927,
      "Ġz": 928,
      "Ġparams": 929,
      "Ġimport": 930,
      "space": 931,
      "][": 932,
      "orm": 933,
      "Ġindex": 934,
      "new": 935,
      "pos": 936,
      "Ġle": 937,
      "ject": 938,
      "**": 939,
      "ax": 940,
      "Ġpass": 941,
      "Ġax": 942,
      "Ġbase": 943,
      "Ġitem": 944,
      "df": 945,
      "we": 946,
      "table": 947,
      "lib": 948,
      "ds": 949,
      "ĠU": 950,
      "ĠB": 951,
      "ature": 952,
      "Ġdefault": 953,
      "sg": 954,
      "no": 955,
      "Ġmessage": 956,
      "Ġcall": 957,
      "Ġfunction": 958,
      "input": 959,
      "Ġcurrent": 960,
      "uple": 961,
      "inue": 962,
      "cal": 963,
      "point": 964,
      "ref": 965,
      "lot": 966,
      "Get": 967,
      "server": 968,
      "oth": 969,
      "Ġend": 970,
      "ors": 971,
      "ata": 972,
      "'])": 973,
      "local": 974,
      "source": 975,
      "item": 976,
      "action": 977,
      "move": 978,
      "uti": 979,
      "check": 980,
      "hand": 981,
      "ight": 982,
      "response": 983,
      "ron": 984,
      "tadata": 985,
      "Name": 986,
      "mi": 987,
      "OR": 988,
      "idth": 989,
      "pop": 990,
      "tern": 991,
      "Ġcontinue": 992,
      "EN": 993,
      "sum": 994,
      "Par": 995,
      "ename": 996,
      "default": 997,
      "nection": 998,
      "ask": 999,
      "ant": 1000,
      "ream": 1001,
      "module": 1002,
      "content": 1003,
      "filter": 1004,
      "parse": 1005,
      "Ġinput": 1006,
      "Ġbu": 1007,
      "Ġstring": 1008,
      "job": 1009,
      "msg": 1010,
      "Ġquery": 1011,
      "ive": 1012,
      "types": 1013,
      "rc": 1014,
      "Ġmodel": 1015,
      "Ġobj": 1016,
      "Ke": 1017,
      "func": 1018,
      "(),": 1019,
      "Ġtext": 1020,
      "lob": 1021,
      "rap": 1022,
      "ding": 1023,
      "host": 1024,
      "vert": 1025,
      "().": 1026,
      "Ġevent": 1027,
      "ĠG": 1028,
      "og": 1029,
      "St": 1030,
      "Ġspeci": 1031,
      "order": 1032,
      "fic": 1033,
      "entry": 1034,
      "Ġlin": 1035,
      "act": 1036,
      "be": 1037,
      "DE": 1038,
      "igh": 1039,
      "files": 1040,
      "tes": 1041,
      "Ġmin": 1042,
      "Ġrow": 1043,
      "umn": 1044,
      "mt": 1045,
      "com": 1046,
      "do": 1047,
      "process": 1048,
      ")))": 1049,
      "Ġj": 1050,
      "strip": 1051,
      "ameters": 1052,
      "ence": 1053,
      "fied": 1054,
      "has": 1055,
      "view": 1056,
      "main": 1057,
      "tive": 1058,
      "zer": 1059,
      "ties": 1060,
      "ote": 1061,
      "tainer": 1062,
      "tribute": 1063,
      "ody": 1064,
      "err": 1065,
      "Ġstate": 1066,
      "Ġit": 1067,
      "Ġmsg": 1068,
      "Ġreg": 1069,
      "Ġ{'": 1070,
      "ID": 1071,
      "tings": 1072,
      "Ġread": 1073,
      "event": 1074,
      "ill": 1075,
      "Ġtarget": 1076,
      "mode": 1077,
      "Ġvalues": 1078,
      "service": 1079,
      "Ġmust": 1080,
      "Ġ__": 1081,
      "Key": 1082,
      "ids": 1083,
      "off": 1084,
      "var": 1085,
      "sy": 1086,
      "match": 1087,
      "Ġapp": 1088,
      "AN": 1089,
      "net": 1090,
      "Ġformat": 1091,
      "Ġassert": 1092,
      "ints": 1093,
      "alt": 1094,
      "db": 1095,
      "Pro": 1096,
      "gin": 1097,
      "Ġsource": 1098,
      "idx": 1099,
      "ging": 1100,
      "ments": 1101,
      "Ġversion": 1102,
      "client": 1103,
      "De": 1104,
      "Ġ3": 1105,
      "LE": 1106,
      "length": 1107,
      "Ġcheck": 1108,
      "Ġmatch": 1109,
      "target": 1110,
      "unk": 1111,
      "image": 1112,
      "]:": 1113,
      "ster": 1114,
      "ĠException": 1115,
      "Ġfilename": 1116,
      "Ġrun": 1117,
      "Ġopen": 1118,
      "face": 1119,
      "lower": 1120,
      "sing": 1121,
      "cls": 1122,
      "ists": 1123,
      "uld": 1124,
      "annel": 1125,
      "ted": 1126,
      "Ġwhile": 1127,
      "find": 1128,
      "sor": 1129,
      "Element": 1130,
      "ps": 1131,
      "of": 1132,
      "Ġwe": 1133,
      "command": 1134,
      "old": 1135,
      "Returns": 1136,
      "sition": 1137,
      "Ġinstance": 1138,
      "ĠčĊ": 1139,
      "datetime": 1140,
      "sta": 1141,
      "auth": 1142,
      "ulti": 1143,
      "Ġtoken": 1144,
      "clo": 1145,
      "Ġcls": 1146,
      "Ġare": 1147,
      "tag": 1148,
      "rid": 1149,
      "ome": 1150,
      "context": 1151,
      "Ġcontent": 1152,
      "cache": 1153,
      "clude": 1154,
      "Data": 1155,
      "pack": 1156,
      "ret": 1157,
      "block": 1158,
      "create": 1159,
      "api": 1160,
      "raw": 1161,
      "Ġyield": 1162,
      "reak": 1163,
      "En": 1164,
      "ĠH": 1165,
      "doc": 1166,
      "chema": 1167,
      "alize": 1168,
      "rectory": 1169,
      "Ġup": 1170,
      "Ġne": 1171,
      "other": 1172,
      "scription": 1173,
      "AL": 1174,
      "Ġjson": 1175,
      "resh": 1176,
      "ll": 1177,
      "link": 1178,
      "warn": 1179,
      "utes": 1180,
      "Ġimage": 1181,
      "Ġsu": 1182,
      "options": 1183,
      "Ġgroup": 1184,
      "su": 1185,
      "Ġtag": 1186,
      "AR": 1187,
      "iti": 1188,
      "stem": 1189,
      "root": 1190,
      "[-": 1191,
      "ark": 1192,
      "nect": 1193,
      "replace": 1194,
      "ME": 1195,
      ")]": 1196,
      "av": 1197,
      "uration": 1198,
      "Ġcommand": 1199,
      "Set": 1200,
      "bs": 1201,
      "led": 1202,
      "pect": 1203,
      "otal": 1204,
      "tx": 1205,
      "cmd": 1206,
      "'))": 1207,
      "exp": 1208,
      "level": 1209,
      "Ġtable": 1210,
      ")):": 1211,
      "ats": 1212,
      "Ġinter": 1213,
      "Se": 1214,
      "range": 1215,
      "Ġca": 1216,
      "cle": 1217,
      "lamb": 1218,
      "Id": 1219,
      "trans": 1220,
      "umns": 1221,
      "location": 1222,
      "Ġbo": 1223,
      "Ġsp": 1224,
      "==": 1225,
      "Ġfound": 1226,
      "session": 1227,
      "lete": 1228,
      "ori": 1229,
      "rence": 1230,
      "copy": 1231,
      "lines": 1232,
      "Ġlabel": 1233,
      "Ġno": 1234,
      "Ġper": 1235,
      "File": 1236,
      "pri": 1237,
      "star": 1238,
      "lambda": 1239,
      "layer": 1240,
      "ght": 1241,
      "Ġparent": 1242,
      "ched": 1243,
      "not": 1244,
      "Ġcan": 1245,
      "ain": 1246,
      "ft": 1247,
      "als": 1248,
      "iled": 1249,
      "sco": 1250,
      "lable": 1251,
      "number": 1252,
      "comm": 1253,
      "']:": 1254,
      "Un": 1255,
      "ries": 1256,
      "select": 1257,
      "ĠĠĠĠĠĠĠĠĠĠĠĠĠĠĠĠĠĠĠĠĠĠĠĠĠĠĠĠĠĠĠĠĠĠĠĠĠĠĠĠ": 1258,
      "prefix": 1259,
      "ld": 1260,
      "ĠW": 1261,
      "Ġhasattr": 1262,
      "limit": 1263,
      "Ġsys": 1264,
      "Ġcreate": 1265,
      "Ġcontext": 1266,
      "Ġlo": 1267,
      "ures": 1268,
      "address": 1269,
      "Ġver": 1270,
      "Ġfa": 1271,
      "Ġbreak": 1272,
      "Ġsize": 1273,
      "Ġsup": 1274,
      "sign": 1275,
      "return": 1276,
      "----": 1277,
      "fields": 1278,
      "Ġcmd": 1279,
      "(*": 1280,
      "Ġdoc": 1281,
      "width": 1282,
      "tle": 1283,
      "current": 1284,
      "'].": 1285,
      "fier": 1286,
      "ped": 1287,
      "Ġ'.": 1288,
      "Ġ['": 1289,
      "uri": 1290,
      "ates": 1291,
      "ĠĠĠĠĠĠĠĠĠĠĠĠĠĠĠĠĠĠĠĠĠĠĠĠĠĠĠĠĠĠĠ": 1292,
      "header": 1293,
      "lection": 1294,
      "Res": 1295,
      "``": 1296,
      "cket": 1297,
      "Ġsort": 1298,
      "bro": 1299,
      "Ġfloat": 1300,
      "Di": 1301,
      "rix": 1302,
      "use": 1303,
      "aliz": 1304,
      "Ġtra": 1305,
      "queue": 1306,
      "Ġ('": 1307,
      "ĠIn": 1308,
      "cy": 1309,
      "PE": 1310,
      ".\")": 1311,
      "dep": 1312,
      "onent": 1313,
      ".')": 1314,
      "Ġcode": 1315,
      "Ġfiles": 1316,
      "ches": 1317,
      "Ġmode": 1318,
      "Ġhost": 1319,
      "Ġpy": 1320,
      "Ġmat": 1321,
      "Ġ->": 1322,
      "Ġclass": 1323,
      "Ġtrans": 1324,
      "thon": 1325,
      "coding": 1326,
      "Ġvariable": 1327,
      "TI": 1328,
      "Ġq": 1329,
      "dim": 1330,
      "Ġuse": 1331,
      "parent": 1332,
      "Create": 1333,
      "sample": 1334,
      "Ġmodule": 1335,
      "Ġhand": 1336,
      "frame": 1337,
      "Ġaction": 1338,
      "Ġ'%": 1339,
      "xy": 1340,
      "ĠX": 1341,
      "Ġparser": 1342,
      "cli": 1343,
      "})": 1344,
      "starts": 1345,
      "PI": 1346,
      "man": 1347,
      "color": 1348,
      "cent": 1349,
      "(_": 1350,
      "SE": 1351,
      "ĠType": 1352,
      "OG": 1353,
      "cor": 1354,
      "olu": 1355,
      "resource": 1356,
      "Ġtf": 1357,
      "umer": 1358,
      "inal": 1359,
      "Ġdel": 1360,
      "open": 1361,
      "viron": 1362,
      "ĠET": 1363,
      "title": 1364,
      "Ġstatus": 1365,
      "ync": 1366,
      "Ġ\"\"\"": 1367,
      "child": 1368,
      "'),": 1369,
      "Ġ``": 1370,
      "utils": 1371,
      "Ġ4": 1372,
      "Ġsc": 1373,
      "To": 1374,
      "nd": 1375,
      "http": 1376,
      "Sub": 1377,
      "Ġfe": 1378,
      "float": 1379,
      "Ġoptions": 1380,
      "Ġinto": 1381,
      "offset": 1382,
      "help": 1383,
      "Ġelement": 1384,
      "Ġgetattr": 1385,
      "ĠE": 1386,
      "temp": 1387,
      "Ġclient": 1388,
      "Ġtuple": 1389,
      "\"):": 1390,
      "stamp": 1391,
      "Ġfilter": 1392,
      "Ġblock": 1393,
      "FI": 1394,
      "Ġload": 1395,
      "wait": 1396,
      "ong": 1397,
      "io": 1398,
      "Ġ.": 1399,
      "rt": 1400,
      "ĠV": 1401,
      "']['": 1402,
      "build": 1403,
      "sent": 1404,
      "andom": 1405,
      "his": 1406,
      "ual": 1407,
      "Ġcal": 1408,
      "yload": 1409,
      "Ġresults": 1410,
      "AC": 1411,
      "Ġrep": 1412,
      "uto": 1413,
      "Ġlogging": 1414,
      "env": 1415,
      "fact": 1416,
      "startswith": 1417,
      "Me": 1418,
      "Ġattr": 1419,
      "quence": 1420,
      "indow": 1421,
      "element": 1422,
      "Ġ>=": 1423,
      "attern": 1424,
      "Ġ''": 1425,
      "change": 1426,
      "Ġresource": 1427,
      "Ġauth": 1428,
      "headers": 1429,
      "ference": 1430,
      "({": 1431,
      "callback": 1432,
      "Ġone": 1433,
      "Ġsy": 1434,
      "store": 1435,
      "bin": 1436,
      "container": 1437,
      "ix": 1438,
      "raph": 1439,
      "Ġheaders": 1440,
      "exec": 1441,
      "here": 1442,
      "page": 1443,
      "pass": 1444,
      "mail": 1445,
      "task": 1446,
      "Ġrecord": 1447,
      "top": 1448,
      "function": 1449,
      "}'.": 1450,
      "uid": 1451,
      "uments": 1452,
      "ateg": 1453,
      "template": 1454,
      "List": 1455,
      "cade": 1456,
      "ho": 1457,
      "ast": 1458,
      "ension": 1459,
      "helper": 1460,
      "Ġparse": 1461,
      "Add": 1462,
      "Ġspecified": 1463,
      "req": 1464,
      "lugin": 1465,
      "umerate": 1466,
      "umpy": 1467,
      "record": 1468,
      "les": 1469,
      "metadata": 1470,
      "tail": 1471,
      "search": 1472,
      "Ġ<=": 1473,
      "Ġwill": 1474,
      "ally": 1475,
      ":]": 1476,
      "idat": 1477,
      "Ġoff": 1478,
      "idate": 1479,
      "ud": 1480,
      "std": 1481,
      "Ġad": 1482,
      "fn": 1483,
      "Ġextra": 1484,
      "Ġnumber": 1485,
      "={": 1486,
      "SI": 1487,
      "ĠTypeError": 1488,
      "brocade": 1489,
      "Ġenumerate": 1490,
      "struct": 1491,
      "stri": 1492,
      "RO": 1493,
      "gen": 1494,
      "iss": 1495,
      "quired": 1496,
      "hash": 1497,
      "close": 1498,
      "annot": 1499,
      "gener": 1500,
      "axis": 1501,
      "Ġcount": 1502,
      "ĠĠĠĠĠĠĠĠĠĠĠĠĠĠĠĠĠĠĠĠĠ": 1503,
      "64": 1504,
      "ĠĠĠĠĠĠĠĠĠĠĠĠĠĠĠĠĠĠ": 1505,
      "logger": 1506,
      "ffer": 1507,
      "Ġsession": 1508,
      "exists": 1509,
      "older": 1510,
      "},": 1511,
      "Ġsign": 1512,
      "Ġdep": 1513,
      "lan": 1514,
      "Ġdefin": 1515,
      "encode": 1516,
      "vis": 1517,
      "ould": 1518,
      "Ġiter": 1519,
      "Ġpri": 1520,
      "Ġmo": 1521,
      "[:,": 1522,
      "ql": 1523,
      "Ġarray": 1524,
      "perties": 1525,
      "ccess": 1526,
      "Ġfunc": 1527,
      "char": 1528,
      "ĠĠĠĠĠĠĠĠĠĠĠĠĠĠĠĠĠĠĠĠ": 1529,
      "Ġar": 1530,
      "graph": 1531,
      "opts": 1532,
      "Ġdf": 1533,
      "Ġnext": 1534,
      "Ġdtype": 1535,
      "remove": 1536,
      "ĠQ": 1537,
      "so": 1538,
      "ols": 1539,
      "32": 1540,
      "step": 1541,
      "10": 1542,
      "sort": 1543,
      "'t": 1544,
      "ran": 1545,
      "lease": 1546,
      "'s": 1547,
      "ister": 1548,
      "send": 1549,
      "Ġinfo": 1550,
      "ai": 1551,
      "Ġtask": 1552,
      "timeout": 1553,
      "mary": 1554,
      "stream": 1555,
      "Ġchild": 1556,
      "height": 1557,
      "uni": 1558,
      "ĠĠĠĠĠĠĠĠĠĠĠĠĠĠĠĠĠ": 1559,
      "nodes": 1560,
      "tributes": 1561,
      "ĠKey": 1562,
      "Ġgener": 1563,
      "Ġlast": 1564,
      "Ġwork": 1565,
      "tree": 1566,
      "ach": 1567,
      "norm": 1568,
      "CO": 1569,
      "right": 1570,
      "bytes": 1571,
      "mpty": 1572,
      "ends": 1573,
      "Ġtimeout": 1574,
      "Ġheader": 1575,
      "handle": 1576,
      "Ġlength": 1577,
      "ible": 1578,
      "mote": 1579,
      "ting": 1580,
      "ĠRe": 1581,
      "spec": 1582,
      "Ġother": 1583,
      "ĠĠĠĠĠĠĠĠĠĠĠĠĠĠĠĠĠĠĠĠĠĠĠĠĠĠĠĠ": 1584,
      "script": 1585,
      "irst": 1586,
      "fir": 1587,
      "Ġvalid": 1588,
      "ay": 1589,
      "Ġcallback": 1590,
      "Ġnet": 1591,
      "ner": 1592,
      "pected": 1593,
      "plot": 1594,
      "ĠY": 1595,
      "settings": 1596,
      "UT": 1597,
      "mg": 1598,
      "Ġjob": 1599,
      "section": 1600,
      "Ar": 1601,
      "Ġerr": 1602,
      "Ġinst": 1603,
      "vid": 1604,
      "Ġlocal": 1605,
      "Ġsample": 1606,
      "variable": 1607,
      "Ġport": 1608,
      "Ġpage": 1609,
      "Ġaxis": 1610,
      "]))": 1611,
      "utf": 1612,
      "scal": 1613,
      "ou": 1614,
      "ocket": 1615,
      "project": 1616,
      "tional": 1617,
      "ous": 1618,
      "ize": 1619,
      "Ġover": 1620,
      "print": 1621,
      "dices": 1622,
      "cul": 1623,
      "mask": 1624,
      "Ġprocess": 1625,
      "lt": 1626,
      "Ġext": 1627,
      "decode": 1628,
      "ager": 1629,
      "box": 1630,
      "paths": 1631,
      "Ġ|": 1632,
      "Ġexp": 1633,
      "channel": 1634,
      "Ġupdate": 1635,
      "Ġentry": 1636,
      "rs": 1637,
      "ĠĠĠĠĠĠĠĠĠĠĠĠĠĠĠĠĠĠĠĠĠĠĠĠĠ": 1638,
      "Ġroot": 1639,
      "post": 1640,
      "ved": 1641,
      "rel": 1642,
      "body": 1643,
      "seri": 1644,
      "meta": 1645,
      "SS": 1646,
      "yle": 1647,
      "dtype": 1648,
      "The": 1649,
      "Ġusing": 1650,
      "connect": 1651,
      "param": 1652,
      "SubElement": 1653,
      "Ġfirst": 1654,
      "erge": 1655,
      "eri": 1656,
      "ĠĠĠĠĠĠĠĠĠĠĠĠĠĠĠĠĠĠĠĠĠĠĠĠĠĠĠĠĠ": 1657,
      "Ġexist": 1658,
      "Ġed": 1659,
      "Ġfind": 1660,
      "parser": 1661,
      "UL": 1662,
      "Ġserver": 1663,
      "Ġtemplate": 1664,
      "rol": 1665,
      "cat": 1666,
      "fla": 1667,
      "gment": 1668,
      "UR": 1669,
      "coun": 1670,
      "entifier": 1671,
      "ĠĠĠĠĠĠĠĠĠĠĠĠĠĠĠĠĠĠĠĠĠĠ": 1672,
      "Ġdb": 1673,
      "Ġqu": 1674,
      "las": 1675,
      "]['": 1676,
      ")[": 1677,
      "connection": 1678,
      "ryp": 1679,
      "cho": 1680,
      "pk": 1681,
      "warning": 1682,
      "are": 1683,
      "nown": 1684,
      "ail": 1685,
      "Ġlines": 1686,
      "lobal": 1687,
      "Ġany": 1688,
      "ich": 1689,
      "No": 1690,
      "atures": 1691,
      "ify": 1692,
      "ĠĠĠĠĠĠĠĠĠĠĠĠĠ": 1693,
      "TY": 1694,
      "opy": 1695,
      "edge": 1696,
      "test": 1697,
      "Ġoffset": 1698,
      "try": 1699,
      "del": 1700,
      "points": 1701,
      "results": 1702,
      "Ġmap": 1703,
      "ctionary": 1704,
      "bose": 1705,
      "Ġpack": 1706,
      "]]": 1707,
      "perty": 1708,
      "cf": 1709,
      "ords": 1710,
      "full": 1711,
      "derr": 1712,
      "//": 1713,
      "parameters": 1714,
      "Ġ\"%": 1715,
      "Ġservice": 1716,
      "init": 1717,
      "AG": 1718,
      "column": 1719,
      "extra": 1720,
      "Ġprefix": 1721,
      "cre": 1722,
      "columns": 1723,
      "ping": 1724,
      "Check": 1725,
      "ĠĠĠĠĠĠĠĠĠĠĠĠĠĠĠĠĠĠĠĠĠĠĠĠĠĠ": 1726,
      "Ġref": 1727,
      "Ġcolor": 1728,
      "Ġvar": 1729,
      "(**": 1730,
      "splay": 1731,
      "Lo": 1732,
      "dered": 1733,
      "Ġnamespace": 1734,
      "Ġsorted": 1735,
      "ĠJ": 1736,
      "Ġbody": 1737,
      "Ġexc": 1738,
      ".\"": 1739,
      "seq": 1740,
      "du": 1741,
      "Ġ&": 1742,
      "ont": 1743,
      "Ġshould": 1744,
      "xml": 1745,
      "tiv": 1746,
      "Ġ]": 1747,
      "Ġdest": 1748,
      "conf": 1749,
      "ownload": 1750,
      "Ġdate": 1751,
      "idget": 1752,
      "Ġso": 1753,
      "wrap": 1754,
      "lication": 1755,
      "flow": 1756,
      "__['": 1757,
      "mod": 1758,
      "Ġonly": 1759,
      "Ġfla": 1760,
      "Ch": 1761,
      "Ġcor": 1762,
      "Ġuni": 1763,
      "network": 1764,
      "Ġchar": 1765,
      "next": 1766,
      "Ġerrors": 1767,
      "Ġuti": 1768,
      "Ġenv": 1769,
      "ĠIf": 1770,
      "mission": 1771,
      "core": 1772,
      "AD": 1773,
      "ell": 1774,
      "ING": 1775,
      "01": 1776,
      "ĠKeyError": 1777,
      "Ġfields": 1778,
      "ready": 1779,
      "ANG": 1780,
      "NA": 1781,
      "Str": 1782,
      "Ġhelp": 1783,
      "pub": 1784,
      "For": 1785,
      "extend": 1786,
      "Ġmetadata": 1787,
      "ear": 1788,
      "Ġcache": 1789,
      "Time": 1790,
      "comment": 1791,
      "ical": 1792,
      "Ġold": 1793,
      "Ġidx": 1794,
      "Ġcolumn": 1795,
      "Ġback": 1796,
      "fication": 1797,
      "like": 1798,
      "Ġkeys": 1799,
      "stack": 1800,
      "TE": 1801,
      "Ġproject": 1802,
      "sup": 1803,
      "comple": 1804,
      "Ġdoes": 1805,
      "ttribute": 1806,
      "ights": 1807,
      "fy": 1808,
      "only": 1809,
      "cp": 1810,
      "ported": 1811,
      "cer": 1812,
      "description": 1813,
      "Ġhave": 1814,
      "Invalid": 1815,
      "Ġtemp": 1816,
      "Ġsum": 1817,
      "Ġorig": 1818,
      "oper": 1819,
      "ailable": 1820,
      "Ġdatetime": 1821,
      "tension": 1822,
      "Ġ'{": 1823,
      "make": 1824,
      "stat": 1825,
      "Ġoper": 1826,
      "ass": 1827,
      "conds": 1828,
      "save": 1829,
      "ake": 1830,
      "schema": 1831,
      "orage": 1832,
      "profile": 1833,
      "ning": 1834,
      "sec": 1835,
      "mark": 1836,
      "Ġraw": 1837,
      "Ġnumpy": 1838,
      "Ġcontain": 1839,
      "fore": 1840,
      "labels": 1841,
      "pol": 1842,
      "Not": 1843,
      "verse": 1844,
      "ustom": 1845,
      "Ġbuild": 1846,
      "Ġnorm": 1847,
      "af": 1848,
      "itor": 1849,
      "Ġused": 1850,
      "Ġdirectory": 1851,
      "Ġvi": 1852,
      "Ġ'\\": 1853,
      "itle": 1854,
      "Ġav": 1855,
      "exception": 1856,
      "package": 1857,
      "licy": 1858,
      "mon": 1859,
      "olume": 1860,
      "den": 1861,
      "TP": 1862,
      "vals": 1863,
      "term": 1864,
      "FA": 1865,
      "UN": 1866,
      "objects": 1867,
      "delete": 1868,
      "Class": 1869,
      "entity": 1870,
      "'][": 1871,
      "dates": 1872,
      "go": 1873,
      "src": 1874,
      "}\".": 1875,
      "Read": 1876,
      "Ġchange": 1877,
      "gram": 1878,
      "formation": 1879,
      "dump": 1880,
      "Ġitems": 1881,
      "ative": 1882,
      "Ġpi": 1883,
      "methods": 1884,
      "Ġstream": 1885,
      "orig": 1886,
      "ĠĠĠĠĠĠĠĠĠĠĠĠĠĠ": 1887,
      "MA": 1888,
      "device": 1889,
      "Ġ'/": 1890,
      "Ġwhich": 1891,
      "Ġlink": 1892,
      "const": 1893,
      "Ġsettings": 1894,
      "Po": 1895,
      "defin": 1896,
      "gr": 1897,
      "ector": 1898,
      "over": 1899,
      "Ġnames": 1900,
      "PO": 1901,
      "ĠThe": 1902,
      "Ġparameters": 1903,
      "ency": 1904,
      "cryp": 1905,
      "addr": 1906,
      "Ġresp": 1907,
      "diff": 1908,
      "etch": 1909,
      "Ġorder": 1910,
      "exc": 1911,
      "Up": 1912,
      ")),": 1913,
      "parti": 1914,
      "ĠĠĠĠĠĠĠĠĠĠĠĠĠĠĠĠĠĠĠĠĠĠĠĠĠĠĠĠĠĠĠĠĠĠĠ": 1915,
      "Comp": 1916,
      "Ġsix": 1917,
      "pha": 1918,
      "Ġpackage": 1919,
      "Ġ'_": 1920,
      "system": 1921,
      "Ġconnection": 1922,
      "Ġstd": 1923,
      "Ġmake": 1924,
      "batch": 1925,
      "Ġtotal": 1926,
      "lect": 1927,
      "Ġrel": 1928,
      "uage": 1929,
      "handler": 1930,
      "interface": 1931,
      "dist": 1932,
      "anguage": 1933,
      "Ġht": 1934,
      "Ġchunk": 1935,
      "rit": 1936,
      "argument": 1937,
      "fs": 1938,
      "Ġdictionary": 1939,
      "matrix": 1940,
      "tuple": 1941,
      "Ġzip": 1942,
      "html": 1943,
      "Config": 1944,
      "Ġ{}\".": 1945,
      "gex": 1946,
      "CE": 1947,
      "CH": 1948,
      "pc": 1949,
      "vices": 1950,
      "=[": 1951,
      "abled": 1952,
      "Col": 1953,
      "ATE": 1954,
      "mean": 1955,
      "password": 1956,
      "').": 1957,
      "ĠLOG": 1958,
      "peri": 1959,
      "Ġstruct": 1960,
      "Ġ5": 1961,
      "Ġass": 1962,
      "Ġpassword": 1963,
      "bound": 1964,
      "DI": 1965,
      "Ġapi": 1966,
      "Ġ'-": 1967,
      "lice": 1968,
      "Ġcopy": 1969,
      "tric": 1970,
      "Ġsearch": 1971,
      "ob": 1972,
      "riter": 1973,
      "gest": 1974,
      "dis": 1975,
      "LO": 1976,
      "tran": 1977,
      "grid": 1978,
      "ĠCon": 1979,
      "dic": 1980,
      "Ġframe": 1981,
      "ĠĠĠĠĠĠĠĠĠĠĠĠĠĠĠĠĠĠĠĠĠĠĠĠĠĠĠĠĠĠ": 1982,
      ":`": 1983,
      "fer": 1984,
      "tags": 1985,
      "Ġextension": 1986,
      "Ġreturns": 1987,
      "ultip": 1988,
      "Ġbool": 1989,
      "Ġcomm": 1990,
      "Ġwrap": 1991,
      "lasses": 1992,
      "groups": 1993,
      "stop": 1994,
      "ush": 1995,
      "cies": 1996,
      "lean": 1997,
      "Ġform": 1998,
      "wd": 1999,
      "Ġeach": 2000,
      "part": 2001,
      "Ġyang": 2002,
      "tocol": 2003,
      "domain": 2004,
      "rule": 2005,
      "LI": 2006,
      "Ġwrite": 2007,
      "delta": 2008,
      "sa": 2009,
      "Ġdataset": 2010,
      "okup": 2011,
      "round": 2012,
      "inst": 2013,
      "zip": 2014,
      "bit": 2015,
      "Ġag": 2016,
      "alog": 2017,
      "region": 2018,
      "zeros": 2019,
      "\"\"\"": 2020,
      "Ġdevice": 2021,
      "Ġbin": 2022,
      "Path": 2023,
      "Ġlevel": 2024,
      "Ġallow": 2025,
      "RI": 2026,
      "Ġ\".": 2027,
      "ude": 2028,
      "Ġcli": 2029,
      "now": 2030,
      "Ġexec": 2031,
      "username": 2032,
      "can": 2033,
      "total": 2034,
      "directory": 2035,
      "stats": 2036,
      "mbol": 2037,
      "dataset": 2038,
      "Ġdiff": 2039,
      "the": 2040,
      "TYPE": 2041,
      "left": 2042,
      "Ġtop": 2043,
      "first": 2044,
      "Ġtitle": 2045,
      "rop": 2046,
      "direct": 2047,
      "environ": 2048,
      "buffer": 2049,
      "ating": 2050,
      "Ġsen": 2051,
      "ĉĉĉ": 2052,
      "ML": 2053,
      "rec": 2054,
      "Ġconn": 2055,
      "option": 2056,
      "orts": 2057,
      "CON": 2058,
      "Ġopts": 2059,
      "Ġtmp": 2060,
      "cond": 2061,
      "://": 2062,
      "Ġparti": 2063,
      "12": 2064,
      "let": 2065,
      "ker": 2066,
      "hex": 2067,
      "Ġman": 2068,
      "Ġgen": 2069,
      "Ġpos": 2070,
      "000": 2071,
      "Ġbut": 2072,
      "Ġprovi": 2073,
      "Ġstep": 2074,
      "ection": 2075,
      "ants": 2076,
      "ffix": 2077,
      "ition": 2078,
      "alized": 2079,
      "ĠĠĠĠĠĠĠĠĠĠĠĠ": 2080,
      "rows": 2081,
      "Ġparam": 2082,
      "Ġscal": 2083,
      "imum": 2084,
      "vate": 2085,
      "Ġgraph": 2086,
      "Ġfull": 2087,
      ".'": 2088,
      "ULT": 2089,
      "Hand": 2090,
      "Ġaddress": 2091,
      "CT": 2092,
      "quire": 2093,
      "cl": 2094,
      "day": 2095,
      "show": 2096,
      "Dict": 2097,
      "au": 2098,
      "salt": 2099,
      "access": 2100,
      "active": 2101,
      "Ġawait": 2102,
      "Ġph": 2103,
      "pression": 2104,
      "Ġparameter": 2105,
      "present": 2106,
      "Ġab": 2107,
      "Request": 2108,
      "NAME": 2109,
      "Ġ',": 2110,
      "sig": 2111,
      "ward": 2112,
      "zone": 2113,
      "issing": 2114,
      "Gener": 2115,
      "Ġbytes": 2116,
      "stdout": 2117,
      "('\\": 2118,
      "Ġmask": 2119,
      "ternal": 2120,
      "timestamp": 2121,
      "Ġencoding": 2122,
      "Ġnetwork": 2123,
      "namespace": 2124,
      "Ġ(\"": 2125,
      "ENT": 2126,
      "ĠĠĠĠĠĠĠĠĠĠ": 2127,
      "Ġattribute": 2128,
      "tem": 2129,
      "dest": 2130,
      "Ġalready": 2131,
      "Ġpayload": 2132,
      "Ġarguments": 2133,
      "Ġlocation": 2134,
      "Ġpost": 2135,
      "Ġsalt": 2136,
      "Ġtest": 2137,
      "pattern": 2138,
      "Ġind": 2139,
      "Op": 2140,
      "rate": 2141,
      "Ġshape": 2142,
      "Ġrequests": 2143,
      "Ġlambda": 2144,
      "mber": 2145,
      "tails": 2146,
      "Ġprofile": 2147,
      "ice": 2148,
      "nel": 2149,
      "chain": 2150,
      "MP": 2151,
      "Ġsrc": 2152,
      "bar": 2153,
      "Ġsing": 2154,
      "rection": 2155,
      "chunk": 2156,
      "Ġrequired": 2157,
      "Ġplot": 2158,
      "Object": 2159,
      "dition": 2160,
      "Ġter": 2161,
      "Ġschema": 2162,
      "unit": 2163,
      "indices": 2164,
      "words": 2165,
      "Ġedge": 2166,
      "Ġtree": 2167,
      "Ġselect": 2168,
      "Ġdim": 2169,
      "\"],": 2170,
      "Cont": 2171,
      "tmp": 2172,
      "common": 2173,
      "ĠThis": 2174,
      "util": 2175,
      "Log": 2176,
      "Ġwidth": 2177,
      "Ġlimit": 2178,
      "Ġinclude": 2179,
      "ek": 2180,
      "exit": 2181,
      "style": 2182,
      "Ġnodes": 2183,
      "sys": 2184,
      "ents": 2185,
      "Ġ):": 2186,
      "Ġchannel": 2187,
      "sn": 2188,
      "Ġwas": 2189,
      "Ġfin": 2190,
      "TTP": 2191,
      "Ġsection": 2192,
      "Ġcre": 2193,
      "SON": 2194,
      "execute": 2195,
      "Ġip": 2196,
      "Parse": 2197,
      "alias": 2198,
      "hed": 2199,
      "Ġwhen": 2200,
      "25": 2201,
      "sw": 2202,
      "random": 2203,
      "scale": 2204,
      "ponse": 2205,
      "train": 2206,
      "itial": 2207,
      "FAULT": 2208,
      "Ġpk": 2209,
      "ategory": 2210,
      "\"])": 2211,
      "Ġ[\"": 2212,
      "medi": 2213,
      "Ġplt": 2214,
      "Ġsk": 2215,
      "est": 2216,
      "Ġ{}'.": 2217,
      "dev": 2218,
      "properties": 2219,
      "ose": 2220,
      "KE": 2221,
      "Ġdescription": 2222,
      "Ġ10": 2223,
      "abs": 2224,
      "conn": 2225,
      "Ġview": 2226,
      "olve": 2227,
      "Ġconvert": 2228,
      "Ġclo": 2229,
      "Ġcollection": 2230,
      "zed": 2231,
      "Ġ6": 2232,
      "Ġhash": 2233,
      "position": 2234,
      "EL": 2235,
      "Ġsplit": 2236,
      "depth": 2237,
      "attrs": 2238,
      "gress": 2239,
      "sv": 2240,
      "upper": 2241,
      "Frame": 2242,
      "errors": 2243,
      "idation": 2244,
      "vari": 2245,
      "Ġ'{}": 2246,
      "Ġcom": 2247,
      "ttributeError": 2248,
      "Ġwarn": 2249,
      "Ġmeta": 2250,
      "Ġctx": 2251,
      "cept": 2252,
      "Ġbatch": 2253,
      "mplement": 2254,
      "ĠĠĠĠĠĠĠĠĠĠĠĠĠĠĠĠĠĠĠĠĠĠĠĠĠĠĠĠĠĠĠĠĠĠĠĠ": 2255,
      "Ġign": 2256,
      "Ġnon": 2257,
      "resp": 2258,
      "Ġconfiguration": 2259,
      "hist": 2260,
      "async": 2261,
      "Ġstop": 2262,
      "fin": 2263,
      "This": 2264,
      "esc": 2265,
      "Ġregion": 2266,
      "ĠĠĠĠĠĠĠĠĠĠĠĠĠĠĠĠĠĠĠĠĠĠĠĠĠĠĠĠĠĠĠĠĠ": 2267,
      "...": 2268,
      "Ġ\"\"": 2269,
      "Ġremove": 2270,
      "parts": 2271,
      "ript": 2272,
      "git": 2273,
      "Run": 2274,
      "ĠCo": 2275,
      "Ġlib": 2276,
      "ics": 2277,
      "tity": 2278,
      "ranch": 2279,
      "Ġoption": 2280,
      "FF": 2281,
      "lem": 2282,
      "hell": 2283,
      "String": 2284,
      "stderr": 2285,
      "Bu": 2286,
      "gh": 2287,
      "Ġfeature": 2288,
      "ination": 2289,
      "Ġcontainer": 2290,
      "ak": 2291,
      "reshold": 2292,
      "Ġrule": 2293,
      "ĠRun": 2294,
      "aults": 2295,
      "ories": 2296,
      "Ġsingle": 2297,
      "dot": 2298,
      "ead": 2299,
      "=(": 2300,
      "ride": 2301,
      "AB": 2302,
      "redenti": 2303,
      "Ġdir": 2304,
      "Ġ@": 2305,
      "Ġrest": 2306,
      "Ser": 2307,
      "ick": 2308,
      "Ġlayer": 2309,
      "Ġobjects": 2310,
      "entries": 2311,
      "Ġshow": 2312,
      "ility": 2313,
      "Ġxml": 2314,
      "med": 2315,
      "Ġ--": 2316,
      "aml": 2317,
      "ĠĠĠĠĠĠĠĠĠĠĠĠĠĠĠĠĠĠĠĠĠĠĠĠĠĠĠĠĠĠĠĠĠĠ": 2318,
      "mit": 2319,
      "Ġreq": 2320,
      "mory": 2321,
      "ins": 2322,
      "ib": 2323,
      "Ġpub": 2324,
      "Ġ{\"": 2325,
      "GER": 2326,
      "mag": 2327,
      "Ġutils": 2328,
      "=%": 2329,
      ":%": 2330,
      "component": 2331,
      "wh": 2332,
      "ait": 2333,
      "]):": 2334,
      "known": 2335,
      "IT": 2336,
      "ware": 2337,
      "Ġregister": 2338,
      "Ġsco": 2339,
      "desc": 2340,
      "Ġpoint": 2341,
      "entic": 2342,
      "layers": 2343,
      "__,": 2344,
      "itude": 2345,
      "email": 2346,
      "vars": 2347,
      "Ġlat": 2348,
      "Node": 2349,
      "pair": 2350,
      "Ġforce": 2351,
      "NO": 2352,
      "window": 2353,
      "thread": 2354,
      "Ġ8": 2355,
      "feature": 2356,
      "istry": 2357,
      "Ġtri": 2358,
      "ĠAttributeError": 2359,
      "validate": 2360,
      "cols": 2361,
      "itch": 2362,
      "identifier": 2363,
      "Ġcolumns": 2364,
      "spect": 2365,
      "ailed": 2366,
      "wo": 2367,
      "raise": 2368,
      "tf": 2369,
      "radi": 2370,
      "`.": 2371,
      "Ġstat": 2372,
      "ending": 2373,
      "ordin": 2374,
      "cast": 2375,
      "Ġmod": 2376,
      "sequence": 2377,
      "Ġhandler": 2378,
      "ES": 2379,
      "repo": 2380,
      "duct": 2381,
      "encoding": 2382,
      "endswith": 2383,
      "empty": 2384,
      "Ġparsed": 2385,
      "Ġdatabase": 2386,
      "pl": 2387,
      "shot": 2388,
      "]),": 2389,
      "Ġsig": 2390,
      "Ġpd": 2391,
      "payload": 2392,
      "Ġusername": 2393,
      "Ġexception": 2394,
      "Ġavailable": 2395,
      "down": 2396,
      "TION": 2397,
      "EX": 2398,
      "An": 2399,
      "Ġprovided": 2400,
      "cell": 2401,
      "[:-": 2402,
      "Ġconst": 2403,
      "ĠAPI": 2404,
      "keep": 2405,
      "place": 2406,
      "samples": 2407,
      "plugin": 2408,
      "attributes": 2409,
      "Ġexists": 2410,
      "children": 2411,
      "scope": 2412,
      "ĠOp": 2413,
      "ton": 2414,
      "ves": 2415,
      "teger": 2416,
      "ens": 2417,
      "Index": 2418,
      "tach": 2419,
      "ther": 2420,
      "Cal": 2421,
      "Ġbound": 2422,
      "Ġsave": 2423,
      "Ġfailed": 2424,
      "Load": 2425,
      "Ġargument": 2426,
      "====": 2427,
      "ĠUn": 2428,
      "ason": 2429,
      "ful": 2430,
      "'}": 2431,
      "coder": 2432,
      "pid": 2433,
      "Sh": 2434,
      "manager": 2435,
      "true": 2436,
      "tract": 2437,
      "Ġsuper": 2438,
      "Ġrandom": 2439,
      "apping": 2440,
      "cap": 2441,
      "arr": 2442,
      "alys": 2443,
      "16": 2444,
      "--------": 2445,
      "ĠRuntime": 2446,
      "Ġ'--": 2447,
      "alysis": 2448,
      "Ġverbose": 2449,
      "zation": 2450,
      "Ġcomponent": 2451,
      "AS": 2452,
      "Ġposition": 2453,
      "gine": 2454,
      "proxy": 2455,
      "Ġdist": 2456,
      "bl": 2457,
      "Ġinformation": 2458,
      "Ġpart": 2459,
      "Num": 2460,
      "import": 2461,
      "river": 2462,
      "vider": 2463,
      "sq": 2464,
      "Ġqueue": 2465,
      "Ġparts": 2466,
      "99": 2467,
      "()):": 2468,
      "ĠID": 2469,
      "non": 2470,
      "Ġact": 2471,
      "Found": 2472,
      "year": 2473,
      "Item": 2474,
      "serialize": 2475,
      "Ġ\"{": 2476,
      "Ġthread": 2477,
      "Event": 2478,
      "Qu": 2479,
      "('%": 2480,
      "folder": 2481,
      "Ġvari": 2482,
      "loop": 2483,
      "Ġtags": 2484,
      "cheme": 2485,
      "dirs": 2486,
      "cker": 2487,
      "}'": 2488,
      "\"),": 2489,
      "Ġthen": 2490,
      "State": 2491,
      "Ġcomple": 2492,
      "Failed": 2493,
      "Ġlabels": 2494,
      "Ġroute": 2495,
      "vious": 2496,
      "ĠĠĠĠĠĠĠĠĠĠĠĠĠĠĠĠĠĠĠĠĠĠĠĠĠĠĠĠĠĠĠĠĠĠĠĠĠĠĠ": 2497,
      "features": 2498,
      "Ġhandle": 2499,
      "classes": 2500,
      "Ġplugin": 2501,
      "press": 2502,
      "my": 2503,
      "Ġword": 2504,
      "Ġhparams": 2505,
      "counts": 2506,
      "Ġpattern": 2507,
      "ie": 2508,
      "Ġaf": 2509,
      "0000": 2510,
      "coe": 2511,
      "Ġfig": 2512,
      "variables": 2513,
      "posit": 2514,
      "Ġits": 2515,
      "weight": 2516,
      "_,": 2517,
      "ived": 2518,
      "vo": 2519,
      "Ġbased": 2520,
      "Ġremote": 2521,
      "leep": 2522,
      "latform": 2523,
      "US": 2524,
      "tokens": 2525,
      "site": 2526,
      "ween": 2527,
      "\"))": 2528,
      "txt": 2529,
      "Ġtx": 2530,
      "Ġspec": 2531,
      "</": 2532,
      "Ġtran": 2533,
      "Ġ\"\\": 2534,
      "Ġseri": 2535,
      "VER": 2536,
      "uuid": 2537,
      "Ġdelta": 2538,
      "Ġge": 2539,
      "fit": 2540,
      "(\"%": 2541,
      "Ġloc": 2542,
      "ighb": 2543,
      "('/": 2544,
      "Ġap": 2545,
      "ython": 2546,
      "Ġ})": 2547,
      "Convert": 2548,
      "KEY": 2549,
      "Text": 2550,
      "Ġsend": 2551,
      "ĠRuntimeError": 2552,
      "Ġtypes": 2553,
      "Format": 2554,
      "Ġfn": 2555,
      "collection": 2556,
      "book": 2557,
      "Ġneed": 2558,
      "reen": 2559,
      "ultiple": 2560,
      "Response": 2561,
      "Ġmark": 2562,
      "Ġ_,": 2563,
      "etween": 2564,
      "ily": 2565,
      "side": 2566,
      "interval": 2567,
      "aded": 2568,
      "TO": 2569,
      "insert": 2570,
      "()[": 2571,
      "dumps": 2572,
      "ctx": 2573,
      "account": 2574,
      "Ġmon": 2575,
      "Trans": 2576,
      "Ġpair": 2577,
      "ters": 2578,
      "Ġmatrix": 2579,
      "convert": 2580,
      "IO": 2581,
      "sets": 2582,
      "commit": 2583,
      "cc": 2584,
      "'](": 2585,
      "score": 2586,
      "()))": 2587,
      "qual": 2588,
      "At": 2589,
      "ution": 2590,
      "dt": 2591,
      "ng": 2592,
      "trics": 2593,
      "seconds": 2594,
      "route": 2595,
      "Ġdelete": 2596,
      "Ġexisting": 2597,
      "bi": 2598,
      "uture": 2599,
      "encies": 2600,
      "Ġsa": 2601,
      "Ġright": 2602,
      "sha": 2603,
      "way": 2604,
      "Ġdocument": 2605,
      "ensions": 2606,
      "Ġenviron": 2607,
      "By": 2608,
      "lap": 2609,
      "Info": 2610,
      "DEFAULT": 2611,
      "Ġren": 2612,
      "culate": 2613,
      "loads": 2614,
      "bits": 2615,
      "Ġrows": 2616,
      "Exec": 2617,
      "vec": 2618,
      "sist": 2619,
      "ĠData": 2620,
      "tools": 2621,
      "gments": 2622,
      "Ġyou": 2623,
      "dirname": 2624,
      "opt": 2625,
      "Pre": 2626,
      "cursor": 2627,
      "requ": 2628,
      "dated": 2629,
      "idden": 2630,
      "auto": 2631,
      "dims": 2632,
      "Ġconf": 2633,
      "prec": 2634,
      "URL": 2635,
      "Ġsequence": 2636,
      "nt": 2637,
      "GET": 2638,
      "vm": 2639,
      "Ġunit": 2640,
      "mbers": 2641,
      "ĠĠĠĠĠĠĠĠĠĠĠĠĠĠĠĠĠĠĠĠĠĠĠĠĠĠĠĠĠĠĠĠĠĠĠĠĠĠ": 2642,
      "ites": 2643,
      "lon": 2644,
      "Ġreplace": 2645,
      "eries": 2646,
      "(\"\\": 2647,
      "Ġglobal": 2648,
      "Ġstats": 2649,
      "Per": 2650,
      "cfg": 2651,
      "mbed": 2652,
      "Ġclick": 2653,
      "Ġattributes": 2654,
      "Process": 2655,
      "04": 2656,
      "angle": 2657,
      "ERR": 2658,
      "Ġsuccess": 2659,
      "remote": 2660,
      "eno": 2661,
      "__)": 2662,
      "User": 2663,
      "ĠSe": 2664,
      "Ġseq": 2665,
      "Ġ-=": 2666,
      "redentials": 2667,
      "'\\": 2668,
      "ash": 2669,
      "ink": 2670,
      "Ġmissing": 2671,
      "ĠĠĠĠĠĠĠĠĠĠĠĠĠĠĠĠĠĠĠĠĠĠĠĠĠĠĠĠĠĠĠĠĠĠĠĠĠ": 2672,
      "TER": 2673,
      "Ġaccess": 2674,
      "ies": 2675,
      "rary": 2676,
      "ĠYANG": 2677,
      "RL": 2678,
      "arning": 2679,
      "alle": 2680,
      "mac": 2681,
      "dr": 2682,
      "ĠPro": 2683,
      "Ġaccount": 2684,
      "csv": 2685,
      "alg": 2686,
      "layout": 2687,
      "Ġfact": 2688,
      "Parser": 2689,
      "Ġconnect": 2690,
      "ws": 2691,
      "Ġ((": 2692,
      "verage": 2693,
      "Ġdesc": 2694,
      "bot": 2695,
      "Ġexpected": 2696,
      "clean": 2697,
      "img": 2698,
      "ĠK": 2699,
      "na": 2700,
      "LOG": 2701,
      "tific": 2702,
      "Ġignore": 2703,
      "Field": 2704,
      "Ġstack": 2705,
      "trace": 2706,
      "}.": 2707,
      "attribute": 2708,
      "Ġdt": 2709,
      "ED": 2710,
      "Ġextensions": 2711,
      "MO": 2712,
      "aly": 2713,
      "Ġcer": 2714,
      "Ġsame": 2715,
      "PAT": 2716,
      "Ġskip": 2717,
      "Client": 2718,
      "olution": 2719,
      "ority": 2720,
      "serv": 2721,
      "pr": 2722,
      "sep": 2723,
      "Ġgo": 2724,
      "models": 2725,
      "Message": 2726,
      "coords": 2727,
      "Ġmerge": 2728,
      "Ġcursor": 2729,
      "flags": 2730,
      "ui": 2731,
      "valu": 2732,
      "mapping": 2733,
      "fname": 2734,
      "Le": 2735,
      "pace": 2736,
      "/%": 2737,
      "actions": 2738,
      "any": 2739,
      "Ġdomain": 2740,
      "center": 2741,
      "Ġpol": 2742,
      "ollow": 2743,
      "alizer": 2744,
      "curity": 2745,
      "App": 2746,
      "Ġcoun": 2747,
      "Ġpoints": 2748,
      "Ġsocket": 2749,
      "Ġtokens": 2750,
      "expected": 2751,
      "Ġafter": 2752,
      "series": 2753,
      "::": 2754,
      "fetch": 2755,
      "rou": 2756,
      "tax": 2757,
      "pt": 2758,
      "org": 2759,
      "##": 2760,
      "speci": 2761,
      "case": 2762,
      "Ġdirect": 2763,
      "ĠPar": 2764,
      "-%": 2765,
      "cut": 2766,
      "Ġheight": 2767,
      "very": 2768,
      "til": 2769,
      "board": 2770,
      "allow": 2771,
      "sive": 2772,
      "inputs": 2773,
      "policy": 2774,
      "ATI": 2775,
      "apshot": 2776,
      "Ġdecor": 2777,
      "just": 2778,
      "align": 2779,
      "Ġrepresent": 2780,
      "Ġsn": 2781,
      "rb": 2782,
      "olver": 2783,
      "Ġfp": 2784,
      "Ġvalidate": 2785,
      "Ġsystem": 2786,
      "reference": 2787,
      "transform": 2788,
      "bind": 2789,
      "Ġthan": 2790,
      "prop": 2791,
      "ĠDe": 2792,
      "unique": 2793,
      "RA": 2794,
      "/{": 2795,
      "nan": 2796,
      "Ġcell": 2797,
      "Ġinterface": 2798,
      "imat": 2799,
      "late": 2800,
      "Ġreference": 2801,
      "ĠIO": 2802,
      "atter": 2803,
      "Ġtimestamp": 2804,
      "ered": 2805,
      "python": 2806,
      "weights": 2807,
      "logging": 2808,
      "vision": 2809,
      "Ġabs": 2810,
      "report": 2811,
      "poch": 2812,
      "events": 2813,
      "Ġstdout": 2814,
      "ift": 2815,
      "Ġmain": 2816,
      "merge": 2817,
      "DB": 2818,
      "units": 2819,
      "IL": 2820,
      "Ġwindow": 2821,
      "Ġinit": 2822,
      "Ġproperties": 2823,
      "pository": 2824,
      "fra": 2825,
      "distance": 2826,
      "Ġleft": 2827,
      "multi": 2828,
      "changes": 2829,
      "Ac": 2830,
      "Handler": 2831,
      "ank": 2832,
      "Ġctypes": 2833,
      "factor": 2834,
      "enter": 2835,
      "Ġprop": 2836,
      "Ġwhere": 2837,
      "orith": 2838,
      "Ġtrain": 2839,
      "Ġiss": 2840,
      "control": 2841,
      "Ġscale": 2842,
      "adding": 2843,
      "Ġtwo": 2844,
      "mgmt": 2845,
      "cb": 2846,
      "vs": 2847,
      "Ġimg": 2848,
      "Input": 2849,
      "edges": 2850,
      "br": 2851,
      "ceptions": 2852,
      "Ġbyte": 2853,
      "Ġextract": 2854,
      "socket": 2855,
      "SO": 2856,
      "DO": 2857,
      "lish": 2858,
      "states": 2859,
      "''": 2860,
      "rg": 2861,
      "assed": 2862,
      "archive": 2863,
      "TH": 2864,
      "Ġclu": 2865,
      "Ġmore": 2866,
      "where": 2867,
      "ĠJSON": 2868,
      "}\\": 2869,
      "ored": 2870,
      "ured": 2871,
      "}\"": 2872,
      "reshape": 2873,
      "rain": 2874,
      "ators": 2875,
      "her": 2876,
      "('-": 2877,
      "etri": 2878,
      "gate": 2879,
      "ensor": 2880,
      "fd": 2881,
      "(-": 2882,
      "wise": 2883,
      "basename": 2884,
      "bool": 2885,
      "Inter": 2886,
      "global": 2887,
      "filepath": 2888,
      "Ġ\",": 2889,
      "Ġrepo": 2890,
      "Ġemail": 2891,
      "','": 2892,
      "Ġcf": 2893,
      "Ġpaths": 2894,
      "ometry": 2895,
      "Ġgenerate": 2896,
      "Ġattrs": 2897,
      "Ġflags": 2898,
      "BU": 2899,
      "Ġpop": 2900,
      "display": 2901,
      "pool": 2902,
      "extract": 2903,
      "Ġfmt": 2904,
      "SC": 2905,
      "ground": 2906,
      "Ġbetween": 2907,
      "rf": 2908,
      "bution": 2909,
      "pix": 2910,
      "Ġmatches": 2911,
      "{}'.": 2912,
      "sql": 2913,
      "ĠNot": 2914,
      "ĠURL": 2915,
      "Build": 2916,
      "application": 2917,
      "tom": 2918,
      "hook": 2919,
      "tered": 2920,
      "Ġ\"_": 2921,
      "sitions": 2922,
      "eve": 2923,
      "Ġ%(": 2924,
      "Ġalpha": 2925,
      "oci": 2926,
      "sm": 2927,
      "alled": 2928,
      "ither": 2929,
      "summary": 2930,
      "lug": 2931,
      "cluster": 2932,
      "Ġcho": 2933,
      "ctions": 2934,
      "Ġpython": 2935,
      "11": 2936,
      "Ġmean": 2937,
      "()]": 2938,
      "({'": 2939,
      "secret": 2940,
      "document": 2941,
      "('.": 2942,
      "Ġwait": 2943,
      "Ġhist": 2944,
      "mpt": 2945,
      "Ġvis": 2946,
      "Auth": 2947,
      "Ġclean": 2948,
      "real": 2949,
      "Ġauto": 2950,
      "Ġendpoint": 2951,
      "ulate": 2952,
      "ĠSt": 2953,
      "Size": 2954,
      "greg": 2955,
      "Ġuri": 2956,
      "loy": 2957,
      "amily": 2958,
      "flat": 2959,
      "peline": 2960,
      "Ġ\"{}": 2961,
      "parameter": 2962,
      "fill": 2963,
      "exceptions": 2964,
      "Call": 2965,
      "bed": 2966,
      "modules": 2967,
      "Ġ'')": 2968,
      "Model": 2969,
      "Out": 2970,
      "mal": 2971,
      "verbose": 2972,
      "Ġdebug": 2973,
      "include": 2974,
      "storage": 2975,
      "Ġindent": 2976,
      "tect": 2977,
      "Ġwrapper": 2978,
      "Ġreturned": 2979,
      "regex": 2980,
      "termin": 2981,
      "cos": 2982,
      "ssible": 2983,
      "Ġcustom": 2984,
      "modi": 2985,
      "language": 2986,
      "Ġsupported": 2987,
      "Find": 2988,
      "Ġnow": 2989,
      "unicode": 2990,
      "Content": 2991,
      "ven": 2992,
      "HE": 2993,
      "selection": 2994,
      "Could": 2995,
      "Ġ(%": 2996,
      "Ġproperty": 2997,
      "depend": 2998,
      "Ġfinally": 2999,
      "role": 3000,
      "ersion": 3001,
      "*(": 3002,
      "sorted": 3003,
      "kind": 3004,
      "compile": 3005,
      "02": 3006,
      "ERROR": 3007,
      "orithm": 3008,
      "pec": 3009,
      "OP": 3010,
      "Ġhttp": 3011,
      "Arg": 3012,
      "cii": 3013,
      "ision": 3014,
      "Reg": 3015,
      "enu": 3016,
      "Ġsql": 3017,
      "flag": 3018,
      "metric": 3019,
      "Ġelements": 3020,
      "ceived": 3021,
      "(['": 3022,
      "sleep": 3023,
      "fmt": 3024,
      "Ġencode": 3025,
      "Fil": 3026,
      "Ġproxy": 3027,
      "moved": 3028,
      "byte": 3029,
      "Ġpe": 3030,
      "ystem": 3031,
      "tries": 3032,
      "Ġempty": 3033,
      "Array": 3034,
      "Ġcreated": 3035,
      "asure": 3036,
      "Ġbeen": 3037,
      "Update": 3038,
      "clear": 3039,
      "long": 3040,
      "lative": 3041,
      "register": 3042,
      "QU": 3043,
      "SP": 3044,
      "Ġsite": 3045,
      "endpoint": 3046,
      "ĠRes": 3047,
      "Ġ\"/": 3048,
      "CK": 3049,
      "UP": 3050,
      "Ġreport": 3051,
      "glob": 3052,
      "sqrt": 3053,
      "uplic": 3054,
      "ets": 3055,
      "services": 3056,
      "ĉĉĉĉ": 3057,
      "24": 3058,
      "]+": 3059,
      "spath": 3060,
      "Ġsec": 3061,
      "=_": 3062,
      "Ġbefore": 3063,
      "Ġdistance": 3064,
      "Ġ'',": 3065,
      "Ġsubprocess": 3066,
      "tick": 3067,
      "transp": 3068,
      "PRO": 3069,
      "Ġob": 3070,
      "symbol": 3071,
      "Start": 3072,
      "mplemented": 3073,
      "mer": 3074,
      "Ġscope": 3075,
      "ular": 3076,
      "bucket": 3077,
      "complete": 3078,
      "Bo": 3079,
      "volume": 3080,
      "property": 3081,
      "Ġfname": 3082,
      "ignore": 3083,
      "Ġwarnings": 3084,
      "Ġcalled": 3085,
      ":-": 3086,
      "Ġbot": 3087,
      "Ġoperation": 3088,
      "period": 3089,
      "POST": 3090,
      "sin": 3091,
      "IP": 3092,
      "slice": 3093,
      "roll": 3094,
      "contents": 3095,
      "fl": 3096,
      "Ġtrace": 3097,
      "VAL": 3098,
      "Ġdepth": 3099,
      "pare": 3100,
      "Ġprivate": 3101,
      "expand": 3102,
      "Ġvariables": 3103,
      "Ġdefined": 3104,
      "lookup": 3105,
      "force": 3106,
      "SION": 3107,
      "atio": 3108,
      "\"]:": 3109,
      "chedule": 3110,
      "ATION": 3111,
      "Ġweights": 3112,
      "activ": 3113,
      "database": 3114,
      "AM": 3115,
      "elements": 3116,
      "operation": 3117,
      "Ġpassed": 3118,
      "voc": 3119,
      "duce": 3120,
      "Date": 3121,
      "Ġmulti": 3122,
      "Ġunicode": 3123,
      "Ġprev": 3124,
      "success": 3125,
      "fail": 3126,
      "required": 3127,
      "lots": 3128,
      "50": 3129,
      "az": 3130,
      "iteritems": 3131,
      "Ġfail": 3132,
      "ditional": 3133,
      "ones": 3134,
      "Ġkw": 3135,
      "agent": 3136,
      "__.": 3137,
      "Group": 3138,
      "download": 3139,
      "buf": 3140,
      "SH": 3141,
      "Ġmapping": 3142,
      ")])": 3143,
      "\"].": 3144,
      "tical": 3145,
      "utable": 3146,
      "mount": 3147,
      "ordinates": 3148,
      "links": 3149,
      "ness": 3150,
      "Ġhtml": 3151,
      "details": 3152,
      "tab": 3153,
      "isfile": 3154,
      "dec": 3155,
      "miss": 3156,
      "Iter": 3157,
      "alization": 3158,
      "DF": 3159,
      "eded": 3160,
      "win": 3161,
      "rout": 3162,
      "Status": 3163,
      "Ġdis": 3164,
      "zes": 3165,
      "From": 3166,
      "Cannot": 3167,
      "release": 3168,
      "timi": 3169,
      "gp": 3170,
      "Ġdisplay": 3171,
      "Obj": 3172,
      "ĠIOError": 3173,
      "Ġloop": 3174,
      "astype": 3175,
      "alk": 3176,
      "ĠMe": 3177,
      "widget": 3178,
      "partition": 3179,
      "forms": 3180,
      "month": 3181,
      "fp": 3182,
      "ailf": 3183,
      "Ġcomment": 3184,
      "rences": 3185,
      "Creates": 3186,
      "Ġgra": 3187,
      "ridge": 3188,
      "history": 3189,
      "gt": 3190,
      "Ġ100": 3191,
      "defaults": 3192,
      "Ġunique": 3193,
      "Ġstyle": 3194,
      "suffix": 3195,
      "chine": 3196,
      "On": 3197,
      "ĠĠĠĠĠĠĠĠĠĠĠĠĠĠĠĠĠĠĠĠĠĠĠĠĠĠĠĠĠĠĠĠĠĠĠĠĠĠĠĠĠ": 3198,
      "Ġinvalid": 3199,
      "strict": 3200,
      "used": 3201,
      "Ġlon": 3202,
      "Ġoriginal": 3203,
      "alpha": 3204,
      "Te": 3205,
      "custom": 3206,
      "_.": 3207,
      "des": 3208,
      "span": 3209,
      "leted": 3210,
      "Dyn": 3211,
      "Ġfollow": 3212,
      "zero": 3213,
      "Ġenvironment": 3214,
      "apply": 3215,
      "resources": 3216,
      "Or": 3217,
      "ĠEx": 3218,
      "Ġ[])": 3219,
      "ĠReturns": 3220,
      "Ġker": 3221,
      "Ġterm": 3222,
      "urls": 3223,
      "noti": 3224,
      "Ġentity": 3225,
      "20": 3226,
      "Ġindices": 3227,
      "setdefault": 3228,
      "Ġprevious": 3229,
      "IM": 3230,
      "ases": 3231,
      "Ġevents": 3232,
      "protocol": 3233,
      "Ġopt": 3234,
      "Ġcl": 3235,
      "Ġvolume": 3236,
      "mut": 3237,
      "PATH": 3238,
      ":\\": 3239,
      "AP": 3240,
      "Ġdepend": 3241,
      "asic": 3242,
      "Ġcap": 3243,
      "generate": 3244,
      "Loc": 3245,
      "ĠAn": 3246,
      "FO": 3247,
      "Ġvia": 3248,
      "ypes": 3249,
      "Ġbuf": 3250,
      "subject": 3251,
      "wer": 3252,
      "leg": 3253,
      "Ġscript": 3254,
      "ross": 3255,
      "login": 3256,
      "ĠĠĠĠĠĠĠĠĠĠĠĠĠĠĠĠĠĠĠĠĠĠĠĠĠĠĠĠĠĠĠĠĠĠĠĠĠĠĠĠĠĠĠ": 3257,
      "Ġfix": 3258,
      "signal": 3259,
      "rl": 3260,
      "expr": 3261,
      "Query": 3262,
      "hi": 3263,
      "deg": 3264,
      "Unable": 3265,
      "Ġchain": 3266,
      "master": 3267,
      "Ġdownload": 3268,
      "segment": 3269,
      "Ġstore": 3270,
      "Ġexclude": 3271,
      "times": 3272,
      "(',": 3273,
      "ithub": 3274,
      "ĠLOGGER": 3275,
      "filters": 3276,
      "ux": 3277,
      "andard": 3278,
      "ĠOS": 3279,
      "Ġ//": 3280,
      "relation": 3281,
      "threshold": 3282,
      ":])": 3283,
      "Ġseries": 3284,
      "Ġ))": 3285,
      "UM": 3286,
      "apter": 3287,
      "Ġgrid": 3288,
      "Ġflag": 3289,
      "Al": 3290,
      "Ġmay": 3291,
      "ĠInvalid": 3292,
      "okie": 3293,
      "defined": 3294,
      "Ġinitial": 3295,
      "Ġlong": 3296,
      "gy": 3297,
      "tz": 3298,
      "lack": 3299,
      "Ġstderr": 3300,
      "Ġbest": 3301,
      "bers": 3302,
      "Ġcat": 3303,
      "Ġmetric": 3304,
      "Ġmodi": 3305,
      "Ġrec": 3306,
      "safe": 3307,
      "sl": 3308,
      "requency": 3309,
      "END": 3310,
      "prob": 3311,
      "Ġest": 3312,
      "Map": 3313,
      "Ġ\"-": 3314,
      "lers": 3315,
      "sym": 3316,
      "AGE": 3317,
      "\"][\"": 3318,
      "Ġbit": 3319,
      "sim": 3320,
      "Ġrole": 3321,
      "Ġsetattr": 3322,
      "100": 3323,
      "Ġannot": 3324,
      "FILE": 3325,
      "numpy": 3326,
      "gg": 3327,
      "public": 3328,
      "Number": 3329,
      "ĠIndex": 3330,
      "Ġsim": 3331,
      "Do": 3332,
      ")\"": 3333,
      "QL": 3334,
      "Ġfit": 3335,
      "Ġgroups": 3336,
      "anti": 3337,
      "Table": 3338,
      "factory": 3339,
      "Ġlanguage": 3340,
      "ĠHTTP": 3341,
      "Ġweight": 3342,
      "install": 3343,
      "fun": 3344,
      "OT": 3345,
      "']))": 3346,
      "Ġkeep": 3347,
      "Ġcfg": 3348,
      "steps": 3349,
      "ww": 3350,
      "pkg": 3351,
      "Ġpkg": 3352,
      "Ġmy": 3353,
      "Ġallowed": 3354,
      "Ġcontents": 3355,
      "TR": 3356,
      "ports": 3357,
      "Instance": 3358,
      "freq": 3359,
      "utton": 3360,
      "missing": 3361,
      "setup": 3362,
      "\").": 3363,
      "Ġtransform": 3364,
      "Mo": 3365,
      "Code": 3366,
      "memory": 3367,
      "Ġrunning": 3368,
      "after": 3369,
      "Ġfra": 3370,
      "Ġsuffix": 3371,
      "binary": 3372,
      "indent": 3373,
      "\"\"\",": 3374,
      "counter": 3375,
      "els": 3376,
      "Ġdefining": 3377,
      "Connection": 3378,
      "Image": 3379,
      "Ġinputs": 3380,
      "Ġsw": 3381,
      "didate": 3382,
      "comb": 3383,
      "ĠDi": 3384,
      "hostname": 3385,
      "pad": 3386,
      "vector": 3387,
      "ascii": 3388,
      "Ġthem": 3389,
      "Ġhe": 3390,
      "Ġ{})": 3391,
      "blocks": 3392,
      "periment": 3393,
      "signature": 3394,
      "Ġsignature": 3395,
      "channels": 3396,
      "FOR": 3397,
      "Ġcommon": 3398,
      "ĠEn": 3399,
      "codes": 3400,
      "ĠĠĠĠĠĠĠĠĠĠĠĠĠĠĠĠĠĠĠĠĠĠĠĠĠĠĠĠĠĠĠĠĠĠĠĠĠĠĠĠĠĠ": 3401,
      "Ġstorage": 3402,
      "member": 3403,
      "Th": 3404,
      "Count": 3405,
      "Ġrecur": 3406,
      "Ġmessages": 3407,
      "rtual": 3408,
      "light": 3409,
      "={}": 3410,
      "sid": 3411,
      "Ġcluster": 3412,
      "initi": 3413,
      "sity": 3414,
      "missions": 3415,
      "ene": 3416,
      "commands": 3417,
      "ĠList": 3418,
      "area": 3419,
      "category": 3420,
      "ABLE": 3421,
      "Given": 3422,
      "Ġidentifier": 3423,
      "hes": 3424,
      "Ġpad": 3425,
      "Generate": 3426,
      "Ġpool": 3427,
      "reset": 3428,
      "Retri": 3429,
      "nn": 3430,
      "ences": 3431,
      "cessed": 3432,
      "rough": 3433,
      "Version": 3434,
      "HTTP": 3435,
      "axes": 3436,
      "Ġinstall": 3437,
      "Ġsamples": 3438,
      "Ġsome": 3439,
      "cip": 3440,
      "Ġ'__": 3441,
      "Ġ[(": 3442,
      "rot": 3443,
      "arguments": 3444,
      "stribution": 3445,
      "Ġmath": 3446,
      "Ġbucket": 3447,
      "Ġmatching": 3448,
      "Ġ{},": 3449,
      "tk": 3450,
      "Ġcharact": 3451,
      "Ġdst": 3452,
      "null": 3453,
      "fault": 3454,
      "Ġlook": 3455,
      "Man": 3456,
      "NS": 3457,
      "80": 3458,
      "ged": 3459,
      "skip": 3460,
      "gger": 3461,
      "faces": 3462,
      "utype": 3463,
      "Ġ},": 3464,
      "Ġscore": 3465,
      "Ġseconds": 3466,
      "dio": 3467,
      "short": 3468,
      "Ġ[],": 3469,
      "Ġregex": 3470,
      "Ġexit": 3471,
      "definition": 3472,
      "\\'": 3473,
      "none": 3474,
      "syn": 3475,
      "Ġfinal": 3476,
      "TIME": 3477,
      "Ġeither": 3478,
      "Ġcomb": 3479,
      "__(": 3480,
      "Ġpacket": 3481,
      "sitive": 3482,
      "atible": 3483,
      "extmethods": 3484,
      "Ġextmethods": 3485,
      "Ġrender": 3486,
      "DynClass": 3487,
      "under": 3488,
      "ective": 3489,
      "VI": 3490,
      "]*": 3491,
      "Ġ7": 3492,
      "arti": 3493,
      "Ġcontrol": 3494,
      ")}": 3495,
      "deo": 3496,
      "__.__": 3497,
      "HO": 3498,
      "Ġ),": 3499,
      "SET": 3500,
      "enabled": 3501,
      "obs": 3502,
      "Ġexpression": 3503,
      ".,": 3504,
      "tificate": 3505,
      "cd": 3506,
      "Ġretry": 3507,
      "compute": 3508,
      "rup": 3509,
      "')[": 3510,
      "Ġbox": 3511,
      "Ġsignal": 3512,
      "Ġarr": 3513,
      "Ġappro": 3514,
      "ynam": 3515,
      "Ġmag": 3516,
      "suppress": 3517,
      "ef": 3518,
      "Ġday": 3519,
      "ices": 3520,
      "echo": 3521,
      "Ġstructure": 3522,
      "respon": 3523,
      "\\\\": 3524,
      "eval": 3525,
      "Unknown": 3526,
      "images": 3527,
      ".*": 3528,
      "DS": 3529,
      "tegr": 3530,
      "neighb": 3531,
      "records": 3532,
      "55": 3533,
      "Sto": 3534,
      "Ġim": 3535,
      "cert": 3536,
      "concat": 3537,
      "Ġla": 3538,
      "Ġreverse": 3539,
      "(?": 3540,
      "}:": 3541,
      "API": 3542,
      "Ġjoin": 3543,
      "scriptor": 3544,
      "Ġfeatures": 3545,
      "arm": 3546,
      "Ġho": 3547,
      "Ġvm": 3548,
      "kets": 3549,
      "Ġty": 3550,
      "Auto": 3551,
      "rest": 3552,
      "ract": 3553,
      "branch": 3554,
      "(__": 3555,
      ")*": 3556,
      "found": 3557,
      "heet": 3558,
      "Function": 3559,
      "lux": 3560,
      "components": 3561,
      "Ġlower": 3562,
      "ATA": 3563,
      "Ġcannot": 3564,
      "']]": 3565,
      "drop": 3566,
      "DataFrame": 3567,
      "Ġ\"--": 3568,
      "cloud": 3569,
      "Ġdecode": 3570,
      "Ġinspect": 3571,
      "Clo": 3572,
      "Write": 3573,
      "lex": 3574,
      "NotFound": 3575,
      "ater": 3576,
      "hour": 3577,
      "repr": 3578,
      "ili": 3579,
      "days": 3580,
      "SER": 3581,
      "fici": 3582,
      "Ġsegment": 3583,
      "Ġdiffe": 3584,
      "digest": 3585,
      "ength": 3586,
      "Ġda": 3587,
      "abspath": 3588,
      "card": 3589,
      "Ġlike": 3590,
      "Ġalign": 3591,
      "Context": 3592,
      "Desc": 3593,
      "yg": 3594,
      "Ġwhe": 3595,
      "aries": 3596,
      "scheme": 3597,
      "sure": 3598,
      "aved": 3599,
      "dst": 3600,
      "home": 3601,
      "rm": 3602,
      "Ġyour": 3603,
      "Ġfolder": 3604,
      "retry": 3605,
      "Ġmodels": 3606,
      "lied": 3607,
      "ero": 3608,
      "reader": 3609,
      "Ġ200": 3610,
      "Hel": 3611,
      "oms": 3612,
      "Ġspecific": 3613,
      "Ġelem": 3614,
      "Ġactive": 3615,
      "TypeError": 3616,
      "ĠGener": 3617,
      "vers": 3618,
      "sole": 3619,
      "matches": 3620,
      "https": 3621,
      "'\"": 3622,
      "eff": 3623,
      "sted": 3624,
      "deredDict": 3625,
      "unpack": 3626,
      "colors": 3627,
      ".\",": 3628,
      "sd": 3629,
      "verify": 3630,
      "ĠRE": 3631,
      "Ġcase": 3632,
      "gene": 3633,
      "fiers": 3634,
      "invalid": 3635,
      "ĠDE": 3636,
      "isdir": 3637,
      "Result": 3638,
      "Ġiniti": 3639,
      "tool": 3640,
      "Service": 3641,
      "Ġast": 3642,
      "argv": 3643,
      "ĠOr": 3644,
      "Ġcallable": 3645,
      "render": 3646,
      "Ġfilters": 3647,
      "structure": 3648,
      "Ġsummary": 3649,
      "tl": 3650,
      "ĠFile": 3651,
      "ĠZ": 3652,
      "ĠIP": 3653,
      "ons": 3654,
      "Base": 3655,
      "members": 3656,
      "Line": 3657,
      "Tag": 3658,
      "condition": 3659,
      "inv": 3660,
      "draw": 3661,
      "hidden": 3662,
      "Ġ''.": 3663,
      "Ġsecond": 3664,
      "loaded": 3665,
      "Ġdecorator": 3666,
      "Argument": 3667,
      "ian": 3668,
      "sync": 3669,
      "Ġhigh": 3670,
      "Ġ>>": 3671,
      "30": 3672,
      "ared": 3673,
      "utc": 3674,
      "exclude": 3675,
      "ndarray": 3676,
      "Ġ')": 3677,
      "blem": 3678,
      "Ġmultiple": 3679,
      "Ġbuffer": 3680,
      "expression": 3681,
      "Ġflat": 3682,
      "Ġradi": 3683,
      "Ġimp": 3684,
      "Ġmember": 3685,
      "ogle": 3686,
      ".',": 3687,
      "LA": 3688,
      "Ġarti": 3689,
      "ndim": 3690,
      "verts": 3691,
      "Ġrout": 3692,
      "mid": 3693,
      "``.": 3694,
      "atom": 3695,
      "bounds": 3696,
      "maining": 3697,
      "ulation": 3698,
      "messages": 3699,
      "ati": 3700,
      "imp": 3701,
      "sources": 3702,
      "jection": 3703,
      "Ġns": 3704,
      "bins": 3705,
      "%(": 3706,
      "attrib": 3707,
      "uce": 3708,
      "admin": 3709,
      "loss": 3710,
      "Ġpossible": 3711,
      "Ġsyn": 3712,
      "termine": 3713,
      "BUG": 3714,
      "IG": 3715,
      "pb": 3716,
      "amma": 3717,
      "quires": 3718,
      "ense": 3719,
      "Ġfill": 3720,
      "assign": 3721,
      "Ġbinary": 3722,
      "ving": 3723,
      "ribe": 3724,
      "tices": 3725,
      "Ġinteger": 3726,
      "yaml": 3727,
      "akes": 3728,
      "Cur": 3729,
      "tence": 3730,
      "ategories": 3731,
      "before": 3732,
      "CS": 3733,
      "OK": 3734,
      "ĠIN": 3735,
      "Ġstrings": 3736,
      "hs": 3737,
      "metrics": 3738,
      "idator": 3739,
      "={'": 3740,
      "Warning": 3741,
      "Ġsm": 3742,
      "Ġ16": 3743,
      "Ġpresent": 3744,
      "umb": 3745,
      "tact": 3746,
      "Method": 3747,
      "writer": 3748,
      "Ġdat": 3749,
      "ango": 3750,
      "Lay": 3751,
      "olean": 3752,
      "='',": 3753,
      "ability": 3754,
      "Ġverify": 3755,
      "high": 3756,
      "cla": 3757,
      "undle": 3758,
      "Vi": 3759,
      "math": 3760,
      "duration": 3761,
      "entication": 3762,
      "itions": 3763,
      "inf": 3764,
      "Ġsepar": 3765,
      "second": 3766,
      "ions": 3767,
      "registry": 3768,
      "ĠĠĠĠĠĠĠĠĠĠĠĠĠĠĠĠĠĠĠĠĠĠĠĠĠĠĠĠĠĠĠĠĠĠĠĠĠĠĠĠĠĠĠĠ": 3769,
      "Ġcorrect": 3770,
      "Ġexample": 3771,
      "Ġdisk": 3772,
      "Ġglob": 3773,
      "lation": 3774,
      "Ġlock": 3775,
      "Ġbranch": 3776,
      "Ġdestination": 3777,
      "ks": 3778,
      "Ġrequire": 3779,
      "Ġus": 3780,
      "Ġexceptions": 3781,
      "quences": 3782,
      "Ad": 3783,
      "ship": 3784,
      ")).": 3785,
      "istered": 3786,
      "single": 3787,
      "track": 3788,
      "origin": 3789,
      "atches": 3790,
      "Ġwidget": 3791,
      "platform": 3792,
      "ops": 3793,
      "Command": 3794,
      "Ġids": 3795,
      "Ġzone": 3796,
      "Ġcalling": 3797,
      "rer": 3798,
      "15": 3799,
      "Graph": 3800,
      "Of": 3801,
      "product": 3802,
      "Ġcsv": 3803,
      "resses": 3804,
      "('--": 3805,
      "engine": 3806,
      "Ġdirection": 3807,
      "ia": 3808,
      ")/": 3809,
      "arange": 3810,
      "running": 3811,
      "Ġunits": 3812,
      "INT": 3813,
      "shell": 3814,
      "ACK": 3815,
      "wrapper": 3816,
      "Ġang": 3817,
      "ĠPython": 3818,
      ".'.": 3819,
      "dx": 3820,
      "Ġrecords": 3821,
      "urface": 3822,
      "Ġ<<": 3823,
      "note": 3824,
      "atterns": 3825,
      "}{": 3826,
      "ipv": 3827,
      "ĠOSError": 3828,
      "ife": 3829,
      "ĠIndexError": 3830,
      "Ġprotocol": 3831,
      "fast": 3832,
      "epcopy": 3833,
      "spaces": 3834,
      "Level": 3835,
      "configuration": 3836,
      "Ġassoci": 3837,
      "hy": 3838,
      "logy": 3839,
      "Ġsubject": 3840,
      "Ġlookup": 3841,
      "Ġvariant": 3842,
      "Ġcommit": 3843,
      "tc": 3844,
      "(':": 3845,
      "tasks": 3846,
      "cimal": 3847,
      "MS": 3848,
      "Ġentries": 3849,
      "Ġutil": 3850,
      "vl": 3851,
      "Ġaxes": 3852,
      "backend": 3853,
      "rents": 3854,
      "istics": 3855,
      "Filter": 3856,
      "Ġkind": 3857,
      "ste": 3858,
      "ssl": 3859,
      "Ġinterval": 3860,
      "Tree": 3861,
      "olute": 3862,
      "UB": 3863,
      "band": 3864,
      "rpc": 3865,
      "Ġ9": 3866,
      "Ġtransaction": 3867,
      "variant": 3868,
      "js": 3869,
      "disk": 3870,
      "ressed": 3871,
      "bam": 3872,
      "}/": 3873,
      "rules": 3874,
      "static": 3875,
      "ished": 3876,
      "writ": 3877,
      "Action": 3878,
      "_)": 3879,
      "Ro": 3880,
      "Ġshell": 3881,
      "Ġreal": 3882,
      "Ġpid": 3883,
      "Ġds": 3884,
      "Ġclose": 3885,
      "direction": 3886,
      "acy": 3887,
      "Ġslice": 3888,
      "Ġow": 3889,
      "Ġassign": 3890,
      "thing": 3891,
      ",)": 3892,
      "rp": 3893,
      "targets": 3894,
      "ĠCode": 3895,
      "60": 3896,
      "ZE": 3897,
      "Ġcols": 3898,
      "Sp": 3899,
      "Ġmemory": 3900,
      "Widget": 3901,
      "Token": 3902,
      "sertion": 3903,
      "Ġchildren": 3904,
      "mk": 3905,
      "Ġalias": 3906,
      "initial": 3907,
      "font": 3908,
      "ars": 3909,
      "Ġ12": 3910,
      "parsed": 3911,
      "Ġmonth": 3912,
      "ling": 3913,
      "Ġcontains": 3914,
      "('_": 3915,
      "ĠĠĠĠĠĠĠĠĠĠĠĠĠĠĠĠĠĠĠĠĠĠĠĠĠĠĠĠĠĠĠĠĠĠĠĠĠĠĠĠĠĠĠĠĠ": 3916,
      "Record": 3917,
      "Ġwithin": 3918,
      "phi": 3919,
      "Ra": 3920,
      "mportError": 3921,
      "Remove": 3922,
      "tensor": 3923,
      "proc": 3924,
      "crypt": 3925,
      "Ġsetup": 3926,
      "Compute": 3927,
      "catalog": 3928,
      "fasta": 3929,
      "owner": 3930,
      "created": 3931,
      "spatch": 3932,
      "Ġkeyword": 3933,
      "Ġalg": 3934,
      "Ġpolicy": 3935,
      "vlan": 3936,
      "Implemented": 3937,
      "provider": 3938,
      "Ġselected": 3939,
      "Ġcontaining": 3940,
      "Ġkernel": 3941,
      "sters": 3942,
      "sock": 3943,
      "oft": 3944,
      "Session": 3945,
      "ssh": 3946,
      "ferences": 3947,
      "tty": 3948,
      "Ġwin": 3949,
      "PAR": 3950,
      "Ġupper": 3951,
      "detail": 3952,
      "ĠQt": 3953,
      "Tra": 3954,
      "require": 3955,
      "coord": 3956,
      "changed": 3957,
      "limits": 3958,
      "quote": 3959,
      "available": 3960,
      ")'": 3961,
      "seed": 3962,
      "Ġcategory": 3963,
      "Ġapply": 3964,
      "Ġweb": 3965,
      "private": 3966,
      "tile": 3967,
      "cel": 3968,
      "cwd": 3969,
      "Ġgot": 3970,
      "dn": 3971,
      "BO": 3972,
      "Ġyear": 3973,
      "generator": 3974,
      "WS": 3975,
      "served": 3976,
      "web": 3977,
      "Ġplace": 3978,
      "rees": 3979,
      "{}\".": 3980,
      "rand": 3981,
      "wb": 3982,
      "come": 3983,
      "Ġmapped": 3984,
      "Validation": 3985,
      "transaction": 3986,
      "ifest": 3987,
      "andas": 3988,
      "Head": 3989,
      "ĠOptional": 3990,
      "ĠĠĠĠĠĠĠĠĠĠĠĠĠĠĠĠĠĠĠĠĠĠĠĠĠĠĠĠĠĠĠĠĠĠĠĠĠĠĠĠĠĠĠĠĠĠĠĠĠĠĠĠĠĠĠĠĠĠĠĠĠĠĠĠ": 3991,
      "scan": 3992,
      "Ġwhether": 3993,
      "Extract": 3994,
      "PRE": 3995,
      "driver": 3996,
      "Ġcp": 3997,
      "ASE": 3998,
      "refs": 3999,
      "jango": 4000,
      "mesh": 4001,
      "Ġprogress": 4002,
      "exist": 4003,
      "diag": 4004,
      "Fe": 4005,
      "proto": 4006,
      "Ġorigin": 4007,
      "ized": 4008,
      "example": 4009,
      "Ġcondition": 4010,
      "uble": 4011,
      "upload": 4012,
      "dimension": 4013,
      "Ġcorrespon": 4014,
      "FIG": 4015,
      "orization": 4016,
      "Ġrelation": 4017,
      "Ġ*=": 4018,
      "Ġaddr": 4019,
      "Ġbackend": 4020,
      "ential": 4021,
      "topic": 4022,
      "Ġnamed": 4023,
      "ilt": 4024,
      "cesses": 4025,
      "Ġdefinition": 4026,
      "ture": 4027,
      "ĠNo": 4028,
      "kernel": 4029,
      "Point": 4030,
      "Ġpartition": 4031,
      "Ġbind": 4032,
      "ĠNotImplemented": 4033,
      "Ġspace": 4034,
      "MM": 4035,
      "raints": 4036,
      "oid": 4037,
      "progress": 4038,
      "original": 4039,
      "ĠCommand": 4040,
      "ells": 4041,
      "elem": 4042,
      "sens": 4043,
      "edit": 4044,
      "rstrip": 4045,
      "epoch": 4046,
      "ORD": 4047,
      "Ġprob": 4048,
      "Ġcompute": 4049,
      "escape": 4050,
      "Ġ':": 4051,
      "Ġimages": 4052,
      "Source": 4053,
      "Ġfuture": 4054,
      "users": 4055,
      "Ġdefaults": 4056,
      "mbols": 4057,
      "Ġsymbol": 4058,
      "FL": 4059,
      "Ġcurr": 4060,
      "Ġactiv": 4061,
      "conv": 4062,
      "intern": 4063,
      "cluded": 4064,
      "cpu": 4065,
      "Ġchanges": 4066,
      "Can": 4067,
      "nb": 4068,
      "Ġflow": 4069,
      "lineno": 4070,
      "Ġsep": 4071,
      "vertex": 4072,
      "Ġdetails": 4073,
      "\"\\": 4074,
      "sence": 4075,
      "VE": 4076,
      "Ġremoved": 4077,
      "Output": 4078,
      "embed": 4079,
      "Ġmethods": 4080,
      "Ġresources": 4081,
      "uint": 4082,
      "loader": 4083,
      "packages": 4084,
      "Ġnote": 4085,
      "Ġcenter": 4086,
      "icro": 4087,
      "Address": 4088,
      "Ġanalysis": 4089,
      "outputs": 4090,
      "('.')": 4091,
      "'{": 4092,
      "Server": 4093,
      "inner": 4094,
      "][\"": 4095,
      "Ġthere": 4096,
      "contain": 4097,
      "Resource": 4098,
      ".\".": 4099,
      "done": 4100,
      "pred": 4101,
      "Ġnb": 4102,
      "ectors": 4103,
      "configs": 4104,
      "Ġfunctions": 4105,
      "sigma": 4106,
      "pairs": 4107,
      "Ġshutil": 4108,
      "ROM": 4109,
      "didates": 4110,
      "Ġpr": 4111,
      "family": 4112,
      "delay": 4113,
      "crypted": 4114,
      "ancel": 4115,
      "gz": 4116,
      "Ġpix": 4117,
      "ĠImportError": 4118,
      "reduce": 4119,
      "tables": 4120,
      "seek": 4121,
      "Ġ'<": 4122,
      "ii": 4123,
      "Ġbasestring": 4124,
      "mass": 4125,
      "six": 4126,
      "System": 4127,
      "analy": 4128,
      "LIN": 4129,
      "percent": 4130,
      "Ġfeed": 4131,
      "=-": 4132,
      "Sign": 4133,
      "jor": 4134,
      "03": 4135,
      "Block": 4136,
      "ckets": 4137,
      "Ġtab": 4138,
      "Ġinstalled": 4139,
      "lev": 4140,
      "priority": 4141,
      "strings": 4142,
      "Open": 4143,
      "begin": 4144,
      "Ġedges": 4145,
      "cing": 4146,
      "fc": 4147,
      "Ġ'{}'": 4148,
      "ĠĠĠĠĠĠĠĠĠĠĠĠĠĠĠĠĠĠĠĠĠĠĠĠĠĠĠĠĠĠĠĠĠĠĠĠĠĠĠĠĠĠĠĠĠĠ": 4149,
      "extension": 4150,
      "Ġmaster": 4151,
      "dia": 4152,
      "expi": 4153,
      ",))": 4154,
      "jobs": 4155,
      "Ġappend": 4156,
      "Ġgenerator": 4157,
      "Ġduration": 4158,
      "cid": 4159,
      "ditions": 4160,
      "Ġfont": 4161,
      "SIZE": 4162,
      "256": 4163,
      "flush": 4164,
      "Ġtheir": 4165,
      "Ġrepresentation": 4166,
      "div": 4167,
      "ish": 4168,
      "author": 4169,
      "Ġcoords": 4170,
      "choice": 4171,
      "Ġreply": 4172,
      "Ġfilepath": 4173,
      "Ġrelease": 4174,
      "Helper": 4175,
      "Ġcollections": 4176,
      "Ġcached": 4177,
      "Ġwrit": 4178,
      "licit": 4179,
      "Send": 4180,
      "Ġactual": 4181,
      "ik": 4182,
      "Ġfetch": 4183,
      "Ġcommands": 4184,
      "this": 4185,
      "failed": 4186,
      "Ġshort": 4187,
      "refresh": 4188,
      "ttp": 4189,
      "Ġfalse": 4190,
      "asset": 4191,
      "========": 4192,
      "mpling": 4193,
      "ferred": 4194,
      "frames": 4195,
      "Manager": 4196,
      "Ġrelative": 4197,
      "lyph": 4198,
      "normal": 4199,
      "Ġoperator": 4200,
      "limiter": 4201,
      "Ġdirectly": 4202,
      "final": 4203,
      "Ġmd": 4204,
      "Su": 4205,
      "tic": 4206,
      "acity": 4207,
      "View": 4208,
      "chor": 4209,
      "olved": 4210,
      "Ġrv": 4211,
      "Ġupdated": 4212,
      "Store": 4213,
      ")',": 4214,
      "lip": 4215,
      "worker": 4216,
      ".%": 4217,
      "attach": 4218,
      "Dir": 4219,
      "ert": 4220,
      "sumer": 4221,
      "Entry": 4222,
      "ĠError": 4223,
      "ather": 4224,
      "Ġproc": 4225,
      "reverse": 4226,
      "ues": 4227,
      "best": 4228,
      "Ġfd": 4229,
      "power": 4230,
      "FORM": 4231,
      "enum": 4232,
      "uted": 4233,
      "PIPE": 4234,
      "mem": 4235,
      "End": 4236,
      "Ġinstead": 4237,
      "Ġsigma": 4238,
      "flatten": 4239,
      "YANG": 4240,
      "`,": 4241,
      "Ġcredentials": 4242,
      "Ġpl": 4243,
      "Ġdown": 4244,
      "Ġsock": 4245,
      "('{": 4246,
      "Ġupload": 4247,
      "separ": 4248,
      "dp": 4249,
      "ression": 4250,
      "Attribute": 4251,
      "operator": 4252,
      ".\\": 4253,
      "gap": 4254,
      "tempt": 4255,
      "allet": 4256,
      "prev": 4257,
      "ga": 4258,
      "slug": 4259,
      "unch": 4260,
      "Ġli": 4261,
      "Ġsin": 4262,
      "usage": 4263,
      "Stream": 4264,
      "Ġwithout": 4265,
      "Ġadded": 4266,
      "UE": 4267,
      "We": 4268,
      "]])": 4269,
      "cr": 4270,
      "Change": 4271,
      ")\\": 4272,
      "packet": 4273,
      "Ġbits": 4274,
      "TS": 4275,
      "Ġio": 4276,
      "Dec": 4277,
      "PC": 4278,
      "rev": 4279,
      "allel": 4280,
      "Ġlow": 4281,
      "Ġunder": 4282,
      "prompt": 4283,
      "Ġgene": 4284,
      "Ġcy": 4285,
      "Const": 4286,
      "Ġapplication": 4287,
      "holder": 4288,
      "ĠOrderedDict": 4289,
      "identity": 4290,
      "internal": 4291,
      "Net": 4292,
      "ĠNotImplementedError": 4293,
      "Ġthrough": 4294,
      "PUT": 4295,
      "Ġdone": 4296,
      "Ġproduct": 4297,
      "Ġtimes": 4298,
      "ache": 4299,
      "terms": 4300,
      "As": 4301,
      "Ġcounter": 4302,
      "logical": 4303,
      "Ġsetting": 4304,
      "subprocess": 4305,
      "vas": 4306,
      "iso": 4307,
      "Ġinstances": 4308,
      "uplicate": 4309,
      "cm": 4310,
      "switch": 4311,
      "formed": 4312,
      "Ġrot": 4313,
      "[:]": 4314,
      "Ġencoded": 4315,
      "CONFIG": 4316,
      "rr": 4317,
      "grade": 4318,
      "radius": 4319,
      "OS": 4320,
      "Ġvector": 4321,
      "Ġbro": 4322,
      "selected": 4323,
      "feed": 4324,
      "Ġpublic": 4325,
      "Ed": 4326,
      "Ġcomponents": 4327,
      "security": 4328,
      "Ġoutfile": 4329,
      "imate": 4330,
      "Ġrepr": 4331,
      "Gets": 4332,
      "less": 4333,
      "uler": 4334,
      "Ġts": 4335,
      "shift": 4336,
      "DIR": 4337,
      "ACE": 4338,
      "urse": 4339,
      "iod": 4340,
      "theta": 4341,
      "ĠUser": 4342,
      "recur": 4343,
      "cn": 4344,
      "Ġasyn": 4345,
      "beta": 4346,
      "marker": 4347,
      "seg": 4348,
      "Py": 4349,
      "resolve": 4350,
      "Ġcompatible": 4351,
      "iterable": 4352,
      "Ġexecute": 4353,
      "Ġmu": 4354,
      "splitext": 4355,
      "emit": 4356,
      "ĠConfig": 4357,
      "Ġinsert": 4358,
      "reply": 4359,
      "stru": 4360,
      "Ġregistry": 4361,
      "ftime": 4362,
      "ĠĠĠĠĠĠĠĠĠĠĠĠĠĠĠĠĠĠĠĠĠĠĠĠĠĠĠĠĠĠĠĠĠĠĠĠĠĠĠĠĠĠĠĠĠĠĠ": 4363,
      "ire": 4364,
      "LECT": 4365,
      "Ġredirect": 4366,
      "tention": 4367,
      "ha": 4368,
      "osition": 4369,
      "raint": 4370,
      "chron": 4371,
      "Ġ...": 4372,
      "STR": 4373,
      "onts": 4374,
      "Ġabout": 4375,
      "Oper": 4376,
      "PY": 4377,
      "[(": 4378,
      "ALL": 4379,
      "COL": 4380,
      "redirect": 4381,
      "erature": 4382,
      "Ġagent": 4383,
      "ogram": 4384,
      "asarray": 4385,
      "snapshot": 4386,
      "MET": 4387,
      "lear": 4388,
      "callpoint": 4389,
      "dicate": 4390,
      "Ġbounds": 4391,
      "Series": 4392,
      "hosts": 4393,
      "_(": 4394,
      ".)": 4395,
      "19": 4396,
      "scores": 4397,
      "destination": 4398,
      "isinstance": 4399,
      "Params": 4400,
      "splitlines": 4401,
      "Sets": 4402,
      "MAX": 4403,
      "Box": 4404,
      "Ġrepository": 4405,
      "ĠGenerated": 4406,
      "Ġperiod": 4407,
      "Ġnoti": 4408,
      "oom": 4409,
      "patch": 4410,
      "mu": 4411,
      "ratio": 4412,
      "Ġreader": 4413,
      "matic": 4414,
      "}}": 4415,
      "mpls": 4416,
      "serve": 4417,
      "versions": 4418,
      "()),": 4419,
      "ower": 4420,
      "processing": 4421,
      "If": 4422,
      "reason": 4423,
      "TML": 4424,
      "getattr": 4425,
      "amo": 4426,
      "_%": 4427,
      "Cre": 4428,
      "Ġlogin": 4429,
      "Ġ'':": 4430,
      "ckle": 4431,
      "IS": 4432,
      "indexes": 4433,
      "Ġchanged": 4434,
      "precated": 4435,
      "Ġmetrics": 4436,
      "cio": 4437,
      "DEBUG": 4438,
      "unset": 4439,
      "boot": 4440,
      "')]": 4441,
      "Ġdump": 4442,
      "Ġensure": 4443,
      "Ġfollowing": 4444,
      "['_": 4445,
      "Logger": 4446,
      "editor": 4447,
      "ĠName": 4448,
      "unknown": 4449,
      "Ġpairs": 4450,
      "lain": 4451,
      "utor": 4452,
      "Ġidenti": 4453,
      "Ġexport": 4454,
      "monitor": 4455,
      "free": 4456,
      "Execution": 4457,
      "cipi": 4458,
      "Ġthreshold": 4459,
      "override": 4460,
      "Job": 4461,
      "findall": 4462,
      "rowser": 4463,
      "Ġhostname": 4464,
      "cum": 4465,
      "ification": 4466,
      "Ġpadding": 4467,
      "Calculate": 4468,
      "Row": 4469,
      "Ġtool": 4470,
      "handlers": 4471,
      "oto": 4472,
      "Ġatom": 4473,
      "Ġfactor": 4474,
      "\"'": 4475,
      "Ġcb": 4476,
      "strftime": 4477,
      "props": 4478,
      "Ġvals": 4479,
      "Ġoutputs": 4480,
      "Ġnormalize": 4481,
      "Ġsupp": 4482,
      "DATA": 4483,
      "aa": 4484,
      "ended": 4485,
      "cording": 4486,
      "keywords": 4487,
      "geo": 4488,
      "Ġhour": 4489,
      "valuate": 4490,
      "alance": 4491,
      "Ġ60": 4492,
      "istr": 4493,
      "chan": 4494,
      "normalize": 4495,
      "OUT": 4496,
      "Ġarchive": 4497,
      "walk": 4498,
      "Mode": 4499,
      "INFO": 4500,
      "Ġ1000": 4501,
      "Pa": 4502,
      "dle": 4503,
      "ilities": 4504,
      "Ġoptional": 4505,
      "sect": 4506,
      "ond": 4507,
      "Ġscan": 4508,
      "VERSION": 4509,
      "Range": 4510,
      "pdf": 4511,
      "export": 4512,
      ")(": 4513,
      "Ġclasses": 4514,
      "Ġscheme": 4515,
      "ĠTo": 4516,
      "Ġexpr": 4517,
      "Ġcert": 4518,
      "Ġretri": 4519,
      "Ġinternal": 4520,
      "Ġ$": 4521,
      "Ġdev": 4522,
      "SA": 4523,
      "Ġ#": 4524,
      "ality": 4525,
      "Ġdec": 4526,
      "scape": 4527,
      "Ġmac": 4528,
      "eric": 4529,
      "igr": 4530,
      "ines": 4531,
      "'%": 4532,
      "cached": 4533,
      "Wrap": 4534,
      "Ġps": 4535,
      "Ġwords": 4536,
      "Ref": 4537,
      "Make": 4538,
      "exts": 4539,
      "FIEL": 4540,
      "functions": 4541,
      "Ġyaml": 4542,
      "emon": 4543,
      "Ġcould": 4544,
      "environment": 4545,
      "builder": 4546,
      "Ġtargets": 4547,
      "Ġtrack": 4548,
      "td": 4549,
      "Ġdot": 4550,
      "ygon": 4551,
      "Ġgit": 4552,
      "upported": 4553,
      "abel": 4554,
      "ural": 4555,
      "IC": 4556,
      "200": 4557,
      "Ġuid": 4558,
      "ĠFor": 4559,
      "generated": 4560,
      "Ġplatform": 4561,
      "firm": 4562,
      "All": 4563,
      "Ġusers": 4564,
      "rank": 4565,
      "button": 4566,
      "pg": 4567,
      "Ġfreq": 4568,
      "Ġpopulate": 4569,
      "Initi": 4570,
      "illar": 4571,
      "Ġ:]": 4572,
      "Sc": 4573,
      "zy": 4574,
      "Ġhelper": 4575,
      "Ġmesh": 4576,
      "Ġtopic": 4577,
      "Ġtile": 4578,
      "Ġsym": 4579,
      "lst": 4580,
      "Ġcoordinates": 4581,
      "Ġrequested": 4582,
      "geometry": 4583,
      "Ġsci": 4584,
      "pages": 4585,
      "14": 4586,
      "pan": 4587,
      "ĠAs": 4588,
      "AND": 4589,
      ")-": 4590,
      "DEL": 4591,
      "Ġoc": 4592,
      "oriz": 4593,
      "allowed": 4594,
      "analysis": 4595,
      "Ġassociated": 4596,
      "cod": 4597,
      "sections": 4598,
      "actor": 4599,
      "ilar": 4600,
      "transport": 4601,
      "Ġcorresponding": 4602,
      "connected": 4603,
      "argin": 4604,
      "Ġmarker": 4605,
      "Ġhex": 4606,
      "ender": 4607,
      "correct": 4608,
      "Ġradius": 4609,
      "break": 4610,
      "Ġdraw": 4611,
      "sired": 4612,
      "xx": 4613,
      "cause": 4614,
      "You": 4615,
      "Delete": 4616,
      "ide": 4617,
      "requests": 4618,
      "plan": 4619,
      "tar": 4620,
      "Search": 4621,
      "HER": 4622,
      "Ġmaximum": 4623,
      "Ġaccording": 4624,
      "LOGGER": 4625,
      "Ġinner": 4626,
      "Ġorg": 4627,
      "instances": 4628,
      "Ġurllib": 4629,
      "dl": 4630,
      "Ġ[{": 4631,
      "Ġstrip": 4632,
      "Ġcolors": 4633,
      "Ġfiltered": 4634,
      "modified": 4635,
      "ĠSalt": 4636,
      "ORT": 4637,
      "Ġactions": 4638,
      "returns": 4639,
      "ĠAny": 4640,
      "ited": 4641,
      "ynamic": 4642,
      "PER": 4643,
      "otype": 4644,
      "quiet": 4645,
      "Adds": 4646,
      "Fla": 4647,
      "leaf": 4648,
      "forward": 4649,
      "Ġrdf": 4650,
      "Ġvalidation": 4651,
      "sizes": 4652,
      "Link": 4653,
      "peat": 4654,
      "FIX": 4655,
      "Over": 4656,
      "ĠĠĠĠĠĠĠĠĠĠĠĠĠĠĠĠĠĠĠĠĠĠĠĠĠĠĠĠĠĠĠĠĠĠĠĠĠĠĠĠĠĠĠĠĠĠĠĠ": 4657,
      "otes": 4658,
      "asis": 4659,
      "Ġkeyid": 4660,
      "plugins": 4661,
      "Ġexpi": 4662,
      "ier": 4663,
      "devices": 4664,
      "ffect": 4665,
      "fully": 4666,
      ">'": 4667,
      "gits": 4668,
      "('{}": 4669,
      "Ġsimple": 4670,
      "]).": 4671,
      "Ġau": 4672,
      "lang": 4673,
      "Ġhy": 4674,
      "cu": 4675,
      "enable": 4676,
      "Ġbeta": 4677,
      "SIG": 4678,
      "Ġsafe": 4679,
      "stmt": 4680,
      "media": 4681,
      "Ġlibrary": 4682,
      "ĠReturn": 4683,
      "Ġprovider": 4684,
      "Ġseen": 4685,
      "ĠIt": 4686,
      "riteria": 4687,
      "Ġblob": 4688,
      "']),": 4689,
      "HEAD": 4690,
      "rece": 4691,
      "ba": 4692,
      "sidered": 4693,
      "ips": 4694,
      "Ġdetect": 4695,
      "else": 4696,
      "aliases": 4697,
      "(%": 4698,
      "Ġ'*": 4699,
      "Ġrank": 4700,
      "\"][": 4701,
      "Max": 4702,
      "(\"--": 4703,
      "clip": 4704,
      "wraps": 4705,
      "ava": 4706,
      "Ġembed": 4707,
      "Ġattach": 4708,
      "ĠStr": 4709,
      "Ġ'''": 4710,
      "chars": 4711,
      "Ġworker": 4712,
      "/'": 4713,
      "diction": 4714,
      "Ġasset": 4715,
      "(\\": 4716,
      "ube": 4717,
      "Ġiterable": 4718,
      "Checks": 4719,
      "Ġspecify": 4720,
      "credentials": 4721,
      "uff": 4722,
      "ĠBack": 4723,
      "Ġrules": 4724,
      "PA": 4725,
      "vol": 4726,
      "Ġtz": 4727,
      "integer": 4728,
      "USER": 4729,
      "!\")": 4730,
      "ordered": 4731,
      "Ġtensor": 4732,
      "Ġlooking": 4733,
      "Ġdifferent": 4734,
      "Ġfs": 4735,
      "Ġ).": 4736,
      "Ġagain": 4737,
      "Ġconsidered": 4738,
      "Ġzero": 4739,
      "px": 4740,
      "Ġoverride": 4741,
      "prog": 4742,
      "Ġtrue": 4743,
      "AGS": 4744,
      "Ġhook": 4745,
      "Ġtor": 4746,
      "Handle": 4747,
      "Ġtar": 4748,
      "Ġpackages": 4749,
      "push": 4750,
      "(\"-": 4751,
      "collect": 4752,
      "Color": 4753,
      "=['": 4754,
      "Ġstri": 4755,
      "dependencies": 4756,
      "Ġ?": 4757,
      "icode": 4758,
      "Ġdimension": 4759,
      "resid": 4760,
      "olders": 4761,
      "partial": 4762,
      "pot": 4763,
      "Ġmodules": 4764,
      "ĠXML": 4765,
      "sess": 4766,
      "Ġfh": 4767,
      "Ġmid": 4768,
      "tein": 4769,
      "Ġreceived": 4770,
      "unic": 4771,
      "CP": 4772,
      "Ġsuch": 4773,
      "cycle": 4774,
      "servation": 4775,
      "Ġengine": 4776,
      "Ġmanager": 4777,
      "lists": 4778,
      "Ġsent": 4779,
      "Dis": 4780,
      "Download": 4781,
      "ĠCh": 4782,
      "Ġreset": 4783,
      "construct": 4784,
      "prepare": 4785,
      "Ġsources": 4786,
      "publish": 4787,
      "amount": 4788,
      "EM": 4789,
      "JSON": 4790,
      "Seri": 4791,
      "Ġconstruct": 4792,
      "fid": 4793,
      "ric": 4794,
      "pending": 4795,
      "velo": 4796,
      "segments": 4797,
      "supported": 4798,
      "Doc": 4799,
      "verter": 4800,
      "week": 4801,
      "ĠSer": 4802,
      ")+": 4803,
      "Ġoverwrite": 4804,
      "Ġboth": 4805,
      "router": 4806,
      "Layer": 4807,
      "Parameter": 4808,
      "Ġcounts": 4809,
      "Ġfun": 4810,
      "machine": 4811,
      "Ġrate": 4812,
      "moves": 4813,
      "constants": 4814,
      "Ġeval": 4815,
      "Work": 4816,
      "pts": 4817,
      "Ġcut": 4818,
      "pipeline": 4819,
      "OL": 4820,
      "menu": 4821,
      "Ġdistribution": 4822,
      "Exit": 4823,
      "13": 4824,
      "entities": 4825,
      "MAP": 4826,
      ",'": 4827,
      "Length": 4828,
      "era": 4829,
      "gative": 4830,
      "']):": 4831,
      "aggreg": 4832,
      "grad": 4833,
      "orter": 4834,
      "tack": 4835,
      "ibility": 4836,
      "makedirs": 4837,
      "Ġalgorithm": 4838,
      "lis": 4839,
      "divid": 4840,
      "Ġseed": 4841,
      "calls": 4842,
      "ARN": 4843,
      "Ġcomplete": 4844,
      "rv": 4845,
      "ined": 4846,
      "orary": 4847,
      "ĠTime": 4848,
      "Ġlayout": 4849,
      "Ġtheta": 4850,
      "schedule": 4851,
      "ula": 4852,
      "Ġneeds": 4853,
      "deepcopy": 4854,
      "ume": 4855,
      ")**": 4856,
      "cov": 4857,
      "Ġder": 4858,
      "Ġangle": 4859,
      "bosity": 4860,
      "CI": 4861,
      "Ġuuid": 4862,
      "cred": 4863,
      "uous": 4864,
      "uess": 4865,
      "mooth": 4866,
      "Setter": 4867,
      "calc": 4868,
      "amp": 4869,
      "docs": 4870,
      "Ġsupport": 4871,
      "Retrieve": 4872,
      "ValidationError": 4873,
      "ways": 4874,
      "quare": 4875,
      "Ġcollect": 4876,
      "Ġrequires": 4877,
      "Ġasync": 4878,
      "Ġuntil": 4879,
      "Ġrece": 4880,
      "Window": 4881,
      "ritical": 4882,
      "keyword": 4883,
      "Ġdrop": 4884,
      "XT": 4885,
      "padding": 4886,
      "Ġcharacter": 4887,
      "Ġsee": 4888,
      "Is": 4889,
      "png": 4890,
      "ands": 4891,
      "Ġsnapshot": 4892,
      "bad": 4893,
      "Ġdoesn": 4894,
      "cogn": 4895,
      "Ġlang": 4896,
      "sport": 4897,
      "Ġround": 4898,
      "Ġselection": 4899,
      "disc": 4900,
      "spar": 4901,
      "CODE": 4902,
      ">\\": 4903,
      "predict": 4904,
      "added": 4905,
      "updated": 4906,
      "allback": 4907,
      "(\"/": 4908,
      "Ġhistory": 4909,
      "Ġbi": 4910,
      "Ġbl": 4911,
      "Ġalso": 4912,
      "Ġfilenames": 4913,
      "css": 4914,
      "zen": 4915,
      "Converts": 4916,
      "Ġformatted": 4917,
      "Ġsens": 4918,
      "linalg": 4919,
      "Ġleast": 4920,
      "Ġneighb": 4921,
      "atype": 4922,
      "18": 4923,
      "stage": 4924,
      "Ġreason": 4925,
      "ueue": 4926,
      "descriptor": 4927,
      "Ġcalcul": 4928,
      "Ġpresence": 4929,
      "REG": 4930,
      "lict": 4931,
      "CM": 4932,
      "With": 4933,
      "Page": 4934,
      "Use": 4935,
      "icon": 4936,
      "derer": 4937,
      "{})": 4938,
      "cryption": 4939,
      "quali": 4940,
      "ptr": 4941,
      "Ġwrapped": 4942,
      "05": 4943,
      "Pri": 4944,
      "NE": 4945,
      "measure": 4946,
      "Values": 4947,
      "Ġtraceback": 4948,
      "future": 4949,
      "versed": 4950,
      "Ġrc": 4951,
      "stit": 4952,
      "Column": 4953,
      "abilities": 4954,
      "iler": 4955,
      "workflow": 4956,
      "Ġstates": 4957,
      "orld": 4958,
      "Ġdd": 4959,
      "peer": 4960,
      "####": 4961,
      "}},": 4962,
      "Ġequal": 4963,
      "Ġobs": 4964,
      "bias": 4965,
      "ticks": 4966,
      "Header": 4967,
      "blob": 4968,
      "enate": 4969,
      "hood": 4970,
      "simple": 4971,
      "Ġlineno": 4972,
      "digit": 4973,
      "Ġstandard": 4974,
      "Ġmime": 4975,
      "Ġwriter": 4976,
      "Ġtasks": 4977,
      "([\"": 4978,
      "Ġcandidate": 4979,
      "tempts": 4980,
      "ND": 4981,
      "Ġ\"\")": 4982,
      "vcf": 4983,
      "Ġpipeline": 4984,
      "Ġwant": 4985,
      "ĠĠĠĠĠĠĠĠĠĠĠĠĠĠĠĠĠĠĠĠĠĠĠĠĠĠĠĠĠĠĠĠĠĠĠĠĠĠĠĠĠĠĠĠĠĠĠĠĠ": 4986,
      "ives": 4987,
      "Ġprec": 4988,
      "'}},": 4989,
      "Ġcatalog": 4990,
      "PS": 4991,
      "_{": 4992,
      "question": 4993,
      "Ġpartial": 4994,
      "Control": 4995,
      "threads": 4996,
      "notification": 4997,
      "big": 4998,
      "pd": 4999,
      "figure": 5000,
      "compress": 5001,
      "Ġdelay": 5002,
      "Ġeps": 5003,
      "Ġpatch": 5004,
      "Ġalt": 5005,
      "Ġsecret": 5006,
      "Ġstored": 5007,
      "inds": 5008,
      "(\"{": 5009,
      "Ġ'/'": 5010,
      "alf": 5011,
      "Ġloaded": 5012,
      "Ġoccur": 5013,
      "Ġthey": 5014,
      "outfile": 5015,
      "flux": 5016,
      "decor": 5017,
      "Ġep": 5018,
      "cto": 5019,
      "Ġdeg": 5020,
      "ization": 5021,
      "Ġtables": 5022,
      "gb": 5023,
      "listdir": 5024,
      "vely": 5025,
      "crement": 5026,
      "peak": 5027,
      "roles": 5028,
      "mble": 5029,
      "pus": 5030,
      "Ġauthor": 5031,
      "ĠPath": 5032,
      "ĠBase": 5033,
      "HERE": 5034,
      "CTION": 5035,
      "bus": 5036,
      "Ġ[[": 5037,
      "optimi": 5038,
      "program": 5039,
      "Default": 5040,
      "Qt": 5041,
      "validation": 5042,
      "Ġdriver": 5043,
      "Bad": 5044,
      "CL": 5045,
      "Ġmx": 5046,
      "imator": 5047,
      "controller": 5048,
      "56": 5049,
      "Ġspa": 5050,
      "Min": 5051,
      "Ġfo": 5052,
      "Ġprogram": 5053,
      "ĠPy": 5054,
      "Ġneeded": 5055,
      "LL": 5056,
      "Ġleg": 5057,
      "Connect": 5058,
      "price": 5059,
      "cheduler": 5060,
      "Ġ'.'": 5061,
      "ĠQu": 5062,
      "sites": 5063,
      "Ġrect": 5064,
      "pen": 5065,
      "Ġxrange": 5066,
      "Ġrelated": 5067,
      "Ġut": 5068,
      "Ġevery": 5069,
      "Ġtermin": 5070,
      "vocab": 5071,
      "ced": 5072,
      "Ġ\")": 5073,
      "Ġdeleted": 5074,
      "ONE": 5075,
      "Ġcla": 5076,
      "Ġmeasure": 5077,
      "Ġenti": 5078,
      "LEN": 5079,
      "Ġknown": 5080,
      "Ġ'#": 5081,
      "ropy": 5082,
      "Ġcalc": 5083,
      "screen": 5084,
      "Ġchunks": 5085,
      "Ġ])": 5086,
      "ĠLo": 5087,
      "Ġpipe": 5088,
      "Ġ{}).": 5089,
      "reads": 5090,
      "Ġdependencies": 5091,
      "lices": 5092,
      "Validate": 5093,
      "ĠFROM": 5094,
      "categories": 5095,
      "ĠDict": 5096,
      "1000": 5097,
      "Ġmost": 5098,
      "poly": 5099,
      "adj": 5100,
      "pars": 5101,
      "adapter": 5102,
      "ĠRequest": 5103,
      "23": 5104,
      "tig": 5105,
      "Ġproto": 5106,
      "double": 5107,
      "Ġotherwise": 5108,
      "Missing": 5109,
      "nr": 5110,
      "ategy": 5111,
      "gateway": 5112,
      "Ġlinks": 5113,
      "lank": 5114,
      "frequency": 5115,
      "Ġmachine": 5116,
      "related": 5117,
      "PL": 5118,
      "ubclass": 5119,
      "signed": 5120,
      "Timeout": 5121,
      "rupt": 5122,
      "Ġpred": 5123,
      "peci": 5124,
      "vertices": 5125,
      "lapsed": 5126,
      "Spec": 5127,
      "Device": 5128,
      "aves": 5129,
      "Ġdeploy": 5130,
      "Ġminimum": 5131,
      "Please": 5132,
      "reams": 5133,
      "auss": 5134,
      "FORMAT": 5135,
      "wt": 5136,
      "Parses": 5137,
      "variance": 5138,
      "ral": 5139,
      "Ġmembers": 5140,
      "ĠHttp": 5141,
      "]],": 5142,
      "Ġresolve": 5143,
      "ĠLog": 5144,
      "priate": 5145,
      "Ġadditional": 5146,
      "Ġev": 5147,
      "86": 5148,
      "recv": 5149,
      "gent": 5150,
      "rency": 5151,
      "Ġbar": 5152,
      "mplementation": 5153,
      "external": 5154,
      "library": 5155,
      "bg": 5156,
      "fcoe": 5157,
      "Ġepoch": 5158,
      "submit": 5159,
      "click": 5160,
      "asc": 5161,
      "ensity": 5162,
      "voke": 5163,
      "Ġvirtual": 5164,
      "chunks": 5165,
      "Ġdimensions": 5166,
      "ExecutionError": 5167,
      "Property": 5168,
      "primary": 5169,
      "wn": 5170,
      "('/')": 5171,
      "contract": 5172,
      "qs": 5173,
      "Ġcore": 5174,
      "algorithm": 5175,
      "CA": 5176,
      "pm": 5177,
      "Ġremaining": 5178,
      "ĠĠĠĠĠĠĠĠĠĠĠĠĠĠĠĠĠĠĠĠĠĠĠĠĠĠĠĠĠĠĠĠĠĠĠĠĠĠĠĠĠĠĠĠĠĠĠĠĠĠĠ": 5179,
      "Ġenabled": 5180,
      "utit": 5181,
      "alet": 5182,
      "Ġclear": 5183,
      "entation": 5184,
      "Ġmut": 5185,
      "need": 5186,
      "Transform": 5187,
      "\"%": 5188,
      "Task": 5189,
      "play": 5190,
      "TED": 5191,
      "Ġservices": 5192,
      "arc": 5193,
      "Ġseg": 5194,
      "Ġanother": 5195,
      "bbox": 5196,
      "ĠWe": 5197,
      "Ġblocks": 5198,
      "tivity": 5199,
      "adjust": 5200,
      "Ġmatched": 5201,
      "dicator": 5202,
      "----------------": 5203,
      "iver": 5204,
      "pping": 5205,
      "Ġasyncio": 5206,
      "Form": 5207,
      "repository": 5208,
      "Ġescape": 5209,
      "()}": 5210,
      "plus": 5211,
      "+'": 5212,
      "ulk": 5213,
      "Parameters": 5214,
      "Ġappropriate": 5215,
      "fw": 5216,
      "tol": 5217,
      "Ġarea": 5218,
      "getter": 5219,
      "closed": 5220,
      "(\".": 5221,
      "pipe": 5222,
      "docker": 5223,
      "Ġregistered": 5224,
      "levels": 5225,
      "ordinate": 5226,
      "uses": 5227,
      "Formatter": 5228,
      "WN": 5229,
      "EXT": 5230,
      "rong": 5231,
      "Ġsender": 5232,
      "sheet": 5233,
      "Ali": 5234,
      "AUT": 5235,
      "virtual": 5236,
      "Ġstatic": 5237,
      "ĠGet": 5238,
      "rad": 5239,
      "GB": 5240,
      "Ġreduce": 5241,
      "Ġ|=": 5242,
      "false": 5243,
      "('<": 5244,
      "posure": 5245,
      "Ġrecursive": 5246,
      "assert": 5247,
      "ĠImage": 5248,
      "DU": 5249,
      "eps": 5250,
      "Ġsaved": 5251,
      "setting": 5252,
      "SELECT": 5253,
      "MPL": 5254,
      "Ġgenerated": 5255,
      "Ġexperiment": 5256,
      "timedelta": 5257,
      "deploy": 5258,
      "Ġ..": 5259,
      "nor": 5260,
      "diffe": 5261,
      "Network": 5262,
      "CF": 5263,
      "EST": 5264,
      "linear": 5265,
      "Child": 5266,
      "Ġ\"'": 5267,
      "anner": 5268,
      "Ġaggreg": 5269,
      "33": 5270,
      "Ġput": 5271,
      ".\"\"\"": 5272,
      "uring": 5273,
      "pose": 5274,
      "Inst": 5275,
      "Ġadmin": 5276,
      "Ġtxt": 5277,
      ":],": 5278,
      "Ġord": 5279,
      "Ġpot": 5280,
      "Ġplan": 5281,
      "super": 5282,
      "atoms": 5283,
      "CESS": 5284,
      "Ġsecurity": 5285,
      "nl": 5286,
      ")\"\"\",": 5287,
      "DATE": 5288,
      "meth": 5289,
      "Ġssh": 5290,
      "curr": 5291,
      "serial": 5292,
      "Be": 5293,
      "sto": 5294,
      "extensions": 5295,
      "Ġlists": 5296,
      "Ġ201": 5297,
      "getLogger": 5298,
      "Ġbegin": 5299,
      "Ġunpack": 5300,
      "antity": 5301,
      "ader": 5302,
      "Ġstatement": 5303,
      "izer": 5304,
      "ETE": 5305,
      "Ġbackground": 5306,
      "Match": 5307,
      "uer": 5308,
      "Ġstmt": 5309,
      "ĠBackends": 5310,
      "maps": 5311,
      "ĠĠĠĠĠĠĠĠĠĠĠĠĠĠĠĠĠĠĠĠĠĠĠĠĠĠĠĠĠĠĠĠĠĠĠĠĠĠĠĠĠĠĠĠĠĠĠĠĠĠ": 5312,
      "Ġssl": 5313,
      "')):": 5314,
      "acl": 5315,
      "ĠthisObj": 5316,
      "ĠYANGDynClass": 5317,
      "existing": 5318,
      "YANGDynClass": 5319,
      "Ġve": 5320,
      "cessary": 5321,
      "Thread": 5322,
      "Ġenable": 5323,
      "Ġwhat": 5324,
      "bottom": 5325,
      "tage": 5326,
      "plotlib": 5327,
      "patterns": 5328,
      "Ġ({": 5329,
      "encoded": 5330,
      "Ġstrict": 5331,
      "olds": 5332,
      "orized": 5333,
      "country": 5334,
      "chr": 5335,
      "Ġoptimi": 5336,
      "Ġtyp": 5337,
      "ied": 5338,
      "ropo": 5339,
      "visible": 5340,
      "completion": 5341,
      "Ġhow": 5342,
      "transpose": 5343,
      "lier": 5344,
      "Ġnormal": 5345,
      "Ġchannels": 5346,
      "MIN": 5347,
      "(\"{}": 5348,
      "dian": 5349,
      "Only": 5350,
      "relative": 5351,
      "Ġinv": 5352,
      "chrom": 5353,
      "ired": 5354,
      "anded": 5355,
      "ription": 5356,
      "Ġversions": 5357,
      "selector": 5358,
      "*.": 5359,
      "energy": 5360,
      "Results": 5361,
      "Ġquote": 5362,
      "alette": 5363,
      "istration": 5364,
      "Ġspan": 5365,
      ").__": 5366,
      "90": 5367,
      "nu": 5368,
      "Ġcent": 5369,
      "Ġamount": 5370,
      "Ġowner": 5371,
      "Ġxy": 5372,
      "alive": 5373,
      "runtime": 5374,
      "Ġmove": 5375,
      "Ġtol": 5376,
      "cookie": 5377,
      "ERS": 5378,
      "Ġscores": 5379,
      "nsupported": 5380,
      "basic": 5381,
      "Cloud": 5382,
      "Ġpandas": 5383,
      "ĠDEFAULT": 5384,
      "ram": 5385,
      "Ġqueryset": 5386,
      "Ġnested": 5387,
      "Ġcalculate": 5388,
      "previous": 5389,
      "readline": 5390,
      "tn": 5391,
      "IST": 5392,
      "game": 5393,
      "tice": 5394,
      "Ġansw": 5395,
      "ä¸": 5396,
      "revision": 5397,
      "oned": 5398,
      "circ": 5399,
      "Ġpeer": 5400,
      "ctools": 5401,
      "vc": 5402,
      "instr": 5403,
      "did": 5404,
      "dimensions": 5405,
      "ifier": 5406,
      "cipe": 5407,
      "ĠCol": 5408,
      "permission": 5409,
      "locations": 5410,
      "Ġusage": 5411,
      "Ġfg": 5412,
      "sistent": 5413,
      "Ġsure": 5414,
      "ummy": 5415,
      "inc": 5416,
      "ado": 5417,
      "dm": 5418,
      "inger": 5419,
      "fixed": 5420,
      "fastq": 5421,
      "equal": 5422,
      "cost": 5423,
      "Ġexpect": 5424,
      "Ġ/=": 5425,
      "sender": 5426,
      "Ġconnected": 5427,
      "vrf": 5428,
      "))]": 5429,
      "Ġstage": 5430,
      "Ġdirs": 5431,
      "Ġedit": 5432,
      "FIELD": 5433,
      "Ġinplace": 5434,
      "major": 5435,
      "annotation": 5436,
      "mediate": 5437,
      "lec": 5438,
      "Ġprocessed": 5439,
      "ffic": 5440,
      "[::-": 5441,
      "Ġaccep": 5442,
      "Ġissubclass": 5443,
      "Ġsteps": 5444,
      "ĠĠĠĠčĊ": 5445,
      "('#": 5446,
      "imer": 5447,
      "Ġchecks": 5448,
      "_'": 5449,
      "optional": 5450,
      "Reference": 5451,
      "ilon": 5452,
      "Ġnumbers": 5453,
      "Ġloss": 5454,
      "stract": 5455,
      "okies": 5456,
      "logs": 5457,
      "Ġprops": 5458,
      "Ġjust": 5459,
      "Save": 5460,
      "Select": 5461,
      "Ġswitch": 5462,
      "Ġcoord": 5463,
      "ĠPo": 5464,
      "Ġfw": 5465,
      "40": 5466,
      "CR": 5467,
      "Ġetree": 5468,
      "video": 5469,
      "Module": 5470,
      "ĠSet": 5471,
      "ĠTe": 5472,
      "Decode": 5473,
      "Ġ*,": 5474,
      "statement": 5475,
      "Tran": 5476,
      "Ne": 5477,
      "nail": 5478,
      "Ġ255": 5479,
      "timer": 5480,
      "viation": 5481,
      "Names": 5482,
      "Ġfixed": 5483,
      "Ġur": 5484,
      "Ġbad": 5485,
      "Ġ\"\",": 5486,
      "trigger": 5487,
      "Print": 5488,
      "lihood": 5489,
      "complex": 5490,
      "tour": 5491,
      "positions": 5492,
      "Ġ20": 5493,
      "Ġstarting": 5494,
      "CHE": 5495,
      "tid": 5496,
      "Location": 5497,
      "Ġscipy": 5498,
      "Ġfast": 5499,
      "executable": 5500,
      "cular": 5501,
      "formats": 5502,
      "ront": 5503,
      "retcode": 5504,
      "Access": 5505,
      "lstrip": 5506,
      "Ġms": 5507,
      "Ġworking": 5508,
      "ĠDataFrame": 5509,
      "ually": 5510,
      "utdown": 5511,
      "xs": 5512,
      "phase": 5513,
      "Meta": 5514,
      "IF": 5515,
      "black": 5516,
      "ranges": 5517,
      "Ġstar": 5518,
      "templates": 5519,
      "ensure": 5520,
      "ĠMessage": 5521,
      "=='": 5522,
      "Ġprimary": 5523,
      "Ġxmlns": 5524,
      "roy": 5525,
      "Ġphase": 5526,
      "Template": 5527,
      "Ġsupplied": 5528,
      "_:": 5529,
      "Ġsentence": 5530,
      "shared": 5531,
      "cnt": 5532,
      "enc": 5533,
      "ontsize": 5534,
      "Cache": 5535,
      "ims": 5536,
      "ocab": 5537,
      "www": 5538,
      "AX": 5539,
      "Norm": 5540,
      "Api": 5541,
      "multip": 5542,
      "tt": 5543,
      "dictions": 5544,
      "authentic": 5545,
      "Ġgre": 5546,
      "=\"\",": 5547,
      "SU": 5548,
      "average": 5549,
      "bre": 5550,
      "Ġdefinitions": 5551,
      "cells": 5552,
      "\"{": 5553,
      "mts": 5554,
      "onical": 5555,
      "rd": 5556,
      "aws": 5557,
      "TYPES": 5558,
      "22": 5559,
      "Label": 5560,
      "cross": 5561,
      "vide": 5562,
      "inder": 5563,
      "nc": 5564,
      "visit": 5565,
      "ĠHTML": 5566,
      "Ass": 5567,
      "umbnail": 5568,
      "kip": 5569,
      "Ġtb": 5570,
      "Ġpredict": 5571,
      "gnitude": 5572,
      "Char": 5573,
      "Copy": 5574,
      "Plot": 5575,
      "mime": 5576,
      "ring": 5577,
      "rase": 5578,
      "ka": 5579,
      "aniti": 5580,
      "chronous": 5581,
      "Ġtick": 5582,
      "servers": 5583,
      "lengths": 5584,
      "!')": 5585,
      "errno": 5586,
      "Ġden": 5587,
      "__))": 5588,
      "Does": 5589,
      "deleted": 5590,
      "Ġtail": 5591,
      "Ġbecause": 5592,
      "charact": 5593,
      "Ġcred": 5594,
      "Ġdigest": 5595,
      "ĠCON": 5596,
      "ards": 5597,
      "Port": 5598,
      "curve": 5599,
      "speed": 5600,
      "Ġfore": 5601,
      "locals": 5602,
      "Ġmerged": 5603,
      "Back": 5604,
      "Int": 5605,
      "Ġruntime": 5606,
      "Ġnd": 5607,
      "backup": 5608,
      "Ġmp": 5609,
      "Exist": 5610,
      "Sequence": 5611,
      "wcs": 5612,
      "Ġdocker": 5613,
      "Syn": 5614,
      "strap": 5615,
      "Ġforward": 5616,
      "ongo": 5617,
      "Generates": 5618,
      "cores": 5619,
      "Enabled": 5620,
      "Off": 5621,
      "stdin": 5622,
      "Ġmany": 5623,
      "Ġbutton": 5624,
      "Ġbins": 5625,
      "Ġindexes": 5626,
      "Ġexpand": 5627,
      "neighbor": 5628,
      "tor": 5629,
      "formatter": 5630,
      "Ġcontroller": 5631,
      "Ġrev": 5632,
      "Ġcir": 5633,
      "disable": 5634,
      "uman": 5635,
      "Ġdeprecated": 5636,
      "RIP": 5637,
      "roid": 5638,
      "Ġconv": 5639,
      "Ġ:,": 5640,
      "github": 5641,
      "det": 5642,
      "until": 5643,
      "Ġ{:": 5644,
      "ĠStop": 5645,
      "absolute": 5646,
      "concatenate": 5647,
      "dicts": 5648,
      "Ġkeywords": 5649,
      "tb": 5650,
      "INTER": 5651,
      "connections": 5652,
      "ĠResponse": 5653,
      "slot": 5654,
      "tw": 5655,
      "Ġfl": 5656,
      "many": 5657,
      "Ġprecision": 5658,
      "men": 5659,
      "Ġcurrently": 5660,
      "Ġ32": 5661,
      "Ġchoices": 5662,
      "alth": 5663,
      "plots": 5664,
      "ĠCommandExecutionError": 5665,
      "Writ": 5666,
      "href": 5667,
      "Ġcwd": 5668,
      "mq": 5669,
      "Ġdisc": 5670,
      "ORY": 5671,
      "alignment": 5672,
      "](": 5673,
      "Ġstypes": 5674,
      "intf": 5675,
      "grams": 5676,
      "Ġpoly": 5677,
      "atial": 5678,
      "ropout": 5679,
      "AF": 5680,
      "Schema": 5681,
      "exe": 5682,
      "vocation": 5683,
      "Ġlayers": 5684,
      "semb": 5685,
      "/(": 5686,
      "oring": 5687,
      "Calcul": 5688,
      "Try": 5689,
      "prior": 5690,
      "mediator": 5691,
      ":\"": 5692,
      "moving": 5693,
      "LOCK": 5694,
      "Ver": 5695,
      "lour": 5696,
      "ĠTh": 5697,
      "mpler": 5698,
      "Ġsync": 5699,
      "Ġconfigured": 5700,
      "Collection": 5701,
      "Ġsince": 5702,
      "ĠAdd": 5703,
      "avg": 5704,
      "itation": 5705,
      "Ġprompt": 5706,
      "scalar": 5707,
      "Ġrepresenting": 5708,
      "ARNING": 5709,
      "Pol": 5710,
      "striction": 5711,
      "Position": 5712,
      ")')": 5713,
      "ffici": 5714,
      "}]": 5715,
      "istic": 5716,
      "Ġtraining": 5717,
      "SM": 5718,
      "Func": 5719,
      "atrix": 5720,
      "symbols": 5721,
      "choices": 5722,
      "views": 5723,
      "$',": 5724,
      "oauth": 5725,
      "Ġaccept": 5726,
      "regions": 5727,
      "Ġflatten": 5728,
      "ĠST": 5729,
      "Variable": 5730,
      "addresses": 5731,
      "Internal": 5732,
      "annotations": 5733,
      "Ġarrays": 5734,
      "Ġworkflow": 5735,
      "Ġdid": 5736,
      "Ġcookie": 5737,
      "ĠComp": 5738,
      "traceback": 5739,
      "tun": 5740,
      "uch": 5741,
      "sequences": 5742,
      "encoder": 5743,
      "Ġlst": 5744,
      "Iteration": 5745,
      "\">": 5746,
      "Ġpower": 5747,
      "Ġour": 5748,
      "Ġrefresh": 5749,
      "Perform": 5750,
      "Ġri": 5751,
      "Ġvec": 5752,
      "ident": 5753,
      "ilent": 5754,
      "}/{": 5755,
      "coordinates": 5756,
      "Ġpercent": 5757,
      "neighbors": 5758,
      "rename": 5759,
      "bundle": 5760,
      "Ġiterator": 5761,
      "Ġchoice": 5762,
      "95": 5763,
      "('[": 5764,
      "CONT": 5765,
      "NOT": 5766,
      "dc": 5767,
      "Ġvs": 5768,
      "Ġsegments": 5769,
      "background": 5770,
      "Ġdefaultdict": 5771,
      "cutoff": 5772,
      "green": 5773,
      "Ġargparse": 5774,
      "Ġcoef": 5775,
      "EV": 5776,
      "New": 5777,
      "Ġarch": 5778,
      "Ġcv": 5779,
      "Ġdelimiter": 5780,
      "Expected": 5781,
      "Ġidentity": 5782,
      ")\",": 5783,
      "Sy": 5784,
      "ĠĠĠĠĠĠĠĠĠĠĠĠĠĠĠĠĠĠĠĠĠĠĠĠĠĠĠĠĠĠĠĠĠĠĠĠĠĠĠĠĠĠĠĠĠĠĠĠĠĠĠĠ": 5785,
      "console": 5786,
      "Ġannotation": 5787,
      ")],": 5788,
      "96": 5789,
      "pdb": 5790,
      "maximum": 5791,
      "ony": 5792,
      "mes": 5793,
      "Ġinterpol": 5794,
      "Ġphi": 5795,
      "expanduser": 5796,
      "dom": 5797,
      "ĠDo": 5798,
      "Ġfamily": 5799,
      "Ġdesired": 5800,
      "quival": 5801,
      "ranches": 5802,
      "flo": 5803,
      "Ġsets": 5804,
      "Ġtimedelta": 5805,
      "sertionError": 5806,
      "Ġtoo": 5807,
      "Ġdx": 5808,
      "STATE": 5809,
      "candidate": 5810,
      "geom": 5811,
      "comments": 5812,
      "Feature": 5813,
      "Ġss": 5814,
      "attention": 5815,
      "minimum": 5816,
      "REQU": 5817,
      "(('": 5818,
      "17": 5819,
      "Ġprocessing": 5820,
      "Reads": 5821,
      "NotFoundError": 5822,
      "ĠString": 5823,
      "DR": 5824,
      "accept": 5825,
      "struction": 5826,
      ",),": 5827,
      "deps": 5828,
      "warnings": 5829,
      "redis": 5830,
      "Ġinstr": 5831,
      "Ġklass": 5832,
      "Ġloader": 5833,
      "fh": 5834,
      "Ġdevices": 5835,
      "Ġdiag": 5836,
      "RES": 5837,
      "Ġwere": 5838,
      "Ġcharacters": 5839,
      "adcast": 5840,
      "sively": 5841,
      "Ġshift": 5842,
      "sentence": 5843,
      "Ġside": 5844,
      "Ġbuilder": 5845,
      "endar": 5846,
      "Url": 5847,
      "ench": 5848,
      "Ġschedule": 5849,
      "Ġsha": 5850,
      "READ": 5851,
      "legend": 5852,
      "Ġartifact": 5853,
      "Split": 5854,
      "sparse": 5855,
      "pay": 5856,
      "Ġnormalized": 5857,
      "blue": 5858,
      "Ġrh": 5859,
      "dividual": 5860,
      "gamma": 5861,
      "soft": 5862,
      "uest": 5863,
      "sical": 5864,
      "ev": 5865,
      "yes": 5866,
      "__[": 5867,
      "Ġcontract": 5868,
      "coeff": 5869,
      "failure": 5870,
      "ventory": 5871,
      "ĠUse": 5872,
      "noise": 5873,
      "rgb": 5874,
      "Ġcs": 5875,
      "Ġgeo": 5876,
      "Ġdetermine": 5877,
      "Show": 5878,
      "OF": 5879,
      "aff": 5880,
      "ified": 5881,
      "distribution": 5882,
      "proj": 5883,
      "parents": 5884,
      "pixel": 5885,
      "Lim": 5886,
      "tim": 5887,
      "Ġcalls": 5888,
      "manage": 5889,
      "Ġmodified": 5890,
      "centi": 5891,
      "azard": 5892,
      "pointer": 5893,
      "trip": 5894,
      "ĠWHERE": 5895,
      "specs": 5896,
      "ĠOption": 5897,
      "vcs": 5898,
      "Ġgeometry": 5899,
      "[_": 5900,
      "Ġunknown": 5901,
      "Ġcloud": 5902,
      "white": 5903,
      "Decor": 5904,
      "poll": 5905,
      "36": 5906,
      "Fact": 5907,
      "watch": 5908,
      "xlabel": 5909,
      "Container": 5910,
      "Host": 5911,
      "Ġfrequency": 5912,
      "UID": 5913,
      "constraints": 5914,
      "alibr": 5915,
      "Ġpermission": 5916,
      "genome": 5917,
      "Ġbbox": 5918,
      "pology": 5919,
      "Ġsensor": 5920,
      "=',": 5921,
      "Ġ~": 5922,
      "ĠUnicode": 5923,
      "Target": 5924,
      "ctor": 5925,
      "Ġmedia": 5926,
      "Defin": 5927,
      "clar": 5928,
      "Multi": 5929,
      "ike": 5930,
      "aving": 5931,
      "COMM": 5932,
      "Pool": 5933,
      "Execute": 5934,
      "Ge": 5935,
      "RED": 5936,
      "Types": 5937,
      "requirements": 5938,
      "jid": 5939,
      "rum": 5940,
      "Ġcc": 5941,
      "Ġreturning": 5942,
      "OB": 5943,
      "ylabel": 5944,
      "Ġdataframe": 5945,
      "Ġcandidates": 5946,
      "atest": 5947,
      "perm": 5948,
      "ĠClient": 5949,
      "Ġshared": 5950,
      "Ġitertools": 5951,
      "ĠRa": 5952,
      "URI": 5953,
      "Ġtrigger": 5954,
      "Ġanswer": 5955,
      "Unsupported": 5956,
      "Ġpublish": 5957,
      "Temp": 5958,
      "ale": 5959,
      "Ġ{!": 5960,
      "subset": 5961,
      "Ġexact": 5962,
      "ĠAssertionError": 5963,
      "Ġct": 5964,
      "lies": 5965,
      "contact": 5966,
      "blems": 5967,
      "appro": 5968,
      "ardware": 5969,
      "Ġteam": 5970,
      "ART": 5971,
      "Ġjobs": 5972,
      "Ġissue": 5973,
      "bridge": 5974,
      "rdf": 5975,
      "ges": 5976,
      "rozen": 5977,
      "Ġordered": 5978,
      "Ġexecution": 5979,
      "ARY": 5980,
      "Fail": 5981,
      "union": 5982,
      "ĠPlease": 5983,
      "iterator": 5984,
      "Metadata": 5985,
      "Ġframes": 5986,
      "ja": 5987,
      "multiple": 5988,
      "Wrapper": 5989,
      "alten": 5990,
      "Ġvocab": 5991,
      "Ġnecessary": 5992,
      "Ġcast": 5993,
      "Ġformatter": 5994,
      "pn": 5995,
      "ĠĠĠčĊ": 5996,
      "Ġbeing": 5997,
      "Ġener": 5998,
      "ULL": 5999,
      "nx": 6000,
      "offsets": 6001,
      "Ġvars": 6002,
      "Exp": 6003,
      "omi": 6004,
      "LED": 6005,
      "Ġprovide": 6006,
      "Ġsat": 6007,
      "Ġstride": 6008,
      "tolist": 6009,
      "google": 6010,
      "Import": 6011,
      "Construct": 6012,
      "Configuration": 6013,
      "mv": 6014,
      "scri": 6015,
      "Ġmis": 6016,
      "Ġanaly": 6017,
      "ĠNode": 6018,
      "Ġslot": 6019,
      "Ġexternal": 6020,
      "clusive": 6021,
      "Param": 6022,
      "Register": 6023,
      "CAL": 6024,
      "hparams": 6025,
      "dictionary": 6026,
      "expect": 6027,
      "outer": 6028,
      "Ġmem": 6029,
      "Ġsubset": 6030,
      "clusters": 6031,
      "eq": 6032,
      "Ġsubnet": 6033,
      "Ġdays": 6034,
      "ox": 6035,
      "Ġes": 6036,
      "))))": 6037,
      "Ġboot": 6038,
      "mutation": 6039,
      "_[": 6040,
      "permissions": 6041,
      "Ġsequences": 6042,
      "And": 6043,
      "Rep": 6044,
      "numbers": 6045,
      "byref": 6046,
      "redential": 6047,
      "onal": 6048,
      "Ġ'+": 6049,
      "ancest": 6050,
      "angles": 6051,
      "({\"": 6052,
      "Ġrs": 6053,
      "255": 6054,
      "altenv": 6055,
      "Ġequ": 6056,
      "unts": 6057,
      "Ġ(-": 6058,
      "Ġdescriptor": 6059,
      "tyle": 6060,
      "ĠUnion": 6061,
      "Ġinside": 6062,
      "hours": 6063,
      "(\",": 6064,
      "orizont": 6065,
      ":\",": 6066,
      "lv": 6067,
      "retries": 6068,
      "quee": 6069,
      "Ġproblem": 6070,
      "lify": 6071,
      "filenames": 6072,
      ":\")": 6073,
      "Ġnx": 6074,
      "Ġpriority": 6075,
      "Ġtempfile": 6076,
      "oa": 6077,
      "Ġhosts": 6078,
      "__:": 6079,
      "Ġpretty": 6080,
      "cluding": 6081,
      "ĠObject": 6082,
      "Ġcertificate": 6083,
      "enari": 6084,
      "aris": 6085,
      "Ġ'\"": 6086,
      "nested": 6087,
      "transfer": 6088,
      "=[],": 6089,
      "micro": 6090,
      "lastic": 6091,
      "Ġfailure": 6092,
      "dispatch": 6093,
      "processed": 6094,
      "Ġvol": 6095,
      "Ġnoise": 6096,
      "ĠParameters": 6097,
      "LINE": 6098,
      "Ġurls": 6099,
      "incomplete": 6100,
      "Ġslug": 6101,
      "general": 6102,
      "serializer": 6103,
      "Called": 6104,
      "semble": 6105,
      "ane": 6106,
      "Ġresid": 6107,
      "Ġqs": 6108,
      "locale": 6109,
      "Display": 6110,
      "Core": 6111,
      "Ġtransition": 6112,
      "fidence": 6113,
      "Queue": 6114,
      "yles": 6115,
      "Ġgamma": 6116,
      "ffff": 6117,
      "Ens": 6118,
      "pillar": 6119,
      "manifest": 6120,
      "Description": 6121,
      "Ġmenu": 6122,
      "thresh": 6123,
      "Ġperform": 6124,
      "Order": 6125,
      "lished": 6126,
      "shutit": 6127,
      "Ġyet": 6128,
      "Retrie": 6129,
      "SL": 6130,
      "critical": 6131,
      "SCRIP": 6132,
      "Ġevalu": 6133,
      "named": 6134,
      "Ġ{}:": 6135,
      "ĠCont": 6136,
      "Ġboolean": 6137,
      "Ġtuples": 6138,
      "TEXT": 6139,
      "Ġactor": 6140,
      ":'": 6141,
      "canvas": 6142,
      "training": 6143,
      "201": 6144,
      "experiment": 6145,
      "arrays": 6146,
      "pur": 6147,
      "urations": 6148,
      "Ġvalidator": 6149,
      "ij": 6150,
      "Ġparsing": 6151,
      "acc": 6152,
      "license": 6153,
      "Callback": 6154,
      "artifact": 6155,
      "cancel": 6156,
      "Ġchecksum": 6157,
      "chat": 6158,
      "coming": 6159,
      "ĠVM": 6160,
      "ĠĠĠĠĠĠĠĠĠĠĠĠĠĠĠĠĠĠĠĠĠĠĠĠĠĠĠĠĠĠĠĠĠĠĠĠĠĠĠĠĠĠĠĠĠĠĠĠĠĠĠĠĠ": 6161,
      "))[": 6162,
      "Updates": 6163,
      "gl": 6164,
      "Operation": 6165,
      "rho": 6166,
      "disp": 6167,
      "agraph": 6168,
      "Ġpages": 6169,
      "Ġcos": 6170,
      "Ġori": 6171,
      "Ġintegr": 6172,
      "latest": 6173,
      "Ġ(_": 6174,
      "Ġdims": 6175,
      "404": 6176,
      "Vector": 6177,
      "standard": 6178,
      "Reader": 6179,
      "Ġclosed": 6180,
      "75": 6181,
      "mtime": 6182,
      "Ġrevision": 6183,
      "ĠCO": 6184,
      "cipient": 6185,
      "Ġcmap": 6186,
      "statistics": 6187,
      "Option": 6188,
      "Ġretrieve": 6189,
      "><": 6190,
      "Tensor": 6191,
      "fq": 6192,
      "Ġ\"<": 6193,
      "Ġconverted": 6194,
      "car": 6195,
      "Ġratio": 6196,
      "att": 6197,
      "pw": 6198,
      "joint": 6199,
      "ĠArg": 6200,
      "callable": 6201,
      "mkdir": 6202,
      "Ġbottom": 6203,
      "Speci": 6204,
      "}\")": 6205,
      "bove": 6206,
      "curacy": 6207,
      "ĠModel": 6208,
      "STAT": 6209,
      "Ġmatplotlib": 6210,
      "clone": 6211,
      "Cell": 6212,
      "anization": 6213,
      "tended": 6214,
      "Bytes": 6215,
      "Ġgrad": 6216,
      "FS": 6217,
      "ini": 6218,
      "scripts": 6219,
      "intersection": 6220,
      "audio": 6221,
      "orizontal": 6222,
      "riend": 6223,
      "constant": 6224,
      "Ġbytearray": 6225,
      "(',')": 6226,
      "sessment": 6227,
      "ĠStopIteration": 6228,
      "mis": 6229,
      "Ġlatest": 6230,
      "Ġdisable": 6231,
      "lencode": 6232,
      "Component": 6233,
      "AUTH": 6234,
      "parsers": 6235,
      "separator": 6236,
      "queeze": 6237,
      "rsplit": 6238,
      "rive": 6239,
      "transition": 6240,
      "Ġwarning": 6241,
      "eral": 6242,
      "arest": 6243,
      "genes": 6244,
      "activity": 6245,
      "difference": 6246,
      "amera": 6247,
      "ĠAr": 6248,
      "VALID": 6249,
      "learn": 6250,
      "Ġspecification": 6251,
      "Ġvideo": 6252,
      "Ter": 6253,
      "hdr": 6254,
      "Ġsurface": 6255,
      "Ġmapp": 6256,
      "Ġchrom": 6257,
      "intervals": 6258,
      "Directory": 6259,
      "Ġprior": 6260,
      "Channel": 6261,
      "datasets": 6262,
      ")\")": 6263,
      "pher": 6264,
      "precision": 6265,
      "LD": 6266,
      "Mark": 6267,
      "Tuple": 6268,
      "ace": 6269,
      "tm": 6270,
      "rypto": 6271,
      "certificate": 6272,
      "cognized": 6273,
      "SV": 6274,
      "WORD": 6275,
      "ni": 6276,
      "keyid": 6277,
      "orize": 6278,
      "Ġ1024": 6279,
      "orth": 6280,
      "arge": 6281,
      "validator": 6282,
      "Ġ\"__": 6283,
      "fft": 6284,
      "Ġagainst": 6285,
      "GP": 6286,
      "Ġbasic": 6287,
      "notify": 6288,
      "Pack": 6289,
      "Ġpositions": 6290,
      "Options": 6291,
      "hooks": 6292,
      "Cons": 6293,
      "iration": 6294,
      "ĠDB": 6295,
      "FLAGS": 6296,
      "spf": 6297,
      "Ġcost": 6298,
      "typ": 6299,
      "CB": 6300,
      "callbacks": 6301,
      "SQL": 6302,
      "same": 6303,
      "Ġrho": 6304,
      "Dataset": 6305,
      "Ġthreads": 6306,
      "Popen": 6307,
      "Ġwx": 6308,
      "phab": 6309,
      "'''": 6310,
      "gid": 6311,
      "presen": 6312,
      "Ġcomps": 6313,
      "finished": 6314,
      "Ġfactory": 6315,
      "hit": 6316,
      "=''):": 6317,
      "Ġeditor": 6318,
      "Ġpie": 6319,
      "MI": 6320,
      "WARNING": 6321,
      "native": 6322,
      "=\"%": 6323,
      "CLI": 6324,
      "(\"_": 6325,
      "checksum": 6326,
      "Ġreading": 6327,
      "')))": 6328,
      "PORT": 6329,
      "Ġenum": 6330,
      "checks": 6331,
      "actual": 6332,
      "Ġscreen": 6333,
      "mar": 6334,
      "NotExist": 6335,
      "LOW": 6336,
      "CRE": 6337,
      "caller": 6338,
      "processor": 6339,
      "Ġsigned": 6340,
      "magic": 6341,
      "Ġserial": 6342,
      "Ġcycle": 6343,
      "Document": 6344,
      "Sample": 6345,
      "Ġband": 6346,
      "afe": 6347,
      "ravel": 6348,
      "Keys": 6349,
      "sistype": 6350,
      "CAC": 6351,
      "ĠGraph": 6352,
      "igration": 6353,
      "XML": 6354,
      "quot": 6355,
      "PREFIX": 6356,
      "lecule": 6357,
      "/{}": 6358,
      "Button": 6359,
      "ceil": 6360,
      "('')": 6361,
      "Ġhref": 6362,
      "resolver": 6363,
      "latitude": 6364,
      "Ġauthentication": 6365,
      "lations": 6366,
      "course": 6367,
      "workers": 6368,
      "filtered": 6369,
      "aussian": 6370,
      "()).": 6371,
      "getcwd": 6372,
      "tences": 6373,
      "installed": 6374,
      "HT": 6375,
      "\\\"": 6376,
      "stp": 6377,
      "Ġpositive": 6378,
      "windows": 6379,
      "rx": 6380,
      "sur": 6381,
      "sage": 6382,
      "stricted": 6383,
      "Factory": 6384,
      "Sum": 6385,
      "alan": 6386,
      "Ġ\"\".": 6387,
      "gradi": 6388,
      "Ġminutes": 6389,
      "Ġrestriction": 6390,
      "Ġretval": 6391,
      "calculate": 6392,
      "Ġbuilt": 6393,
      "Ġlocals": 6394,
      "Ġpickle": 6395,
      "Ġselector": 6396,
      "Apply": 6397,
      "Ġproper": 6398,
      "trim": 6399,
      "namespaced": 6400,
      "Ġpt": 6401,
      "tuples": 6402,
      "TIONS": 6403,
      "VICE": 6404,
      "Flow": 6405,
      "Ġcells": 6406,
      "])[": 6407,
      "Scal": 6408,
      "browser": 6409,
      "ysql": 6410,
      "working": 6411,
      "Ġreads": 6412,
      "degree": 6413,
      "BY": 6414,
      "Ġvertex": 6415,
      "Ġsparse": 6416,
      "cons": 6417,
      "ism": 6418,
      "runner": 6419,
      "****": 6420,
      "Ġcreating": 6421,
      "Dep": 6422,
      "zoom": 6423,
      "Ġaverage": 6424,
      ">\"": 6425,
      "gre": 6426,
      "remaining": 6427,
      "rouped": 6428,
      "Modi": 6429,
      "Ġtyping": 6430,
      "Cursor": 6431,
      ":]:": 6432,
      "Vis": 6433,
      "entropy": 6434,
      "Ġ24": 6435,
      "Ġbackup": 6436,
      "ĠHttpResponse": 6437,
      "34": 6438,
      "gui": 6439,
      "tached": 6440,
      "Ġplugins": 6441,
      "URE": 6442,
      "cv": 6443,
      "shapes": 6444,
      "contains": 6445,
      "35": 6446,
      "JE": 6447,
      "Pass": 6448,
      "Ġway": 6449,
      "Current": 6450,
      "alect": 6451,
      "Ġdjango": 6452,
      "UND": 6453,
      "tition": 6454,
      "interpol": 6455,
      ":,": 6456,
      "ye": 6457,
      "orical": 6458,
      "Ġbg": 6459,
      "timezone": 6460,
      "([(": 6461,
      "rant": 6462,
      "Ġgithub": 6463,
      "quad": 6464,
      "vironment": 6465,
      "VALUE": 6466,
      "Ġnotification": 6467,
      "Test": 6468,
      "aut": 6469,
      "Ġsur": 6470,
      "dfs": 6471,
      "Ġlocale": 6472,
      "balance": 6473,
      "surface": 6474,
      "}),": 6475,
      "listen": 6476,
      "Ġparents": 6477,
      "ĠAc": 6478,
      "ĠPer": 6479,
      "objs": 6480,
      "translate": 6481,
      "Ġabort": 6482,
      "Ġencoder": 6483,
      "ĠOpen": 6484,
      "globals": 6485,
      "uplicates": 6486,
      "Ġdependency": 6487,
      "defs": 6488,
      "ĠPO": 6489,
      "85": 6490,
      "uting": 6491,
      "ATOR": 6492,
      "wave": 6493,
      "imated": 6494,
      "Ġboto": 6495,
      "Now": 6496,
      "ceed": 6497,
      "Ġadj": 6498,
      "ole": 6499,
      "Profile": 6500,
      "Ġdocs": 6501,
      "Ġadapter": 6502,
      "ĠSE": 6503,
      "ipher": 6504,
      "...\")": 6505,
      "hen": 6506,
      "lid": 6507,
      "Ġalignment": 6508,
      ":].": 6509,
      "USE": 6510,
      "species": 6511,
      "bp": 6512,
      "Ġnl": 6513,
      "Ġpatterns": 6514,
      "generic": 6515,
      ":',": 6516,
      "SUB": 6517,
      "cmap": 6518,
      "Ġreversed": 6519,
      "Ġtransport": 6520,
      "AME": 6521,
      "uation": 6522,
      "may": 6523,
      "setLevel": 6524,
      "Ġprepare": 6525,
      "Ġannotations": 6526,
      "'^": 6527,
      "Ġgate": 6528,
      "Ġmanifest": 6529,
      "MENT": 6530,
      "Python": 6531,
      "WOR": 6532,
      "]-": 6533,
      "Ġ'-'": 6534,
      "analysistype": 6535,
      "Initialize": 6536,
      "repeat": 6537,
      "team": 6538,
      "using": 6539,
      "ĠSh": 6540,
      "Ġcurve": 6541,
      "Width": 6542,
      "kit": 6543,
      "ru": 6544,
      "Ġtax": 6545,
      "('\"": 6546,
      "scp": 6547,
      "Unexpected": 6548,
      "definitions": 6549,
      "Ġpending": 6550,
      "Ġ\"{}\"": 6551,
      "stud": 6552,
      "Ġupdates": 6553,
      "NT": 6554,
      "ggest": 6555,
      "Ġ'[": 6556,
      "Ġbundle": 6557,
      "Ġ%.": 6558,
      "configure": 6559,
      "Ġdirectories": 6560,
      "Ġargv": 6561,
      "!\"": 6562,
      "border": 6563,
      "sol": 6564,
      "digits": 6565,
      "unity": 6566,
      "started": 6567,
      "Ġiteration": 6568,
      "Ġhdr": 6569,
      "stone": 6570,
      "imple": 6571,
      "Ġcross": 6572,
      "Ġmass": 6573,
      "numeric": 6574,
      "URCE": 6575,
      "nowled": 6576,
      "since": 6577,
      "cipant": 6578,
      "conditions": 6579,
      "Ġvlan": 6580,
      "Ġbasename": 6581,
      "Ġcomments": 6582,
      "Ġrequirements": 6583,
      "SD": 6584,
      "Ġnu": 6585,
      "licies": 6586,
      "scribe": 6587,
      "Ġclip": 6588,
      "DoesNotExist": 6589,
      "take": 6590,
      "usion": 6591,
      "Ġtranslation": 6592,
      "dataframe": 6593,
      "('>": 6594,
      "uffle": 6595,
      "vor": 6596,
      "represent": 6597,
      "Ġsleep": 6598,
      "Ġtimezone": 6599,
      "Ġterms": 6600,
      "/\"": 6601,
      "Ġmonitor": 6602,
      "Root": 6603,
      "Cells": 6604,
      "xies": 6605,
      "Ġnull": 6606,
      "Ġaux": 6607,
      "unter": 6608,
      "Calculates": 6609,
      "Ġhidden": 6610,
      "ĠSub": 6611,
      "wrapped": 6612,
      "pin": 6613,
      "':'": 6614,
      "interfaces": 6615,
      "Ġprojection": 6616,
      "ACT": 6617,
      "Ġsections": 6618,
      "identi": 6619,
      "Ġthese": 6620,
      "sible": 6621,
      "ĠĠĠĠĠĠĠĠĠĠĠĠĠĠĠĠĠĠĠĠĠĠĠĠĠĠĠĠĠĠĠĠĠĠĠĠĠĠĠĠĠĠĠĠĠĠĠĠĠĠĠĠĠĠĠ": 6622,
      "ĠOn": 6623,
      "Ġprice": 6624,
      "Role": 6625,
      "Font": 6626,
      "dns": 6627,
      "rmt": 6628,
      "roke": 6629,
      "Ġconsole": 6630,
      "etc": 6631,
      "Determine": 6632,
      "specific": 6633,
      "ĠElement": 6634,
      "fies": 6635,
      "Ġauthentic": 6636,
      "Ġconstants": 6637,
      "Ġrouter": 6638,
      "He": 6639,
      "SY": 6640,
      "mol": 6641,
      "compressed": 6642,
      "Ġface": 6643,
      "Ġcountry": 6644,
      "={},": 6645,
      "84": 6646,
      "hot": 6647,
      "Ġecho": 6648,
      "Ġiteritems": 6649,
      "tip": 6650,
      "Ġ'$": 6651,
      "Ġparallel": 6652,
      "station": 6653,
      "ĠUp": 6654,
      "Ġabsolute": 6655,
      "Ġdl": 6656,
      "ĠSQL": 6657,
      "Ġfasta": 6658,
      "Ġroles": 6659,
      "notes": 6660,
      "Ġmount": 6661,
      "Ġpermissions": 6662,
      "Tool": 6663,
      "ĠState": 6664,
      "atic": 6665,
      "Ġten": 6666,
      "sky": 6667,
      "servations": 6668,
      "bank": 6669,
      "integr": 6670,
      "fire": 6671,
      "ctypes": 6672,
      "processes": 6673,
      "Comm": 6674,
      "projects": 6675,
      "Ġ','.": 6676,
      "square": 6677,
      "ttl": 6678,
      "live": 6679,
      "inspect": 6680,
      "versal": 6681,
      "unicate": 6682,
      "most": 6683,
      "nonzero": 6684,
      "bra": 6685,
      "}')": 6686,
      "ceeded": 6687,
      "ingerprint": 6688,
      "Next": 6689,
      "ĠAND": 6690,
      "Ġignored": 6691,
      "taxError": 6692,
      "binding": 6693,
      "Fetch": 6694,
      "Mapping": 6695,
      "Pub": 6696,
      "isode": 6697,
      "Ġbig": 6698,
      "Ġspect": 6699,
      "funcs": 6700,
      "Login": 6701,
      "VM": 6702,
      "atched": 6703,
      "Ġjs": 6704,
      "Ġmanage": 6705,
      "Ġgap": 6706,
      "neg": 6707,
      "operations": 6708,
      "Ġgenome": 6709,
      "routing": 6710,
      "built": 6711,
      "corr": 6712,
      "visor": 6713,
      "ĠResource": 6714,
      "Ġtorch": 6715,
      "vr": 6716,
      "vectors": 6717,
      "extent": 6718,
      "subnet": 6719,
      "issue": 6720,
      "Ġduring": 6721,
      "ĠSee": 6722,
      "ĠCheck": 6723,
      "Policy": 6724,
      "Configure": 6725,
      "aper": 6726,
      "widths": 6727,
      "matically": 6728,
      "Ġadjust": 6729,
      "partitions": 6730,
      "Ġmagic": 6731,
      "}:{": 6732,
      "iz": 6733,
      "Ġcontact": 6734,
      "Ġstdin": 6735,
      "iki": 6736,
      "Ġrotation": 6737,
      "Ġwell": 6738,
      "Limit": 6739,
      ");": 6740,
      "ĠBu": 6741,
      "Merge": 6742,
      "Wait": 6743,
      "linspace": 6744,
      "Ġresponses": 6745,
      "Ġ\\'": 6746,
      "Ġrelationship": 6747,
      "]}": 6748,
      "phy": 6749,
      "phrase": 6750,
      "matching": 6751,
      "BASE": 6752,
      "Ġcoeff": 6753,
      "Ġresolved": 6754,
      "alibration": 6755,
      "pull": 6756,
      "sses": 6757,
      "Ġperm": 6758,
      "completed": 6759,
      "crypto": 6760,
      "Decorator": 6761,
      "DA": 6762,
      "Ġ15": 6763,
      "Ġrr": 6764,
      "UNT": 6765,
      "Ġrouting": 6766,
      "mbo": 6767,
      "boolean": 6768,
      "Ġdatasets": 6769,
      "Local": 6770,
      "Ġfragment": 6771,
      "impl": 6772,
      "Ġsites": 6773,
      "dating": 6774,
      "buff": 6775,
      "UNK": 6776,
      "Ġaudio": 6777,
      "arp": 6778,
      "prep": 6779,
      "mapper": 6780,
      "Ġalong": 6781,
      "compat": 6782,
      "Skip": 6783,
      "ï¼": 6784,
      "Ġimplementation": 6785,
      "archy": 6786,
      "Agent": 6787,
      "Rule": 6788,
      "rag": 6789,
      "Ġdry": 6790,
      "Ġpeak": 6791,
      "mc": 6792,
      "mx": 6793,
      "Ġtake": 6794,
      "Ġnone": 6795,
      "ĠAuth": 6796,
      "CACHE": 6797,
      "]=": 6798,
      "equ": 6799,
      "Ġredis": 6800,
      "consumer": 6801,
      "509": 6802,
      "(':')": 6803,
      "Edit": 6804,
      "quivalent": 6805,
      "CG": 6806,
      "Hash": 6807,
      "(\"'": 6808,
      "radient": 6809,
      "NUM": 6810,
      "]',": 6811,
      "Ġlimits": 6812,
      "rem": 6813,
      "deserialize": 6814,
      "decimal": 6815,
      "disco": 6816,
      "])]": 6817,
      "readlines": 6818,
      "grp": 6819,
      "overlay": 6820,
      "itespace": 6821,
      "isters": 6822,
      "rbridge": 6823,
      "Ġ,": 6824,
      "Ġtakes": 6825,
      "Ġtrunc": 6826,
      "priv": 6827,
      "enario": 6828,
      "fpath": 6829,
      "solver": 6830,
      "Valid": 6831,
      "ATCH": 6832,
      "Ġlet": 6833,
      "Ġcomplex": 6834,
      "gers": 6835,
      "Ġsid": 6836,
      "mav": 6837,
      "Ġhit": 6838,
      "Ġ---------": 6839,
      "Ġlinear": 6840,
      "Ġls": 6841,
      "Ġconstraints": 6842,
      "requencies": 6843,
      "Ġchan": 6844,
      "queryset": 6845,
      "arison": 6846,
      "JECT": 6847,
      "Rel": 6848,
      "hip": 6849,
      "ulated": 6850,
      "Ġdon": 6851,
      "Ġlogical": 6852,
      "minutes": 6853,
      "Ġcompare": 6854,
      "ĠConnection": 6855,
      "LASS": 6856,
      "Matrix": 6857,
      "Ġhere": 6858,
      "isnan": 6859,
      "Ġproj": 6860,
      "terminal": 6861,
      "Ġgreater": 6862,
      "temperature": 6863,
      "Ġstddev": 6864,
      "riptor": 6865,
      "longitude": 6866,
      "PR": 6867,
      "Ġcss": 6868,
      "mapp": 6869,
      "scriptions": 6870,
      "alizes": 6871,
      "Generator": 6872,
      "sat": 6873,
      "Ġicon": 6874,
      "ĠĠĠĠĠĠĠĠĠĠĠĠĠĠĠĠĠĠĠĠĠĠĠĠĠĠĠĠĠĠĠĠĠĠĠĠĠĠĠĠĠĠĠĠĠĠĠĠĠĠĠĠĠĠ": 6875,
      "erson": 6876,
      "preview": 6877,
      "randint": 6878,
      "Ġurlparse": 6879,
      "PARAM": 6880,
      "Ġquiet": 6881,
      "Ġdy": 6882,
      "Ġsimilar": 6883,
      "recursive": 6884,
      "havi": 6885,
      "}',": 6886,
      "retri": 6887,
      "ĠParse": 6888,
      "margin": 6889,
      "xpath": 6890,
      "zz": 6891,
      "Ġii": 6892,
      "detect": 6893,
      "except": 6894,
      "problem": 6895,
      "cay": 6896,
      "tifications": 6897,
      "received": 6898,
      "Ġok": 6899,
      "which": 6900,
      "sensor": 6901,
      "Style": 6902,
      "VAR": 6903,
      "Ġoverlap": 6904,
      "Ġseparator": 6905,
      "Ġflux": 6906,
      "Ġetc": 6907,
      "Ġvalidat": 6908,
      "Ġhandlers": 6909,
      "Takes": 6910,
      "ptime": 6911,
      "Ġdet": 6912,
      "77": 6913,
      "Pr": 6914,
      "elif": 6915,
      "Ġplay": 6916,
      "Ġinc": 6917,
      "matched": 6918,
      "ĠBad": 6919,
      "Ġenergy": 6920,
      "Retrieves": 6921,
      ":.": 6922,
      "compare": 6923,
      "Storage": 6924,
      "9999": 6925,
      "RC": 6926,
      "ĠOper": 6927,
      "Ġvertices": 6928,
      "Ġoperations": 6929,
      "Ġfigure": 6930,
      "Ab": 6931,
      "bum": 6932,
      "Ġcategories": 6933,
      "__'):": 6934,
      "minion": 6935,
      "imal": 6936,
      "Ġsubmit": 6937,
      "grains": 6938,
      "agg": 6939,
      "Ġstarted": 6940,
      "Ġclone": 6941,
      "means": 6942,
      "Ġbuff": 6943,
      ":`~": 6944,
      "Plugin": 6945,
      "Ġdiv": 6946,
      "usr": 6947,
      "interp": 6948,
      "Ġcompile": 6949,
      "ROOT": 6950,
      "likelihood": 6951,
      "POINT": 6952,
      "thernet": 6953,
      "Align": 6954,
      "queries": 6955,
      "ables": 6956,
      "pretty": 6957,
      "dleware": 6958,
      "va": 6959,
      "wind": 6960,
      "ĠValidationError": 6961,
      "incip": 6962,
      "Ġpur": 6963,
      "Ġpush": 6964,
      "Ġrup": 6965,
      "ildcard": 6966,
      "centile": 6967,
      "(\"[": 6968,
      "Ġ[_": 6969,
      "groupby": 6970,
      "Ġexecutable": 6971,
      "hexdigest": 6972,
      "Pos": 6973,
      "rh": 6974,
      "Ġtrip": 6975,
      "Ġspecial": 6976,
      "Identifier": 6977,
      "ĠYou": 6978,
      "Ġ_(\"": 6979,
      "phabet": 6980,
      "Stop": 6981,
      "\\.": 6982,
      "fits": 6983,
      "strib": 6984,
      "ough": 6985,
      "Ġsel": 6986,
      "Ġcard": 6987,
      "ĠText": 6988,
      "Bin": 6989,
      "nick": 6990,
      "Ġnargs": 6991,
      "Ġbel": 6992,
      "sampling": 6993,
      "SOURCE": 6994,
      "AA": 6995,
      "Ids": 6996,
      "hits": 6997,
      "Ġbp": 6998,
      "prot": 6999,
      "ĠBy": 7000,
      "imation": 7001,
      "Batch": 7002,
      "pip": 7003,
      "wallet": 7004,
      "apps": 7005,
      "support": 7006,
      "alloc": 7007,
      "()['": 7008,
      "Ġbus": 7009,
      "laces": 7010,
      "Struct": 7011,
      "Transaction": 7012,
      "hide": 7013,
      "inline": 7014,
      "decoder": 7015,
      "projection": 7016,
      "Dele": 7017,
      "Var": 7018,
      "sla": 7019,
      "()])": 7020,
      "voice": 7021,
      "HEADER": 7022,
      "Ġdele": 7023,
      "Ġstatistics": 7024,
      "66": 7025,
      "Cor": 7026,
      "_):": 7027,
      "saved": 7028,
      "erce": 7029,
      "tems": 7030,
      "qubits": 7031,
      "pie": 7032,
      "newaxis": 7033,
      "Ġdirname": 7034,
      "Ġgoogle": 7035,
      "Creating": 7036,
      ")['": 7037,
      "Post": 7038,
      "]'": 7039,
      "Ġhome": 7040,
      "Ġverbosity": 7041,
      "There": 7042,
      "bases": 7043,
      "Ġarc": 7044,
      "Ġparticular": 7045,
      "Ġcompleted": 7046,
      "FT": 7047,
      "Ġcourse": 7048,
      "Ġpay": 7049,
      "ĠURI": 7050,
      "Ġnotebook": 7051,
      "Ġaddresses": 7052,
      "Ġhashlib": 7053,
      "fragment": 7054,
      "DELETE": 7055,
      "Ġentities": 7056,
      "Ġ\"\":": 7057,
      "LIB": 7058,
      "precation": 7059,
      "Interrupt": 7060,
      "legal": 7061,
      "Stack": 7062,
      "Ġsl": 7063,
      "luster": 7064,
      "Ġranges": 7065,
      "Ġready": 7066,
      "vidence": 7067,
      "])))": 7068,
      "solution": 7069,
      "uniform": 7070,
      "capacity": 7071,
      "frac": 7072,
      "relationship": 7073,
      "OM": 7074,
      "Ġpull": 7075,
      "tep": 7076,
      "Ġshare": 7077,
      "ĠNote": 7078,
      "communicate": 7079,
      "Ġdocstring": 7080,
      "Ġpixel": 7081,
      "Tri": 7082,
      "cover": 7083,
      "Ġdisp": 7084,
      "wards": 7085,
      "Uti": 7086,
      "inja": 7087,
      "Ġglyph": 7088,
      "share": 7089,
      "Ġanchor": 7090,
      "floor": 7091,
      "learning": 7092,
      "iling": 7093,
      "ational": 7094,
      "Ġ[%": 7095,
      "REC": 7096,
      "Files": 7097,
      "Ġtemperature": 7098,
      "tzinfo": 7099,
      "mappings": 7100,
      "iloc": 7101,
      "vtk": 7102,
      "Ġfree": 7103,
      "ĠEvent": 7104,
      "Ġserialize": 7105,
      "Ġcod": 7106,
      "Ġplease": 7107,
      "mpath": 7108,
      "Ġconcat": 7109,
      "tection": 7110,
      "Ġserialized": 7111,
      "mul": 7112,
      "erance": 7113,
      "Ġcond": 7114,
      "ĠApp": 7115,
      "ĠId": 7116,
      "...')": 7117,
      "Ġtenant": 7118,
      "WA": 7119,
      "Ġnegative": 7120,
      "seqs": 7121,
      "percentage": 7122,
      "!!": 7123,
      "Cap": 7124,
      "mapped": 7125,
      ",\"": 7126,
      "Bar": 7127,
      "IR": 7128,
      "updates": 7129,
      "Ġacc": 7130,
      "Ġintervals": 7131,
      "eig": 7132,
      "ading": 7133,
      "Ġserializer": 7134,
      "initialized": 7135,
      "Draw": 7136,
      "room": 7137,
      "Ġthose": 7138,
      "Ġlisten": 7139,
      "median": 7140,
      "lopen": 7141,
      "Ġbed": 7142,
      "umor": 7143,
      "currency": 7144,
      "boxes": 7145,
      "Empty": 7146,
      "FIN": 7147,
      "Grid": 7148,
      "formatted": 7149,
      "ĠCal": 7150,
      "Computes": 7151,
      "Allow": 7152,
      "riendly": 7153,
      "GTH": 7154,
      "[^": 7155,
      "Ġhours": 7156,
      "}\",": 7157,
      "onic": 7158,
      "Ġsto": 7159,
      "notebook": 7160,
      "Total": 7161,
      "java": 7162,
      "']('": 7163,
      "strptime": 7164,
      "Ġweek": 7165,
      "syntax": 7166,
      "tcp": 7167,
      "irt": 7168,
      "ldp": 7169,
      "tives": 7170,
      "character": 7171,
      "Ġcid": 7172,
      "more": 7173,
      "tenant": 7174,
      "FFFF": 7175,
      "Prefix": 7176,
      "fm": 7177,
      "Ġec": 7178,
      "routes": 7179,
      "Ġresolution": 7180,
      "ĠIter": 7181,
      "TIMEOUT": 7182,
      "CATION": 7183,
      "ftp": 7184,
      "pu": 7185,
      "Ġpg": 7186,
      "Ġpdf": 7187,
      "itter": 7188,
      "pickle": 7189,
      "examples": 7190,
      "ners": 7191,
      "person": 7192,
      "fab": 7193,
      "density": 7194,
      "EC": 7195,
      "Ġdates": 7196,
      "inx": 7197,
      "lica": 7198,
      "Ġconsumer": 7199,
      "aign": 7200,
      "information": 7201,
      "resolution": 7202,
      "daemon": 7203,
      "returncode": 7204,
      "domains": 7205,
      "DecodeError": 7206,
      "Ġcoeffici": 7207,
      "Ensure": 7208,
      "kv": 7209,
      "Ġ],": 7210,
      "tit": 7211,
      "trunc": 7212,
      "nonce": 7213,
      "Install": 7214,
      "400": 7215,
      "plain": 7216,
      "Ġeig": 7217,
      "removed": 7218,
      "contig": 7219,
      "cepts": 7220,
      "Ġlogs": 7221,
      "registered": 7222,
      "xlim": 7223,
      "ylim": 7224,
      "isis": 7225,
      "UTF": 7226,
      "cleaned": 7227,
      "Ġsmall": 7228,
      "CMD": 7229,
      "Ġtw": 7230,
      "candidates": 7231,
      "GR": 7232,
      "operational": 7233,
      "Title": 7234,
      "Ġquali": 7235,
      "Ġlocations": 7236,
      "stems": 7237,
      "mr": 7238,
      "utcnow": 7239,
      "Ġbias": 7240,
      "maybe": 7241,
      "åı": 7242,
      "hashes": 7243,
      "Encode": 7244,
      "Track": 7245,
      "coverage": 7246,
      "Ġmk": 7247,
      "aux": 7248,
      "ParseError": 7249,
      "ĠQuery": 7250,
      ">',": 7251,
      "Ġwalk": 7252,
      "agger": 7253,
      "AML": 7254,
      "Ġfallback": 7255,
      "cookies": 7256,
      "mation": 7257,
      "Proxy": 7258,
      "Ġtrim": 7259,
      "herit": 7260,
      "Ġwritten": 7261,
      "mainder": 7262,
      "Ġconditions": 7263,
      "Ġgl": 7264,
      "Ġrgb": 7265,
      "Ġgood": 7266,
      "tau": 7267,
      "ised": 7268,
      "Ġ[]):": 7269,
      "lity": 7270,
      "Ġcompress": 7271,
      "SSL": 7272,
      "ArgumentParser": 7273,
      "GE": 7274,
      "Ġreferences": 7275,
      "ances": 7276,
      "ĠLoc": 7277,
      "secure": 7278,
      "Running": 7279,
      "squeeze": 7280,
      "spin": 7281,
      "mmar": 7282,
      "ĠClo": 7283,
      "([])": 7284,
      "CHAR": 7285,
      "Ġsampling": 7286,
      "Ġdecoded": 7287,
      "\"}": 7288,
      "Ġbs": 7289,
      "theme": 7290,
      "rotation": 7291,
      "Ġcombined": 7292,
      "Bind": 7293,
      "rst": 7294,
      "Ġdns": 7295,
      "Ġvtk": 7296,
      "Ġ36": 7297,
      "hat": 7298,
      "Ġwould": 7299,
      "(\".\")": 7300,
      "oute": 7301,
      "Def": 7302,
      "dependent": 7303,
      "emory": 7304,
      "ĠRead": 7305,
      "criteria": 7306,
      "tls": 7307,
      "normalized": 7308,
      "LIST": 7309,
      "boardInterrupt": 7310,
      "rmtree": 7311,
      "Using": 7312,
      "bb": 7313,
      "Ġconversion": 7314,
      "Ġdue": 7315,
      "minor": 7316,
      "ALI": 7317,
      "``,": 7318,
      "expires": 7319,
      "Ġops": 7320,
      "70": 7321,
      "RY": 7322,
      "Ġ^": 7323,
      "Ġrepresen": 7324,
      "based": 7325,
      "compound": 7326,
      "ĠNOT": 7327,
      "markup": 7328,
      "finite": 7329,
      "STATUS": 7330,
      "LS": 7331,
      "kill": 7332,
      "laint": 7333,
      "Ġbinding": 7334,
      "ĉĉĉĉĉ": 7335,
      "Ġless": 7336,
      "Ġ30": 7337,
      "ATED": 7338,
      "./": 7339,
      "atives": 7340,
      "tif": 7341,
      "(\"<": 7342,
      "Ġsizes": 7343,
      "Ġminion": 7344,
      "constraint": 7345,
      "Ġscalar": 7346,
      "Ġfc": 7347,
      "Ġeffect": 7348,
      "Ġmeans": 7349,
      "mgr": 7350,
      "Ġlevels": 7351,
      "('.',": 7352,
      "tunnel": 7353,
      "irtual": 7354,
      "DD": 7355,
      "Hist": 7356,
      "hint": 7357,
      "çļ": 7358,
      "seen": 7359,
      "Ġ({})": 7360,
      "Ġnumeric": 7361,
      "Ġtemplates": 7362,
      "çļĦ": 7363,
      "Render": 7364,
      "basis": 7365,
      "Ġencrypted": 7366,
      "minute": 7367,
      "Project": 7368,
      "relpath": 7369,
      "bindings": 7370,
      "Ġwatch": 7371,
      "\")[": 7372,
      "literal": 7373,
      "viders": 7374,
      "describe": 7375,
      "levant": 7376,
      "=__": 7377,
      "SK": 7378,
      "fr": 7379,
      "Ġinte": 7380,
      "parallel": 7381,
      "Ġattempt": 7382,
      "Ġformats": 7383,
      "Ġmetavar": 7384,
      "...,": 7385,
      "Top": 7386,
      "Ġcd": 7387,
      "Ġmultip": 7388,
      "abort": 7389,
      "rective": 7390,
      "streams": 7391,
      "Ġretries": 7392,
      "Ġxs": 7393,
      "ĠSystem": 7394,
      "Ġonce": 7395,
      "Ġsymbols": 7396,
      "variants": 7397,
      "Active": 7398,
      "Success": 7399,
      "MPLATE": 7400,
      "AV": 7401,
      "RF": 7402,
      "world": 7403,
      "ĠAl": 7404,
      "Ġbook": 7405,
      "Ġ----------": 7406,
      "Ġam": 7407,
      "Ġrx": 7408,
      "outcome": 7409,
      "kwds": 7410,
      "boundary": 7411,
      "Ġconstraint": 7412,
      "Failure": 7413,
      "udo": 7414,
      "Ġcriteria": 7415,
      "predicate": 7416,
      "ĠInput": 7417,
      "Ġquad": 7418,
      "Ġderiv": 7419,
      "least": 7420,
      "Ġcum": 7421,
      "Ġ'').": 7422,
      "additional": 7423,
      "Ġbasis": 7424,
      "Ġrpc": 7425,
      "Ġboundary": 7426,
      "So": 7427,
      "lr": 7428,
      "Ġta": 7429,
      "validat": 7430,
      "chdir": 7431,
      "protein": 7432,
      "osite": 7433,
      "Ġlongitude": 7434,
      "sembly": 7435,
      "Ġ\"#": 7436,
      "ĠĠĠĠĠĠĠĠĠĠĠĠĠĠĠĠĠĠĠĠĠĠĠĠĠĠĠĠĠĠĠĠĠĠĠĠĠĠĠĠĠĠĠĠĠĠĠĠĠĠĠĠĠĠĠĠ": 7437,
      "Comple": 7438,
      "MODE": 7439,
      "Ġattachment": 7440,
      "bri": 7441,
      "qos": 7442,
      "feat": 7443,
      "ĠNet": 7444,
      "incipal": 7445,
      "+\"": 7446,
      "Main": 7447,
      "oter": 7448,
      "esian": 7449,
      "prod": 7450,
      "portal": 7451,
      "Ġ':'": 7452,
      "tell": 7453,
      "argspec": 7454,
      "Ġ[-": 7455,
      "Account": 7456,
      "activate": 7457,
      "attachment": 7458,
      "Ġdeepcopy": 7459,
      "xyz": 7460,
      "Ġguess": 7461,
      "traffic": 7462,
      "ĠMulti": 7463,
      "when": 7464,
      "ĠPY": 7465,
      "Ġfinished": 7466,
      "'})": 7467,
      "mn": 7468,
      "Ġturn": 7469,
      "\",\"": 7470,
      "Ġdisco": 7471,
      "infos": 7472,
      "objective": 7473,
      "Items": 7474,
      "logits": 7475,
      "velength": 7476,
      "ĠInter": 7477,
      "ategorical": 7478,
      "Args": 7479,
      "ĠSaltCloud": 7480,
      "Validat": 7481,
      "pick": 7482,
      "mix": 7483,
      "Ġaround": 7484,
      "Ġcharset": 7485,
      "Ġsuccessfully": 7486,
      "seudo": 7487,
      "Ġaut": 7488,
      "Ġcodes": 7489,
      "histogram": 7490,
      "Ġnr": 7491,
      "nums": 7492,
      "Ġerrno": 7493,
      "58": 7494,
      "Ma": 7495,
      "references": 7496,
      "Ġcr": 7497,
      "Ġaff": 7498,
      "Ġsd": 7499,
      "Ġsq": 7500,
      "ctype": 7501,
      "Ġprocesses": 7502,
      "Ġsoup": 7503,
      "Offset": 7504,
      "utures": 7505,
      "Ġborder": 7506,
      "Ġsimp": 7507,
      "responses": 7508,
      "cipients": 7509,
      "500": 7510,
      "Ġpip": 7511,
      "Ġraised": 7512,
      "ĠTuple": 7513,
      "ĠNum": 7514,
      "Unit": 7515,
      "Ġactivation": 7516,
      "how": 7517,
      "jar": 7518,
      "wall": 7519,
      "~~": 7520,
      "Ġnative": 7521,
      "Ġmi": 7522,
      "endor": 7523,
      "Ġvcf": 7524,
      "topics": 7525,
      "inations": 7526,
      "Ġpan": 7527,
      "Ġports": 7528,
      "lag": 7529,
      "iteration": 7530,
      "decorator": 7531,
      "GIN": 7532,
      "glyph": 7533,
      "klass": 7534,
      "Fin": 7535,
      "tide": 7536,
      "Ġ'?": 7537,
      "Ġsol": 7538,
      "START": 7539,
      "ĠBlock": 7540,
      "sgi": 7541,
      "SSAGE": 7542,
      "estimator": 7543,
      "Ġdetected": 7544,
      "dynamic": 7545,
      "Ġtgt": 7546,
      "ee": 7547,
      "xi": 7548,
      "Ġgame": 7549,
      "Ġconfigure": 7550,
      "radians": 7551,
      "Attr": 7552,
      "SPACE": 7553,
      "sam": 7554,
      "Ġ()": 7555,
      "Ġdynamic": 7556,
      "Ġdispatch": 7557,
      "Ġinterfaces": 7558,
      "Union": 7559,
      "29": 7560,
      "deriv": 7561,
      "Settings": 7562,
      "Ġavg": 7563,
      "ĠIDs": 7564,
      "Application": 7565,
      "KEN": 7566,
      "RET": 7567,
      "Ġcrypto": 7568,
      "Ġsmooth": 7569,
      "Ġconnections": 7570,
      "Ġipv": 7571,
      "laintext": 7572,
      ")})": 7573,
      "resize": 7574,
      "ird": 7575,
      "Interface": 7576,
      "Descriptor": 7577,
      "PH": 7578,
      "Ret": 7579,
      "scene": 7580,
      "Loads": 7581,
      "BE": 7582,
      "ifo": 7583,
      "Ġtimer": 7584,
      "Ġbc": 7585,
      "78": 7586,
      "_=": 7587,
      "Ġcaller": 7588,
      "ĠReg": 7589,
      "Ip": 7590,
      "Ġsolution": 7591,
      "composition": 7592,
      "nowledge": 7593,
      "Ġsv": 7594,
      "cles": 7595,
      "Flags": 7596,
      "dy": 7597,
      "Ġchr": 7598,
      "starting": 7599,
      "Columns": 7600,
      "-{": 7601,
      "indicator": 7602,
      "Ġdialog": 7603,
      "Ġcoordinate": 7604,
      "shutdown": 7605,
      "odb": 7606,
      "posed": 7607,
      "dry": 7608,
      "hparam": 7609,
      "Recur": 7610,
      "CC": 7611,
      "Dist": 7612,
      "II": 7613,
      "crop": 7614,
      "dropout": 7615,
      "Ġtc": 7616,
      "lig": 7617,
      "butions": 7618,
      "hyper": 7619,
      "pex": 7620,
      "Ġdc": 7621,
      "isdigit": 7622,
      "fileobj": 7623,
      "Ġrm": 7624,
      "ĠMAX": 7625,
      "Ġgenes": 7626,
      "000000": 7627,
      "]{": 7628,
      "two": 7629,
      "erred": 7630,
      "Ġuses": 7631,
      "iteral": 7632,
      "Ġcompression": 7633,
      "mitive": 7634,
      "boto": 7635,
      "((\"": 7636,
      "uit": 7637,
      "spac": 7638,
      "Ġdecoder": 7639,
      "coin": 7640,
      "Ġblack": 7641,
      "Ġvectors": 7642,
      "__',": 7643,
      "nets": 7644,
      "execution": 7645,
      "charset": 7646,
      "ln": 7647,
      "vpc": 7648,
      "Ġoffsets": 7649,
      "finish": 7650,
      "quality": 7651,
      "Ġreplacement": 7652,
      "}.{": 7653,
      "================": 7654,
      "ao": 7655,
      "STRING": 7656,
      "ĠServer": 7657,
      "Ġpotential": 7658,
      "breviation": 7659,
      "crs": 7660,
      "orph": 7661,
      "Ġincluded": 7662,
      "ulative": 7663,
      "Ġcompat": 7664,
      "ĠBe": 7665,
      "optimizer": 7666,
      "orn": 7667,
      "titem": 7668,
      "Ġiface": 7669,
      "Ġ''))": 7670,
      "Ġlatitude": 7671,
      "omial": 7672,
      "gradient": 7673,
      "'d": 7674,
      "Pop": 7675,
      "tur": 7676,
      "Ġimplemented": 7677,
      "sumed": 7678,
      "Ġtransfer": 7679,
      "macro": 7680,
      "dependency": 7681,
      ")?": 7682,
      "half": 7683,
      "listener": 7684,
      "Ġcov": 7685,
      "outine": 7686,
      "outdir": 7687,
      "></": 7688,
      "ific": 7689,
      "Ġattrib": 7690,
      "Ġthreading": 7691,
      "special": 7692,
      "initialize": 7693,
      "ĠToken": 7694,
      "met": 7695,
      "Ġrem": 7696,
      "Ġmail": 7697,
      "Json": 7698,
      "Mon": 7699,
      "evaluate": 7700,
      "inp": 7701,
      "anchor": 7702,
      "splits": 7703,
      "compatible": 7704,
      "Shape": 7705,
      "lename": 7706,
      "ĠTable": 7707,
      "Ġaltern": 7708,
      "Ġminor": 7709,
      "TOKEN": 7710,
      "HOST": 7711,
      "tify": 7712,
      "Ġage": 7713,
      "extended": 7714,
      "clients": 7715,
      "Ġquot": 7716,
      "gapic": 7717,
      "Ġgzip": 7718,
      "Ġalways": 7719,
      "ĠSequence": 7720,
      "Ġvisit": 7721,
      ":{": 7722,
      "Com": 7723,
      "cmp": 7724,
      "Ġdescri": 7725,
      "assignment": 7726,
      "ned": 7727,
      "slots": 7728,
      "aring": 7729,
      "Ġpointer": 7730,
      "Ġspecies": 7731,
      "prefixes": 7732,
      "Ġexplicit": 7733,
      "TABLE": 7734,
      "Ġextended": 7735,
      "Ġinitialize": 7736,
      "tgt": 7737,
      "ctrl": 7738,
      "Ġdigits": 7739,
      "Ġprog": 7740,
      "ĠCreate": 7741,
      "Ġpredicate": 7742,
      "DED": 7743,
      "ĠWindow": 7744,
      "CLASS": 7745,
      "namespaces": 7746,
      "subplot": 7747,
      "ĠField": 7748,
      "Ġsudo": 7749,
      "Runs": 7750,
      "BACK": 7751,
      "Ġxmax": 7752,
      "ĠTra": 7753,
      "Stats": 7754,
      "beat": 7755,
      "Ġ40": 7756,
      "udit": 7757,
      "Builder": 7758,
      "firmware": 7759,
      ")[-": 7760,
      "ached": 7761,
      "iface": 7762,
      "slices": 7763,
      "Ġ'(": 7764,
      "ctl": 7765,
      "raster": 7766,
      "Ġdom": 7767,
      "Raw": 7768,
      "fficient": 7769,
      "Removes": 7770,
      "Ġspin": 7771,
      "Ġ500": 7772,
      "+',": 7773,
      "IME": 7774,
      "Ġpb": 7775,
      "Ġinp": 7776,
      "Ġduplicate": 7777,
      "Replace": 7778,
      "Ġroom": 7779,
      "accounts": 7780,
      "Ġcreates": 7781,
      "allele": 7782,
      "fabric": 7783,
      "26": 7784,
      "EP": 7785,
      "Lib": 7786,
      "aw": 7787,
      "lated": 7788,
      "Ġ\"(": 7789,
      "activation": 7790,
      "GS": 7791,
      "One": 7792,
      "[\\": 7793,
      "between": 7794,
      "batches": 7795,
      "Ġindividual": 7796,
      "KeyError": 7797,
      "centers": 7798,
      "overwrite": 7799,
      "sensus": 7800,
      "28": 7801,
      "player": 7802,
      "ises": 7803,
      "formula": 7804,
      "quick": 7805,
      "Ġdouble": 7806,
      "Ġepsilon": 7807,
      "LENGTH": 7808,
      "anitize": 7809,
      "lope": 7810,
      "Ġwa": 7811,
      "timeseries": 7812,
      "Ġalle": 7813,
      "Any": 7814,
      "Pix": 7815,
      "sensitive": 7816,
      "Ġsubclass": 7817,
      "Ġlex": 7818,
      "Points": 7819,
      "LIM": 7820,
      "Ġclusters": 7821,
      "Ġcpu": 7822,
      "embedding": 7823,
      "SystemExit": 7824,
      "probs": 7825,
      "ĠAt": 7826,
      "Ġsubscription": 7827,
      "latent": 7828,
      "Ġinterpre": 7829,
      "relations": 7830,
      "functools": 7831,
      "stand": 7832,
      "pet": 7833,
      "raft": 7834,
      "Ġcompressed": 7835,
      "Ġdecorated": 7836,
      "pixels": 7837,
      "AST": 7838,
      "attempts": 7839,
      "seline": 7840,
      "endpoints": 7841,
      "ym": 7842,
      "Ġtools": 7843,
      "\"]]": 7844,
      "numer": 7845,
      "ĠGroup": 7846,
      "DateTime": 7847,
      "Ġhyper": 7848,
      "ov": 7849,
      "metry": 7850,
      "periods": 7851,
      "mpaign": 7852,
      "Ġdists": 7853,
      "vance": 7854,
      "Ġcn": 7855,
      "heads": 7856,
      "ĠWork": 7857,
      "TEMPLATE": 7858,
      "Ġvisible": 7859,
      "Flag": 7860,
      "must": 7861,
      "Ġcipher": 7862,
      "))):": 7863,
      "Ġwave": 7864,
      "magnitude": 7865,
      "Ġrand": 7866,
      "Ġsubmission": 7867,
      "rune": 7868,
      "ARD": 7869,
      "translation": 7870,
      "duction": 7871,
      "ADD": 7872,
      "Close": 7873,
      "gc": 7874,
      "tot": 7875,
      "vstack": 7876,
      "Ġtp": 7877,
      "Ġcop": 7878,
      "Ġdensity": 7879,
      "resolved": 7880,
      "locity": 7881,
      "Extension": 7882,
      "Ġonto": 7883,
      "Ġadding": 7884,
      "bsocket": 7885,
      "ook": 7886,
      "into": 7887,
      "reat": 7888,
      "delimiter": 7889,
      "appa": 7890,
      "journ": 7891,
      "(?:": 7892,
      "written": 7893,
      "Ġterminal": 7894,
      "Definition": 7895,
      "08": 7896,
      "TT": 7897,
      "YPE": 7898,
      "Ġtranscript": 7899,
      "REQUEST": 7900,
      "nic": 7901,
      "andi": 7902,
      "Ġspeed": 7903,
      "Ġpick": 7904,
      "dele": 7905,
      "Ġpf": 7906,
      "Ġelapsed": 7907,
      "shard": 7908,
      "Insert": 7909,
      "Ġenc": 7910,
      "ĠService": 7911,
      "UES": 7912,
      "runs": 7913,
      "pkt": 7914,
      "Ġconstant": 7915,
      "Ġbroker": 7916,
      "yield": 7917,
      "Ġamp": 7918,
      "Ġnamespaces": 7919,
      "cim": 7920,
      "Ġdefine": 7921,
      "ĠSCons": 7922,
      "ĠTO": 7923,
      "Ġcompound": 7924,
      "Ġdocumentation": 7925,
      "Authorization": 7926,
      "strain": 7927,
      "Ġresolver": 7928,
      "netloc": 7929,
      "sudo": 7930,
      "BB": 7931,
      "indexer": 7932,
      "REF": 7933,
      "Ġoptionally": 7934,
      "LANG": 7935,
      "infer": 7936,
      "restore": 7937,
      "Ġtun": 7938,
      "Ġpp": 7939,
      "erial": 7940,
      "bon": 7941,
      "without": 7942,
      "iodic": 7943,
      "Script": 7944,
      "SN": 7945,
      "mf": 7946,
      "Ġ'&": 7947,
      "exposure": 7948,
      "spy": 7949,
      "Ġ_('": 7950,
      "Ġchart": 7951,
      "Ġpriv": 7952,
      "!\".": 7953,
      "'\",": 7954,
      "Ġquestion": 7955,
      "itable": 7956,
      "Ġzoom": 7957,
      "cleanup": 7958,
      "LY": 7959,
      "XY": 7960,
      "Ġaz": 7961,
      "Ġ256": 7962,
      "checkpoint": 7963,
      "ĠTemplate": 7964,
      "vered": 7965,
      "Ġdecimal": 7966,
      "Produce": 7967,
      "authenticated": 7968,
      "Writes": 7969,
      "37": 7970,
      "ĠĠĠĠĠĠĠĠĠĠĠĠĠĠĠĠĠĠĠĠĠĠĠĠĠĠĠĠĠĠĠĠĠĠĠĠĠĠĠĠĠĠĠĠĠĠĠĠĠĠĠĠĠĠĠĠĠ": 7971,
      "\"]))": 7972,
      "Collect": 7973,
      "Ġ'{}'\".": 7974,
      "Bit": 7975,
      "CD": 7976,
      "bgp": 7977,
      "blank": 7978,
      "smooth": 7979,
      "Ġfontsize": 7980,
      "Ġaws": 7981,
      "topology": 7982,
      "Ori": 7983,
      "solve": 7984,
      "cipher": 7985,
      "Invocation": 7986,
      "orientation": 7987,
      "Ġexpanded": 7988,
      "associ": 7989,
      "effect": 7990,
      "Ġblue": 7991,
      "AIL": 7992,
      "encrypted": 7993,
      "Ġhuman": 7994,
      "ĠĠĠĠĠĠĠĠĠĠĠĠĠĠĠĠĠĠĠĠĠĠĠĠĠĠĠĠĠĠĠĠĠĠĠĠĠĠĠĠĠĠĠĠĠĠĠĠĠĠĠĠĠĠĠĠĠĠ": 7995,
      "Ġprediction": 7996,
      "subscription": 7997,
      "idxs": 7998,
      "sors": 7999,
      "MT": 8000,
      "repos": 8001,
      "ely": 8002,
      "Ġ`%": 8003,
      "Elements": 8004,
      "GO": 8005,
      "reload": 8006,
      "encryption": 8007,
      "Ġvpc": 8008,
      "Ġwhite": 8009,
      "dists": 8010,
      "artist": 8011,
      "Gui": 8012,
      "increment": 8013,
      "Ġrhs": 8014,
      "prediction": 8015,
      "Ġstatements": 8016,
      "stride": 8017,
      "COM": 8018,
      "Ġlegend": 8019,
      "ĠOptionParser": 8020,
      "ĠContent": 8021,
      "'},": 8022,
      "styles": 8023,
      "pep": 8024,
      "Ġtok": 8025,
      "scatter": 8026,
      "statements": 8027,
      "Ġlengths": 8028,
      "claration": 8029,
      "gered": 8030,
      "Ġocc": 8031,
      "renderer": 8032,
      "snmp": 8033,
      "coeffs": 8034,
      "ĠArgument": 8035,
      "]\")": 8036,
      "Export": 8037,
      "ĠOut": 8038,
      "LEV": 8039,
      "prime": 8040,
      "Ġloading": 8041,
      "ĠWeb": 8042,
      "WORK": 8043,
      "inuous": 8044,
      "Ġincluding": 8045,
      "substit": 8046,
      "Upload": 8047,
      "transitions": 8048,
      "128": 8049,
      "Ġhistogram": 8050,
      "ĠOperation": 8051,
      "adap": 8052,
      "ĠGe": 8053,
      "ĠKeyboardInterrupt": 8054,
      "Ġconflict": 8055,
      "Ġsyntax": 8056,
      "Dim": 8057,
      "recognized": 8058,
      "datastore": 8059,
      "Report": 8060,
      "Ġpredictions": 8061,
      "RECT": 8062,
      "Ġneighbors": 8063,
      "Msg": 8064,
      "given": 8065,
      "jd": 8066,
      "Ġnn": 8067,
      "figsize": 8068,
      "should": 8069,
      "roots": 8070,
      "Section": 8071,
      "masked": 8072,
      "svg": 8073,
      "Ġ64": 8074,
      "Ġpin": 8075,
      "Ġgradient": 8076,
      "Must": 8077,
      "utation": 8078,
      "exact": 8079,
      "cha": 8080,
      "quanti": 8081,
      "Ġshard": 8082,
      "ANCE": 8083,
      "lapse": 8084,
      "cuit": 8085,
      "Has": 8086,
      "peg": 8087,
      "Ġstud": 8088,
      "Ġdeps": 8089,
      "ĠCIM": 8090,
      "comps": 8091,
      "Ġ404": 8092,
      "helpers": 8093,
      "tok": 8094,
      "Ġobjective": 8095,
      "factors": 8096,
      "URN": 8097,
      "LOAD": 8098,
      "termines": 8099,
      "27": 8100,
      "RGB": 8101,
      "ele": 8102,
      "Ġapplied": 8103,
      "ASH": 8104,
      "Ġfraction": 8105,
      "InvocationError": 8106,
      "RUN": 8107,
      "Ġcrop": 8108,
      "Ġet": 8109,
      "Ġ11": 8110,
      "ĠMo": 8111,
      "SES": 8112,
      "Ġpolygon": 8113,
      "panel": 8114,
      ".+": 8115,
      "Ġtau": 8116,
      "phone": 8117,
      "osome": 8118,
      "Ġimported": 8119,
      "modes": 8120,
      "Uni": 8121,
      "Accept": 8122,
      "Ġautomatically": 8123,
      "LINK": 8124,
      "########": 8125,
      "Ġ{}\\": 8126,
      "oked": 8127,
      "fromstring": 8128,
      "Layout": 8129,
      "PN": 8130,
      "Ġwrong": 8131,
      "localhost": 8132,
      "Ġcreation": 8133,
      "normpath": 8134,
      "bio": 8135,
      "verbosity": 8136,
      "logfile": 8137,
      "Ġdiction": 8138,
      "Ġmajor": 8139,
      "subplots": 8140,
      "iterations": 8141,
      "ĠOR": 8142,
      "docstring": 8143,
      "Ġapprox": 8144,
      "containers": 8145,
      "Required": 8146,
      "serialized": 8147,
      "Lock": 8148,
      "Ġpoll": 8149,
      "gpu": 8150,
      "degrees": 8151,
      "Zip": 8152,
      "cart": 8153,
      "infile": 8154,
      "unce": 8155,
      "')),": 8156,
      "ĠVAL": 8157,
      "BYTE": 8158,
      "Ph": 8159,
      "tup": 8160,
      "Ġln": 8161,
      "possible": 8162,
      "Ġpagin": 8163,
      "nec": 8164,
      "sume": 8165,
      "1024": 8166,
      "ailab": 8167,
      "plane": 8168,
      "/',": 8169,
      "Volume": 8170,
      "scheduler": 8171,
      "Ġunc": 8172,
      "stmts": 8173,
      "Ġevaluate": 8174,
      "Ġcanvas": 8175,
      "bands": 8176,
      "/.": 8177,
      "Ax": 8178,
      "uoa": 8179,
      "Ġmargin": 8180,
      "Ġba": 8181,
      "Ġvisited": 8182,
      "Ġ\"/\"": 8183,
      "Cd": 8184,
      "Github": 8185,
      "combine": 8186,
      "SERVER": 8187,
      "Ġglobals": 8188,
      "velope": 8189,
      "]\"": 8190,
      "inct": 8191,
      "Entity": 8192,
      "alizers": 8193,
      "Ġ400": 8194,
      "ixed": 8195,
      "Ġassigned": 8196,
      "Ġcutoff": 8197,
      "uals": 8198,
      "Loader": 8199,
      "Ġaccepted": 8200,
      "']}": 8201,
      "cpus": 8202,
      "azure": 8203,
      "Len": 8204,
      "datatype": 8205,
      "['--": 8206,
      "Ġconverter": 8207,
      "ĠTag": 8208,
      "Ġdicts": 8209,
      "weet": 8210,
      "Ġscene": 8211,
      "issuer": 8212,
      "Authentication": 8213,
      "Web": 8214,
      "ggered": 8215,
      "vd": 8216,
      "Ġinverse": 8217,
      "(\">": 8218,
      "anning": 8219,
      "Ġrenderer": 8220,
      "Temporary": 8221,
      "Package": 8222,
      "21": 8223,
      "Mask": 8224,
      "ENTI": 8225,
      "collections": 8226,
      "SHA": 8227,
      "Ob": 8228,
      "Ġproblems": 8229,
      "Analysis": 8230,
      "Ġmodify": 8231,
      "ĠSaltCloudSystemExit": 8232,
      "vp": 8233,
      "Ġrepe": 8234,
      "Received": 8235,
      "Ġsubstit": 8236,
      "dup": 8237,
      "hardware": 8238,
      "snp": 8239,
      "Ġsr": 8240,
      "perform": 8241,
      "classname": 8242,
      "imuth": 8243,
      "initializer": 8244,
      "Ġdaemon": 8245,
      "branches": 8246,
      "clock": 8247,
      "rete": 8248,
      "Ġconver": 8249,
      "asses": 8250,
      "locator": 8251,
      "charge": 8252,
      "Created": 8253,
      "wx": 8254,
      "Ġer": 8255,
      "getvalue": 8256,
      "Ġlv": 8257,
      "creation": 8258,
      "Ġchars": 8259,
      "alarm": 8260,
      "Ġhits": 8261,
      "Ġ'.'.": 8262,
      "receive": 8263,
      "DIS": 8264,
      "merged": 8265,
      "Verify": 8266,
      "ball": 8267,
      "sr": 8268,
      "elt": 8269,
      "Ġprep": 8270,
      "reaction": 8271,
      "Ġruns": 8272,
      "Ġfeat": 8273,
      "Ġactivity": 8274,
      ":')": 8275,
      "GL": 8276,
      "mega": 8277,
      "Ġabove": 8278,
      "contrib": 8279,
      "strategy": 8280,
      "Ġthresh": 8281,
      "Ġpress": 8282,
      "ENV": 8283,
      "ILD": 8284,
      "hier": 8285,
      "SIGN": 8286,
      "creds": 8287,
      "palette": 8288,
      "Ġì": 8289,
      "Ġpdb": 8290,
      "Ġiso": 8291,
      "ĠOne": 8292,
      "Ġrunner": 8293,
      "Ġcontained": 8294,
      "consts": 8295,
      "Buffer": 8296,
      "Parent": 8297,
      "Pi": 8298,
      "follow": 8299,
      "llable": 8300,
      "Ġ'@": 8301,
      "Ġbrowser": 8302,
      "sph": 8303,
      "Ġmaybe": 8304,
      "Ġsla": 8305,
      "Protocol": 8306,
      "cmds": 8307,
      "Ġverb": 8308,
      "havior": 8309,
      "spacing": 8310,
      "pod": 8311,
      "pared": 8312,
      "Changed": 8313,
      "COLOR": 8314,
      "residue": 8315,
      "retrieve": 8316,
      "ĠCloud": 8317,
      "44": 8318,
      "LAB": 8319,
      "guess": 8320,
      "tex": 8321,
      "secs": 8322,
      "altern": 8323,
      "Ġreaction": 8324,
      "Ġhalf": 8325,
      "ĠAd": 8326,
      "ĠNO": 8327,
      "Ġquanti": 8328,
      "ClassType": 8329,
      "overlap": 8330,
      "Ġ50": 8331,
      "}.'.": 8332,
      "venance": 8333,
      "inator": 8334,
      "vided": 8335,
      "perf": 8336,
      "ĠDate": 8337,
      "Ġneg": 8338,
      "ROUP": 8339,
      "NOWN": 8340,
      "Ġmaps": 8341,
      "Admin": 8342,
      "bootstrap": 8343,
      "PASS": 8344,
      "precationWarning": 8345,
      "[...,": 8346,
      "cannot": 8347,
      "inventory": 8348,
      "Ġ\"+": 8349,
      "park": 8350,
      "Ġui": 8351,
      "Restricted": 8352,
      "Ġkv": 8353,
      "authorized": 8354,
      "realpath": 8355,
      "Ġcapture": 8356,
      "enotype": 8357,
      "Ġadata": 8358,
      "Ġws": 8359,
      "KEYS": 8360,
      "article": 8361,
      "EVENT": 8362,
      "LEVEL": 8363,
      "ience": 8364,
      "whe": 8365,
      "Ġttl": 8366,
      "allen": 8367,
      "dirty": 8368,
      "Ġextent": 8369,
      "Look": 8370,
      "Timestamp": 8371,
      "qualifier": 8372,
      "alancer": 8373,
      "39": 8374,
      "front": 8375,
      "wf": 8376,
      "Ġatoms": 8377,
      "MESSAGE": 8378,
      "fraction": 8379,
      "'+": 8380,
      "ior": 8381,
      "attempt": 8382,
      "mous": 8383,
      "aging": 8384,
      "Ġminute": 8385,
      "levation": 8386,
      "Av": 8387,
      "UI": 8388,
      "WE": 8389,
      "exchange": 8390,
      "Redirect": 8391,
      "acket": 8392,
      "csr": 8393,
      "DEX": 8394,
      "Ġregular": 8395,
      "Dialog": 8396,
      "BLOCK": 8397,
      "[~": 8398,
      "sb": 8399,
      "urlencode": 8400,
      "Ġbra": 8401,
      "Ġexposure": 8402,
      "Ġconfigs": 8403,
      "imize": 8404,
      "Ġtemporary": 8405,
      "disabled": 8406,
      "structions": 8407,
      "Windows": 8408,
      "Ġdenom": 8409,
      "Rate": 8410,
      "Ġperson": 8411,
      "Ġsolver": 8412,
      "(\"\"\"": 8413,
      "chemy": 8414,
      "kws": 8415,
      "DESCRIP": 8416,
      "ĠEX": 8417,
      "disconnect": 8418,
      "Ġgeom": 8419,
      "widgets": 8420,
      "Symbol": 8421,
      "llegal": 8422,
      "Ġaliases": 8423,
      "alo": 8424,
      "Ġinline": 8425,
      "Ġmicro": 8426,
      "Ġld": 8427,
      "orders": 8428,
      "COD": 8429,
      "APP": 8430,
      "CLIENT": 8431,
      "Rect": 8432,
      "nm": 8433,
      "Ġ\"*": 8434,
      "icket": 8435,
      "acquire": 8436,
      "lattice": 8437,
      "ĠRO": 8438,
      "Ġcodecs": 8439,
      "letter": 8440,
      "Processing": 8441,
      "Ġmeasurement": 8442,
      "DAT": 8443,
      "mst": 8444,
      "qte": 8445,
      "('__": 8446,
      "Ġregions": 8447,
      "Ġffi": 8448,
      "ĠUN": 8449,
      "bulk": 8450,
      "locked": 8451,
      "Ġappe": 8452,
      "Ġobserved": 8453,
      "BR": 8454,
      "Got": 8455,
      "lored": 8456,
      "Ġ{{": 8457,
      "Ġann": 8458,
      "Ġchat": 8459,
      "ĠAR": 8460,
      "submission": 8461,
      "Ġtranslate": 8462,
      "scopes": 8463,
      "Ġstarts": 8464,
      "today": 8465,
      "quared": 8466,
      "foc": 8467,
      "trial": 8468,
      "Ġdocuments": 8469,
      "Ġqueries": 8470,
      "Ġsuccessful": 8471,
      "ashboard": 8472,
      "Ġretrie": 8473,
      "Ġconstructor": 8474,
      "Est": 8475,
      "Metri": 8476,
      "leton": 8477,
      "ĠResult": 8478,
      "Det": 8479,
      "Non": 8480,
      "duplicate": 8481,
      "gu": 8482,
      "hem": 8483,
      "Ġwallet": 8484,
      "Ġ180": 8485,
      "distances": 8486,
      "Signature": 8487,
      "cron": 8488,
      "lide": 8489,
      "rices": 8490,
      "abbreviation": 8491,
      "UST": 8492,
      "django": 8493,
      "fg": 8494,
      "Ġrestart": 8495,
      "ĠGit": 8496,
      "Usage": 8497,
      "gzip": 8498,
      "Ġscheduler": 8499,
      "Ġstation": 8500,
      "Ġhdu": 8501,
      "Ġymax": 8502,
      "=\"{": 8503,
      "marks": 8504,
      "mitted": 8505,
      "ĠPOST": 8506,
      "RestrictedClassType": 8507,
      "Ġfq": 8508,
      "Ġnor": 8509,
      "dialog": 8510,
      "perms": 8511,
      "Ġtransformation": 8512,
      "Ġpkt": 8513,
      "ITS": 8514,
      "}\"'.": 8515,
      "Interval": 8516,
      "Ġestimated": 8517,
      "isoformat": 8518,
      "Ġcar": 8519,
      "unded": 8520,
      "negative": 8521,
      "classification": 8522,
      "Ġadds": 8523,
      "broadcast": 8524,
      "ListType": 8525,
      "Ġextend": 8526,
      "Move": 8527,
      "ConnectionError": 8528,
      "journal": 8529,
      "catch": 8530,
      "wl": 8531,
      "Ġtd": 8532,
      "']=": 8533,
      "acency": 8534,
      "ĠFunction": 8535,
      "hazard": 8536,
      "wk": 8537,
      "Ġboard": 8538,
      "ĠSaltInvocationError": 8539,
      "Socket": 8540,
      "hw": 8541,
      "lb": 8542,
      "Ġsheet": 8543,
      "Ġsilent": 8544,
      "Ġbold": 8545,
      "Ġraster": 8546,
      "ivot": 8547,
      "signals": 8548,
      "Attributes": 8549,
      ",%": 8550,
      "MQ": 8551,
      "mysql": 8552,
      "lick": 8553,
      "Ġmol": 8554,
      "broker": 8555,
      "OrderedDict": 8556,
      "It": 8557,
      "TC": 8558,
      "gain": 8559,
      "Ġfrozen": 8560,
      "Ġrename": 8561,
      "adow": 8562,
      "NotSet": 8563,
      "Ġneighbor": 8564,
      "Ġdegree": 8565,
      "+\\": 8566,
      "dct": 8567,
      "atal": 8568,
      "Ġweld": 8569,
      "argmax": 8570,
      "Ġrng": 8571,
      "Ġapps": 8572,
      "pkgs": 8573,
      "Builds": 8574,
      "volumes": 8575,
      "Ġdisabled": 8576,
      "combo": 8577,
      "RDF": 8578,
      "unct": 8579,
      "(\"#": 8580,
      "Ġhide": 8581,
      "ĠDoc": 8582,
      "Stat": 8583,
      "scaled": 8584,
      "ghts": 8585,
      "hub": 8586,
      "wp": 8587,
      "}_": 8588,
      "Ġrepeat": 8589,
      "ĠCLI": 8590,
      "Ġdeployment": 8591,
      "requires": 8592,
      "lax": 8593,
      "']])": 8594,
      "compiler": 8595,
      "Ġauthorization": 8596,
      "Ġ'/'.": 8597,
      "Ġformula": 8598,
      "placeholder": 8599,
      "OPTIONS": 8600,
      "LAY": 8601,
      "war": 8602,
      "Ġndim": 8603,
      "Ġsink": 8604,
      "converter": 8605,
      "Ġprotein": 8606,
      "buckets": 8607,
      "accep": 8608,
      "ĠOP": 8609,
      "Ġmoment": 8610,
      "TRAN": 8611,
      "Ġpixels": 8612,
      "Ġbulk": 8613,
      "upgrade": 8614,
      "Ġdetail": 8615,
      "Ġxmin": 8616,
      "Ġversionadded": 8617,
      "executor": 8618,
      "COUNT": 8619,
      "Ġquality": 8620,
      "dense": 8621,
      "Ġweighted": 8622,
      "gi": 8623,
      "plt": 8624,
      "xc": 8625,
      "Ġent": 8626,
      "Ġequivalent": 8627,
      "mpro": 8628,
      "())[": 8629,
      "Ġbases": 8630,
      "stddev": 8631,
      "blacklist": 8632,
      "Menu": 8633,
      "bench": 8634,
      "qdm": 8635,
      "Ġmar": 8636,
      "Inf": 8637,
      "Ġrecent": 8638,
      "destroy": 8639,
      "ĠWindows": 8640,
      "TING": 8641,
      "bill": 8642,
      "Ġnc": 8643,
      "Ġoauth": 8644,
      "CREATE": 8645,
      "Yield": 8646,
      "thumbnail": 8647,
      "Ġphy": 8648,
      "coef": 8649,
      "Ġflu": 8650,
      "vertical": 8651,
      "Ġimportlib": 8652,
      "canonical": 8653,
      "SOCK": 8654,
      "small": 8655,
      "Ġwaiting": 8656,
      "hdf": 8657,
      "pat": 8658,
      "Ġrecipe": 8659,
      "quantity": 8660,
      "amb": 8661,
      "tracker": 8662,
      "reach": 8663,
      "Ġdictionaries": 8664,
      "GithubObject": 8665,
      "xff": 8666,
      "Ġplayer": 8667,
      "trl": 8668,
      "Ext": 8669,
      "aggregate": 8670,
      "titude": 8671,
      "RPC": 8672,
      "):]": 8673,
      "hest": 8674,
      "fobj": 8675,
      "Database": 8676,
      "ULTI": 8677,
      "crets": 8678,
      "Ġzipfile": 8679,
      "modify": 8680,
      "Ġdatatype": 8681,
      "AWS": 8682,
      "Float": 8683,
      "HTML": 8684,
      "Ġtries": 8685,
      "Ġinf": 8686,
      "chors": 8687,
      "lens": 8688,
      "Ġalert": 8689,
      "requested": 8690,
      "ouble": 8691,
      "Ġprocessor": 8692,
      "Finds": 8693,
      "Starting": 8694,
      "!'": 8695,
      "hstack": 8696,
      "Ġsaltenv": 8697,
      "ĠAWS": 8698,
      "answer": 8699,
      "Ġchecked": 8700,
      "Ġworks": 8701,
      "transcript": 8702,
      "MSG": 8703,
      "Ġassignment": 8704,
      "Ġmacro": 8705,
      "ï¼Į": 8706,
      "Vari": 8707,
      "Ġ\":": 8708,
      "('=": 8709,
      "ellow": 8710,
      "authorization": 8711,
      "Ġcorpus": 8712,
      "06": 8713,
      "DP": 8714,
      "Jo": 8715,
      "Ġlab": 8716,
      "Ġpillar": 8717,
      "Ġinfile": 8718,
      "Ġdummy": 8719,
      "Ġthing": 8720,
      "occur": 8721,
      "ĠTask": 8722,
      "ĠAB": 8723,
      "Ġcallbacks": 8724,
      "observation": 8725,
      "lexer": 8726,
      "Ġancest": 8727,
      "paired": 8728,
      "Ġmade": 8729,
      "ĠAb": 8730,
      "Ġ\\'{": 8731,
      "ĠEnvironment": 8732,
      "Ġfunctools": 8733,
      "ailability": 8734,
      "(.*": 8735,
      "76": 8736,
      "PRI": 8737,
      "fwd": 8738,
      "uc": 8739,
      "Ġproduce": 8740,
      "Ġpreserve": 8741,
      "ĠGET": 8742,
      "Fore": 8743,
      "restart": 8744,
      "Ġnan": 8745,
      "Ġtheme": 8746,
      "confir": 8747,
      "Ġ{}.": 8748,
      "Ġans": 8749,
      "Ġlistener": 8750,
      "fileno": 8751,
      "Ġsuitable": 8752,
      "Ġmasked": 8753,
      "ProcessError": 8754,
      "HOME": 8755,
      "Ġarticle": 8756,
      "Ġexactly": 8757,
      "wsgi": 8758,
      "{}\\": 8759,
      "startup": 8760,
      "ĠFil": 8761,
      "Ġgeneric": 8762,
      "chains": 8763,
      "*',": 8764,
      "=[\"": 8765,
      "health": 8766,
      "scroll": 8767,
      "pagin": 8768,
      "population": 8769,
      "crease": 8770,
      "antiate": 8771,
      "Ġclosest": 8772,
      "ĠIterable": 8773,
      "31": 8774,
      "fopen": 8775,
      "needed": 8776,
      "UNI": 8777,
      "Ġdifference": 8778,
      "Bound": 8779,
      "FE": 8780,
      "Ġful": 8781,
      "Ġrecipient": 8782,
      "scaling": 8783,
      "Ġcertain": 8784,
      "Memory": 8785,
      "hd": 8786,
      "king": 8787,
      "='%": 8788,
      "ĠDataset": 8789,
      "alert": 8790,
      "ĠĠĠĠĠĠĠĠĠĠĠĠĠĠĠĠĠĠĠĠĠĠĠĠĠĠĠĠĠĠĠĠĠĠĠĠĠĠĠĠĠĠĠĠĠĠĠĠĠĠĠĠĠĠĠĠĠĠĠ": 8791,
      "Ġxpath": 8792,
      "stringutils": 8793,
      "Ġnonce": 8794,
      "Ġgrouped": 8795,
      "Ġ\\'%": 8796,
      "stributions": 8797,
      "pressure": 8798,
      "Ġrendered": 8799,
      "Ġinitialized": 8800,
      "constructor": 8801,
      "nectivity": 8802,
      "uli": 8803,
      "Ġtup": 8804,
      "Ġeff": 8805,
      "Ġworld": 8806,
      "percentile": 8807,
      "Extra": 8808,
      "Ġmodname": 8809,
      "Ġestimate": 8810,
      "ffected": 8811,
      "Ġpieces": 8812,
      "Http": 8813,
      "algo": 8814,
      "Ġdeep": 8815,
      "='.": 8816,
      "usted": 8817,
      "Ġcanonical": 8818,
      "MAIL": 8819,
      "ggers": 8820,
      "got": 8821,
      "ä»": 8822,
      "ĠĠĠĠĠĠĠĠčĊ": 8823,
      "sphere": 8824,
      "argsort": 8825,
      "(\"\")": 8826,
      "calcul": 8827,
      "scales": 8828,
      "folders": 8829,
      "laps": 8830,
      "Ġthree": 8831,
      "life": 8832,
      "Ġoverlay": 8833,
      "ĠProcess": 8834,
      "SCHE": 8835,
      "bd": 8836,
      "bn": 8837,
      "sentences": 8838,
      "ĠJob": 8839,
      "-\\": 8840,
      "gies": 8841,
      "pct": 8842,
      "Ġfits": 8843,
      "rength": 8844,
      "Ġenough": 8845,
      "ĠOther": 8846,
      "TERN": 8847,
      "Ġ\",\".": 8848,
      "Ġobtain": 8849,
      "Assign": 8850,
      "=('": 8851,
      "Sort": 8852,
      "Virtual": 8853,
      "Ġred": 8854,
      "Ġpc": 8855,
      "Ġindic": 8856,
      "thro": 8857,
      "Ġchecking": 8858,
      "={\"": 8859,
      "THON": 8860,
      "mutations": 8861,
      "atient": 8862,
      "AIN": 8863,
      "MAC": 8864,
      "]]:": 8865,
      "nom": 8866,
      "lets": 8867,
      "Ġbb": 8868,
      "ERY": 8869,
      "registration": 8870,
      "DIRECT": 8871,
      "needs": 8872,
      "aN": 8873,
      "holders": 8874,
      "arrow": 8875,
      "otor": 8876,
      "Ġmemo": 8877,
      "Ġtrying": 8878,
      "Ġroll": 8879,
      "continue": 8880,
      "Encoder": 8881,
      "AGES": 8882,
      "Ġexecutor": 8883,
      "FACT": 8884,
      "Last": 8885,
      "xmin": 8886,
      "setText": 8887,
      "loglevel": 8888,
      "trunk": 8889,
      "readable": 8890,
      "([[": 8891,
      "Ġzer": 8892,
      "expired": 8893,
      "Password": 8894,
      "Dump": 8895,
      "Ġcnt": 8896,
      "Ġna": 8897,
      "rich": 8898,
      "['__": 8899,
      "Ġll": 8900,
      "todo": 8901,
      "Ġbelow": 8902,
      "Expression": 8903,
      "INET": 8904,
      "mods": 8905,
      "directories": 8906,
      "BER": 8907,
      "Like": 8908,
      "yy": 8909,
      "\")):": 8910,
      "ĠClass": 8911,
      "aligned": 8912,
      "YANGListType": 8913,
      "Ġplane": 8914,
      "Ġke": 8915,
      "ĠSyn": 8916,
      "TypeId": 8917,
      "Ġformatting": 8918,
      "Ġincludes": 8919,
      "NODE": 8920,
      "Mod": 8921,
      "PM": 8922,
      "Sim": 8923,
      "oo": 8924,
      "Ġpat": 8925,
      "ssib": 8926,
      "lying": 8927,
      "tests": 8928,
      "Ġphone": 8929,
      ">')": 8930,
      "oct": 8931,
      "roi": 8932,
      "\":\"": 8933,
      "fullname": 8934,
      "Ġcleaned": 8935,
      "Ġestimator": 8936,
      "Ġprobability": 8937,
      "Double": 8938,
      "vnetwork": 8939,
      "decay": 8940,
      "pow": 8941,
      "Ġcolour": 8942,
      "001": 8943,
      "ĠGP": 8944,
      "Ġextracted": 8945,
      "Datetime": 8946,
      "deployment": 8947,
      "mbolic": 8948,
      ">%": 8949,
      "_\"": 8950,
      "meas": 8951,
      "Ġnick": 8952,
      "Ġprt": 8953,
      "compact": 8954,
      "Ġ90": 8955,
      "'re": 8956,
      ",:]": 8957,
      "vx": 8958,
      "recent": 8959,
      "onom": 8960,
      "encrypt": 8961,
      "Ġrelevant": 8962,
      "Ġsg": 8963,
      "Ġbam": 8964,
      "taint": 8965,
      "Ġsever": 8966,
      "Ġoutdir": 8967,
      "ĠAS": 8968,
      "Ġattempts": 8969,
      "ITH": 8970,
      "Fields": 8971,
      "Ġseparate": 8972,
      "Ġexamples": 8973,
      "focus": 8974,
      "Pe": 8975,
      "kg": 8976,
      "Ġimt": 8977,
      "Ġcm": 8978,
      "Ġear": 8979,
      "Ġbalance": 8980,
      "chart": 8981,
      "Ġnotes": 8982,
      "Rece": 8983,
      "artbeat": 8984,
      "filer": 8985,
      "Namespace": 8986,
      "tempting": 8987,
      "Ġfigsize": 8988,
      "Part": 8989,
      "Simple": 8990,
      "ertificate": 8991,
      "Ġir": 8992,
      "dem": 8993,
      "Ġ';": 8994,
      "conj": 8995,
      "ĠPol": 8996,
      "Properties": 8997,
      "authentication": 8998,
      "Ġvim": 8999,
      "organ": 9000,
      "legacy": 9001,
      "Ġnotify": 9002,
      "]].": 9003,
      "fontsize": 9004,
      "recipe": 9005,
      "Ġpep": 9006,
      "rome": 9007,
      "unlink": 9008,
      "upy": 9009,
      "Ġstrategy": 9010,
      "locs": 9011,
      "ANT": 9012,
      "subj": 9013,
      "Domain": 9014,
      "Ġ128": 9015,
      "REGEX": 9016,
      "CCESS": 9017,
      "Down": 9018,
      "decrypt": 9019,
      "Ġtt": 9020,
      "utter": 9021,
      "gether": 9022,
      "\")]": 9023,
      "configured": 9024,
      "ĠCSV": 9025,
      "Segment": 9026,
      "Ġ'_'": 9027,
      "Tags": 9028,
      "bond": 9029,
      "ĠCur": 9030,
      "Ġunion": 9031,
      "Loop": 9032,
      "polygon": 9033,
      "Ġtransp": 9034,
      "fetchall": 9035,
      "Serialize": 9036,
      "Ġpalette": 9037,
      "Ġ\"[": 9038,
      "ĠMan": 9039,
      "Objects": 9040,
      "Ġorientation": 9041,
      "physical": 9042,
      "Lvl": 9043,
      "Ġreload": 9044,
      "confirm": 9045,
      "reading": 9046,
      "Ġnumer": 9047,
      "NAMES": 9048,
      "Nodes": 9049,
      "DULE": 9050,
      "LANGU": 9051,
      "Go": 9052,
      "eta": 9053,
      "gres": 9054,
      "Ġblank": 9055,
      "='\\": 9056,
      "Integer": 9057,
      "subscribe": 9058,
      "Ġflask": 9059,
      "}\\'": 9060,
      "identifiers": 9061,
      "MD": 9062,
      "pem": 9063,
      "assessment": 9064,
      "Ġgt": 9065,
      "Ġcause": 9066,
      "queues": 9067,
      "samp": 9068,
      "Ġpartitions": 9069,
      "instrument": 9070,
      "ratic": 9071,
      "Ġ\".\"": 9072,
      "verb": 9073,
      "Ġdesign": 9074,
      "Ġreceive": 9075,
      "TemporaryFile": 9076,
      "bel": 9077,
      "confidence": 9078,
      "Ġleaf": 9079,
      "------": 9080,
      "Ġnetloc": 9081,
      "Ġwriting": 9082,
      "38": 9083,
      "Writer": 9084,
      "]/": 9085,
      "evalu": 9086,
      "silent": 9087,
      "Ġmagnitude": 9088,
      "IND": 9089,
      "Selection": 9090,
      "Prepare": 9091,
      "decla": 9092,
      "ĠConfiguration": 9093,
      "RT": 9094,
      "bc": 9095,
      "Ġtm": 9096,
      "ancy": 9097,
      "lips": 9098,
      "Ġ</": 9099,
      "Ġretcode": 9100,
      "Seq": 9101,
      "km": 9102,
      "lp": 9103,
      "illa": 9104,
      "ipy": 9105,
      "checker": 9106,
      "duplicates": 9107,
      "Ġrestore": 9108,
      "Ġele": 9109,
      "posix": 9110,
      "Ġcomparison": 9111,
      "community": 9112,
      "bling": 9113,
      "ĠParameter": 9114,
      "ITE": 9115,
      "]|": 9116,
      "desired": 9117,
      "Ġremainder": 9118,
      "photo": 9119,
      "cale": 9120,
      "certs": 9121,
      "clause": 9122,
      "Ġembedding": 9123,
      "%%": 9124,
      "Custom": 9125,
      "GROUP": 9126,
      "gence": 9127,
      "uv": 9128,
      "}`": 9129,
      "ĠON": 9130,
      "stroke": 9131,
      "abi": 9132,
      "checked": 9133,
      "LIC": 9134,
      "Ġartist": 9135,
      "CHECK": 9136,
      "Red": 9137,
      "dit": 9138,
      "Ġcancel": 9139,
      "serts": 9140,
      "igrate": 9141,
      "litude": 9142,
      "Ġfastq": 9143,
      "BL": 9144,
      "each": 9145,
      "conver": 9146,
      "Ġ14": 9147,
      "Ġvo": 9148,
      "Ġunexpected": 9149,
      "Ġhashes": 9150,
      "Ġinterp": 9151,
      "swap": 9152,
      "Performs": 9153,
      "Append": 9154,
      "ĠIPv": 9155,
      ")].": 9156,
      "secho": 9157,
      "Ġcontig": 9158,
      "ighest": 9159,
      "predictions": 9160,
      "][-": 9161,
      "Dest": 9162,
      "FIL": 9163,
      "estimate": 9164,
      "Ġlaunch": 9165,
      "ygons": 9166,
      "IGNO": 9167,
      "onymous": 9168,
      "LABEL": 9169,
      "?\\": 9170,
      "NN": 9171,
      "OFF": 9172,
      "ospf": 9173,
      "tumor": 9174,
      "ticklabels": 9175,
      "fallback": 9176,
      "hop": 9177,
      "ko": 9178,
      "nado": 9179,
      "Ġmav": 9180,
      "ORTED": 9181,
      "Ġcheckpoint": 9182,
      "epsilon": 9183,
      "kb": 9184,
      "Ġspecs": 9185,
      "Ġsupports": 9186,
      "Lookup": 9187,
      "Ġscaling": 9188,
      "LIMIT": 9189,
      "cube": 9190,
      "pandas": 9191,
      "Ġins": 9192,
      "ĠSign": 9193,
      "ĠCan": 9194,
      "jected": 9195,
      "conflict": 9196,
      "modname": 9197,
      "Ġsplits": 9198,
      "PROTO": 9199,
      "voltage": 9200,
      "CONTENT": 9201,
      "payment": 9202,
      "blast": 9203,
      "deli": 9204,
      "idle": 9205,
      "ulari": 9206,
      "maker": 9207,
      "Ġdecla": 9208,
      "ĠLine": 9209,
      "Ġvertical": 9210,
      "Ġiterations": 9211,
      "countered": 9212,
      "Ġtrial": 9213,
      "Ġdistances": 9214,
      "Skipping": 9215,
      "GHT": 9216,
      "Space": 9217,
      "XX": 9218,
      "Ġgrp": 9219,
      "Ġpainter": 9220,
      "Ġ25": 9221,
      "{}_": 9222,
      "ENCE": 9223,
      "Bucket": 9224,
      "fb": 9225,
      "Ġff": 9226,
      "preprocess": 9227,
      "{}.": 9228,
      "Segments": 9229,
      "ĠVi": 9230,
      "Ġextras": 9231,
      "Ġsending": 9232,
      "ĠQtCore": 9233,
      "('.')[": 9234,
      "Ġdownloaded": 9235,
      ",\\": 9236,
      "Sec": 9237,
      "eye": 9238,
      "uz": 9239,
      "Ġincoming": 9240,
      "spark": 9241,
      "spatial": 9242,
      "Ġdigit": 9243,
      "ripts": 9244,
      "moment": 9245,
      "calendar": 9246,
      "Setting": 9247,
      "waiting": 9248,
      "symlink": 9249,
      "/{}'.": 9250,
      "Used": 9251,
      "Ġhier": 9252,
      "addHandler": 9253,
      "others": 9254,
      "Ġfinish": 9255,
      "Loading": 9256,
      "capture": 9257,
      "Ġcleanup": 9258,
      "Ġoptimizer": 9259,
      "ĠNumber": 9260,
      "allenge": 9261,
      "])):": 9262,
      "Ġthumbnail": 9263,
      "Ġobjs": 9264,
      "ĠCallable": 9265,
      "Mag": 9266,
      "mongo": 9267,
      "Ġtot": 9268,
      "='')": 9269,
      "Exists": 9270,
      "Ġcompiled": 9271,
      "Ġ360": 9272,
      "schemas": 9273,
      "snapshots": 9274,
      "Ġflush": 9275,
      "45": 9276,
      "SG": 9277,
      "dscp": 9278,
      "lm": 9279,
      "cope": 9280,
      "policies": 9281,
      "Ġgetter": 9282,
      "Ġaccounts": 9283,
      "Ġupgrade": 9284,
      "grant": 9285,
      "Analy": 9286,
      "probability": 9287,
      "combined": 9288,
      "Multiple": 9289,
      "cdf": 9290,
      "mil": 9291,
      "repe": 9292,
      "Ġmgr": 9293,
      "mouse": 9294,
      "ATT": 9295,
      "Attempt": 9296,
      "Ġmappings": 9297,
      "SPE": 9298,
      "ske": 9299,
      "inverse": 9300,
      "Ġfcoe": 9301,
      "tabs": 9302,
      "ĠAll": 9303,
      "{}`": 9304,
      "transformer": 9305,
      "ĠAddress": 9306,
      "Step": 9307,
      "TAG": 9308,
      "adata": 9309,
      "Ġot": 9310,
      "Ġ[('": 9311,
      "heading": 9312,
      "Ġcmds": 9313,
      "generators": 9314,
      "whitelist": 9315,
      "Ġcart": 9316,
      "quis": 9317,
      "Ġpars": 9318,
      "episode": 9319,
      "linux": 9320,
      "ĠGo": 9321,
      "Enter": 9322,
      "ARCH": 9323,
      "Ġones": 9324,
      "reqs": 9325,
      "Ġcompletion": 9326,
      "overrides": 9327,
      "Ġdegrees": 9328,
      "tainty": 9329,
      "72": 9330,
      "ingle": 9331,
      "Ġcoverage": 9332,
      "pubkey": 9333,
      "ĠStringIO": 9334,
      ">{": 9335,
      "MULTI": 9336,
      "Zone": 9337,
      "rtype": 9338,
      "ulus": 9339,
      "Ġpaired": 9340,
      "\"]),": 9341,
      "compression": 9342,
      "ĠNe": 9343,
      "ĠFL": 9344,
      "Setup": 9345,
      "Ġhandling": 9346,
      "void": 9347,
      "dummy": 9348,
      "relu": 9349,
      "profiles": 9350,
      "Ġ[]:": 9351,
      "gos": 9352,
      "qa": 9353,
      "tier": 9354,
      "Ġstill": 9355,
      "strand": 9356,
      "ĠSchema": 9357,
      "ĠFe": 9358,
      "Debug": 9359,
      "exponent": 9360,
      "See": 9361,
      "Ġsessions": 9362,
      "networks": 9363,
      "while": 9364,
      "Ġoccurred": 9365,
      "ĠOnly": 9366,
      "Util": 9367,
      "preferred": 9368,
      "timestamps": 9369,
      "capit": 9370,
      "HTTPError": 9371,
      "SyntaxError": 9372,
      "Email": 9373,
      "xp": 9374,
      "urlopen": 9375,
      "Ġymin": 9376,
      "ĠMapping": 9377,
      "ĠBo": 9378,
      "ĠVersion": 9379,
      "Ġallows": 9380,
      "]\\": 9381,
      "land": 9382,
      "Ġ'|": 9383,
      "Named": 9384,
      "authors": 9385,
      "titles": 9386,
      "good": 9387,
      "languages": 9388,
      "venience": 9389,
      "SETTING": 9390,
      "Random": 9391,
      "Take": 9392,
      "cks": 9393,
      "Ġexcluded": 9394,
      "ippet": 9395,
      "fromtimestamp": 9396,
      "Star": 9397,
      "Diff": 9398,
      "MAIN": 9399,
      "Ġevaluation": 9400,
      "purpose": 9401,
      "Basic": 9402,
      "Global": 9403,
      "tigs": 9404,
      "colour": 9405,
      "StringIO": 9406,
      "ĠBuild": 9407,
      "Ġallele": 9408,
      "hp": 9409,
      "Ġeq": 9410,
      "covery": 9411,
      "Ġvmax": 9412,
      "Ġwhose": 9413,
      "summ": 9414,
      "Ġsky": 9415,
      "META": 9416,
      "Ġ[{'": 9417,
      "Ġcalculation": 9418,
      "Ġinstrument": 9419,
      "Ġ''),": 9420,
      "Ġsoft": 9421,
      "Ġdead": 9422,
[...]
