{
  "version": "1.0",
  "truncation": null,
  "padding": null,
  "added_tokens": [
    {
      "id": 0,
      "content": "<PAD>",
      "single_word": false,
      "lstrip": false,
      "rstrip": false,
      "normalized": false,
      "special": true
    },
    {
      "id": 1,
      "content": "<SOS>",
      "single_word": false,
      "lstrip": false,
      "rstrip": false,
      "normalized": false,
      "special": true
    },
    {
      "id": 2,
      "content": "<EOS>",
      "single_word": false,
      "lstrip": false,
      "rstrip": false,
      "normalized": false,
      "special": true
    },
    {
      "id": 3,
      "content": "<UNK>",
      "single_word": false,
      "lstrip": false,
      "rstrip": false,
      "normalized": false,
      "special": true
    }
  ],
  "normalizer": null,
  "pre_tokenizer": {
    "type": "ByteLevel",
    "add_prefix_space": false,
    "trim_offsets": true,
    "use_regex": true
  },
  "post_processor": null,
  "decoder": null,
  "model": {
    "type": "BPE",
    "dropout": null,
    "unk_token": "<UNK>",
    "continuing_subword_prefix": null,
    "end_of_word_suffix": null,
    "fuse_unk": false,
    "byte_fallback": false,
    "ignore_merges": false,
    "vocab": {
      "<PAD>": 0,
      "<SOS>": 1,
      "<EOS>": 2,
      "<UNK>": 3,
      "!": 4,
      "\"": 5,
      "#": 6,
      "$": 7,
      "%": 8,
      "&": 9,
      "'": 10,
      "(": 11,
      ")": 12,
      "*": 13,
      "+": 14,
      ",": 15,
      "-": 16,
      ".": 17,
      "/": 18,
      "0": 19,
      "1": 20,
      "2": 21,
      "3": 22,
      "4": 23,
      "5": 24,
      "6": 25,
      "7": 26,
      "8": 27,
      "9": 28,
      ":": 29,
      ";": 30,
      "<": 31,
      "=": 32,
      ">": 33,
      "?": 34,
      "@": 35,
      "A": 36,
      "B": 37,
      "C": 38,
      "D": 39,
      "E": 40,
      "F": 41,
      "G": 42,
      "H": 43,
      "I": 44,
      "J": 45,
      "K": 46,
      "L": 47,
      "M": 48,
      "N": 49,
      "O": 50,
      "P": 51,
      "Q": 52,
      "R": 53,
      "S": 54,
      "T": 55,
      "U": 56,
      "V": 57,
      "W": 58,
      "X": 59,
      "Y": 60,
      "Z": 61,
      "[": 62,
      "\\": 63,
      "]": 64,
      "^": 65,
      "_": 66,
      "`": 67,
      "a": 68,
      "b": 69,
      "c": 70,
      "d": 71,
      "e": 72,
      "f": 73,
      "g": 74,
      "h": 75,
      "i": 76,
      "j": 77,
      "k": 78,
      "l": 79,
      "m": 80,
      "n": 81,
      "o": 82,
      "p": 83,
      "q": 84,
      "r": 85,
      "s": 86,
      "t": 87,
      "u": 88,
      "v": 89,
      "w": 90,
      "x": 91,
      "y": 92,
      "z": 93,
      "{": 94,
      "|": 95,
      "}": 96,
      "~": 97,
      "¡": 98,
      "¢": 99,
      "£": 100,
      "¤": 101,
      "¥": 102,
      "¦": 103,
      "§": 104,
      "¨": 105,
      "©": 106,
      "ª": 107,
      "«": 108,
      "¬": 109,
      "®": 110,
      "¯": 111,
      "°": 112,
      "±": 113,
      "²": 114,
      "³": 115,
      "´": 116,
      "µ": 117,
      "¶": 118,
      "·": 119,
      "¸": 120,
      "¹": 121,
      "º": 122,
      "»": 123,
      "¼": 124,
      "½": 125,
      "¾": 126,
      "¿": 127,
      "Â": 128,
      "Ã": 129,
      "Ä": 130,
      "Å": 131,
      "Æ": 132,
      "Ç": 133,
      "È": 134,
      "É": 135,
      "Ê": 136,
      "Ë": 137,
      "Ì": 138,
      "Î": 139,
      "Ï": 140,
      "Ð": 141,
      "Ñ": 142,
      "Ó": 143,
      "Ô": 144,
      "Õ": 145,
      "Ö": 146,
      "×": 147,
      "Ø": 148,
      "Ù": 149,
      "Ú": 150,
      "Û": 151,
      "à": 152,
      "á": 153,
      "â": 154,
      "ã": 155,
      "ä": 156,
      "å": 157,
      "æ": 158,
      "ç": 159,
      "è": 160,
      "é": 161,
      "ê": 162,
      "ë": 163,
      "ì": 164,
      "í": 165,
      "ï": 166,
      "ð": 167,
      "ā": 168,
      "Ă": 169,
      "ă": 170,
      "Ą": 171,
      "ĉ": 172,
      "Ċ": 173,
      "č": 174,
      "Ē": 175,
      "ě": 176,
      "ğ": 177,
      "Ġ": 178,
      "Ģ": 179,
      "ģ": 180,
      "Ĥ": 181,
      "ĥ": 182,
      "Ħ": 183,
      "ħ": 184,
      "Ĩ": 185,
      "ĩ": 186,
      "Ī": 187,
      "ī": 188,
      "Ĭ": 189,
      "ĭ": 190,
      "Į": 191,
      "į": 192,
      "İ": 193,
      "ı": 194,
      "Ĳ": 195,
      "ĳ": 196,
      "Ĵ": 197,
      "ĵ": 198,
      "Ķ": 199,
      "ķ": 200,
      "ĸ": 201,
      "Ĺ": 202,
      "ĺ": 203,
      "Ļ": 204,
      "ļ": 205,
      "Ľ": 206,
      "ľ": 207,
      "Ŀ": 208,
      "ŀ": 209,
      "Ł": 210,
      "ł": 211,
      "Ń": 212,
      "ĠĠ": 213,
      "ĠĠĠĠ": 214,
      "čĊ": 215,
      "ĠĠĠ": 216,
      "ĠĠĠĠĠĠĠ": 217,
      "se": 218,
      "re": 219,
      "in": 220,
      "on": 221,
      "at": 222,
      "Ġt": 223,
      "ĠĠĠĠĠĠĠĠ": 224,
      "er": 225,
      "or": 226,
      "st": 227,
      "Ġa": 228,
      "en": 229,
      "\"\"": 230,
      "de": 231,
      "he": 232,
      "Ġi": 233,
      "Ġ=": 234,
      "le": 235,
      "ar": 236,
      "Ġf": 237,
      "ĠĠĠĠĠĠĠĠĠĠĠ": 238,
      "me": 239,
      "al": 240,
      "Ġc": 241,
      "lf": 242,
      "self": 243,
      "Ġre": 244,
      "ur": 245,
      "ion": 246,
      "Ġthe": 247,
      "Ġp": 248,
      "ct": 249,
      "it": 250,
      "Ġin": 251,
      "Ġo": 252,
      "ce": 253,
      "an": 254,
      "Ġn": 255,
      "et": 256,
      "ro": 257,
      "Ġs": 258,
      "urn": 259,
      "\"\"\"": 260,
      "Ġself": 261,
      "ame": 262,
      "):": 263,
      "ing": 264,
      "ue": 265,
      "Ġe": 266,
      "ut": 267,
      "Ġif": 268,
      "ent": 269,
      "Ġ\"\"\"": 270,
      "Ġd": 271,
      "lo": 272,
      "Ġb": 273,
      "turn": 274,
      "ate": 275,
      "li": 276,
      "pe": 277,
      "Ġ'": 278,
      "ss": 279,
      "fi": 280,
      "def": 281,
      "Ġw": 282,
      "Ġto": 283,
      "un": 284,
      "Ġreturn": 285,
      "Ġm": 286,
      "ĠĠĠĠĠĠĠĠĠĠĠĠĠĠĠĠ": 287,
      "Ġfor": 288,
      "ot": 289,
      "id": 290,
      "ra": 291,
      "ed": 292,
      "co": 293,
      "ad": 294,
      "ĠĠĠĠĠĠĠĠĠĠĠĠĠĠĠ": 295,
      "--": 296,
      "Ġan": 297,
      "Ġof": 298,
      "val": 299,
      "am": 300,
      "Ġis": 301,
      "es": 302,
      "pt": 303,
      "Ġ:": 304,
      "la": 305,
      "Ġst": 306,
      "one": 307,
      "ul": 308,
      "ata": 309,
      "ck": 310,
      "get": 311,
      "ri": 312,
      "ch": 313,
      "()": 314,
      "ag": 315,
      "ype": 316,
      "um": 317,
      "Ġ(": 318,
      "is": 319,
      "name": 320,
      "._": 321,
      "il": 322,
      "ter": 323,
      "ex": 324,
      "None": 325,
      "ke": 326,
      "Ġ#": 327,
      "Ġse": 328,
      "ation": 329,
      "up": 330,
      "par": 331,
      "ĠT": 332,
      "ath": 333,
      "el": 334,
      "Ġco": 335,
      "ver": 336,
      "di": 337,
      "Ġcon": 338,
      "ect": 339,
      "value": 340,
      "th": 341,
      "Ġnot": 342,
      "as": 343,
      "gs": 344,
      "Ġand": 345,
      "mp": 346,
      "Ġth": 347,
      "Ġ\"": 348,
      "Ġex": 349,
      "con": 350,
      "',": 351,
      "ction": 352,
      "ult": 353,
      "key": 354,
      "))": 355,
      "ap": 356,
      "Ġg": 357,
      "('": 358,
      "ser": 359,
      "Ġh": 360,
      "ble": 361,
      "ror": 362,
      "list": 363,
      "ode": 364,
      "Ġfi": 365,
      "type": 366,
      "ve": 367,
      "bj": 368,
      "Ġl": 369,
      "age": 370,
      "ith": 371,
      "ol": 372,
      "rom": 373,
      "orm": 374,
      "od": 375,
      "['": 376,
      "end": 377,
      "']": 378,
      "param": 379,
      "ĠNone": 380,
      "and": 381,
      "ext": 382,
      "Ġu": 383,
      "ime": 384,
      "sp": 385,
      "em": 386,
      "to": 387,
      "Ġor": 388,
      "int": 389,
      "ment": 390,
      "ĠA": 391,
      "Ġ_": 392,
      "path": 393,
      "vi": 394,
      "Ġdi": 395,
      "Ġde": 396,
      "Ġbe": 397,
      "ort": 398,
      "qu": 399,
      "ption": 400,
      "ĠR": 401,
      "Ġme": 402,
      "Ġlo": 403,
      "set": 404,
      "Ġstr": 405,
      "iz": 406,
      "args": 407,
      "Ġdata": 408,
      "nt": 409,
      "')": 410,
      "----": 411,
      "able": 412,
      "form": 413,
      "all": 414,
      "``": 415,
      "Ġvalue": 416,
      "Ġ*": 417,
      "str": 418,
      "ĠI": 419,
      "ig": 420,
      "ance": 421,
      "Ġname": 422,
      "Ġ+": 423,
      "':": 424,
      "ise": 425,
      "file": 426,
      "Ġas": 427,
      "que": 428,
      "Ġfrom": 429,
      "eturn": 430,
      "Ġ{": 431,
      "Ġwith": 432,
      "po": 433,
      "Ġel": 434,
      "ĠC": 435,
      "Ġ[": 436,
      "bject": 437,
      "ĠS": 438,
      "ĠĠĠĠĠĠĠĠĠĠĠĠĠĠĠĠĠĠĠ": 439,
      "data": 440,
      "Ġr": 441,
      "Ġelse": 442,
      "rror": 443,
      "per": 444,
      "(\"": 445,
      "Ġfile": 446,
      "Ġpro": 447,
      "Error": 448,
      "ub": 449,
      "Ġpar": 450,
      "ack": 451,
      "Ġal": 452,
      "ist": 453,
      "ry": 454,
      "put": 455,
      "ase": 456,
      "Ġ%": 457,
      "Ġ-": 458,
      "ord": 459,
      "rue": 460,
      "ew": 461,
      "ta": 462,
      "fig": 463,
      "stance": 464,
      "Ġ1": 465,
      "che": 466,
      "Ġar": 467,
      "Ġres": 468,
      "Ġit": 469,
      "Ġlist": 470,
      "ma": 471,
      "res": 472,
      "Ġra": 473,
      "ine": 474,
      "att": 475,
      "ĠP": 476,
      "us": 477,
      "Ġv": 478,
      "ic": 479,
      "Ġ==": 480,
      "ččĊ": 481,
      "quest": 482,
      "ly": 483,
      "ang": 484,
      "ĠĠĠĠĠ": 485,
      "pro": 486,
      "ci": 487,
      "iv": 488,
      "ĠF": 489,
      "ow": 490,
      "ers": 491,
      "out": 492,
      "te": 493,
      "kw": 494,
      "fo": 495,
      "red": 496,
      "eld": 497,
      "app": 498,
      "our": 499,
      "ize": 500,
      "Ġon": 501,
      "Ġkey": 502,
      "Ġ0": 503,
      "Ġraise": 504,
      "alse": 505,
      "lass": 506,
      "art": 507,
      "\",": 508,
      "),": 509,
      "kwargs": 510,
      "rent": 511,
      "Ġget": 512,
      "Ġdef": 513,
      "unt": 514,
      "ĠE": 515,
      "format": 516,
      "Ġthis": 517,
      "ource": 518,
      "url": 519,
      "ure": 520,
      "sion": 521,
      "reate": 522,
      "ĠThe": 523,
      "''": 524,
      "Ġthat": 525,
      "text": 526,
      "Ġch": 527,
      "code": 528,
      "ault": 529,
      "eturns": 530,
      "\")": 531,
      "Ġobject": 532,
      "date": 533,
      "mm": 534,
      "Ġby": 535,
      "dex": 536,
      "ĠD": 537,
      "Ġy": 538,
      "py": 539,
      "cess": 540,
      "ht": 541,
      "dd": 542,
      "Ġset": 543,
      "ind": 544,
      "thod": 545,
      "Ġwh": 546,
      "im": 547,
      "sc": 548,
      "pre": 549,
      "sh": 550,
      "sed": 551,
      "Ġlog": 552,
      "Ġout": 553,
      "ls": 554,
      "Ġexce": 555,
      "Ġma": 556,
      ">>": 557,
      "unction": 558,
      "Ġ`": 559,
      "und": 560,
      "ff": 561,
      "ĠĠĠĠĠĠĠĠĠĠĠĠĠĠĠĠĠĠĠĠĠĠĠĠĠĠĠĠĠĠĠĠ": 562,
      "lement": 563,
      "amp": 564,
      "Ġ``": 565,
      "error": 566,
      "atch": 567,
      "Ġpo": 568,
      "iven": 569,
      "spon": 570,
      "ray": 571,
      "Ġpa": 572,
      "ip": 573,
      "])": 574,
      "Ġx": 575,
      "ug": 576,
      "ran": 577,
      "ary": 578,
      "Ġpath": 579,
      "jo": 580,
      "ute": 581,
      "add": 582,
      "ameter": 583,
      "Ġstring": 584,
      "Ġen": 585,
      "ory": 586,
      "Ġall": 587,
      "Ġresult": 588,
      "Ġlen": 589,
      "ity": 590,
      "ssion": 591,
      "ile": 592,
      "Ġdo": 593,
      "len": 594,
      "ition": 595,
      "read": 596,
      "ument": 597,
      "rit": 598,
      "return": 599,
      "Ġnew": 600,
      "ace": 601,
      "ive": 602,
      "ule": 603,
      "Ġtype": 604,
      "Ġ'''": 605,
      "vice": 606,
      "Ġ**": 607,
      "rib": 608,
      "der": 609,
      "ust": 610,
      "..": 611,
      "Ġgiven": 612,
      "vent": 613,
      "Ġro": 614,
      "ho": 615,
      "instance": 616,
      "ill": 617,
      "ssage": 618,
      "ber": 619,
      ").": 620,
      "ca": 621,
      "ĠN": 622,
      "append": 623,
      "Ġtry": 624,
      "Ġtime": 625,
      "roup": 626,
      "__": 627,
      "odel": 628,
      "sponse": 629,
      "time": 630,
      "Ġnum": 631,
      "valid": 632,
      "om": 633,
      "ĠTrue": 634,
      "low": 635,
      "dict": 636,
      "Ġexcept": 637,
      "ator": 638,
      "op": 639,
      "00": 640,
      "Ġhe": 641,
      "ery": 642,
      "ild": 643,
      "version": 644,
      "class": 645,
      "port": 646,
      "Ġrequest": 647,
      "bo": 648,
      "],": 649,
      "='": 650,
      "Ġpre": 651,
      "Ġmethod": 652,
      "mo": 653,
      "info": 654,
      "ĠM": 655,
      "ĠV": 656,
      "ger": 657,
      "Ġcol": 658,
      "Ġun": 659,
      "Ġspe": 660,
      "Ġ2": 661,
      "ĠReturns": 662,
      "attr": 663,
      "ign": 664,
      "ari": 665,
      "Ġare": 666,
      "ĠU": 667,
      "tain": 668,
      "config": 669,
      "ork": 670,
      "Ġfunction": 671,
      "ded": 672,
      "load": 673,
      "cation": 674,
      "ĠG": 675,
      "col": 676,
      "dir": 677,
      "rap": 678,
      "log": 679,
      "rect": 680,
      "ener": 681,
      "Re": 682,
      "ken": 683,
      "son": 684,
      "tent": 685,
      "Ġuser": 686,
      "rint": 687,
      "ĠL": 688,
      "ated": 689,
      "ange": 690,
      "nect": 691,
      "urrent": 692,
      "act": 693,
      "In": 694,
      "heck": 695,
      "lif": 696,
      "update": 697,
      "Con": 698,
      "Ġap": 699,
      "Ġid": 700,
      "True": 701,
      "Ġ{}": 702,
      "lay": 703,
      "pa": 704,
      "lock": 705,
      "Ġ<": 706,
      "query": 707,
      "ĠO": 708,
      "mmand": 709,
      "item": 710,
      "Ġconfig": 711,
      "ample": 712,
      ".\"\"\"": 713,
      "json": 714,
      "ok": 715,
      "Ġelif": 716,
      "Ġ)": 717,
      "if": 718,
      ":`": 719,
      "back": 720,
      "ask": 721,
      "lient": 722,
      "Ġhas": 723,
      "Ġwill": 724,
      "ĠFalse": 725,
      "Ġisinstance": 726,
      "Ġos": 727,
      "Ġwe": 728,
      "ĠIf": 729,
      "rans": 730,
      "Ġcomp": 731,
      "ren": 732,
      "ameters": 733,
      "Ġspeci": 734,
      "Ġint": 735,
      "Ġadd": 736,
      "ave": 737,
      "lit": 738,
      "'.": 739,
      "ore": 740,
      "():": 741,
      "ant": 742,
      ".__": 743,
      "gument": 744,
      "Ġdict": 745,
      "\":": 746,
      "string": 747,
      "ge": 748,
      "ĠĠĠĠĠĠĠĠĠĠĠĠĠĠĠĠĠĠĠĠĠĠĠ": 749,
      "ies": 750,
      "uth": 751,
      "cl": 752,
      "fe": 753,
      "ps": 754,
      "Ġfil": 755,
      "ys": 756,
      "ĠĠĠĠĠĠĠĠĠĠĠĠĠĠĠĠĠĠĠĠĠĠĠĠ": 757,
      "ns": 758,
      "lab": 759,
      "rite": 760,
      "alue": 761,
      "Ġdefault": 762,
      "atus": 763,
      "Ġnp": 764,
      "Ġform": 765,
      "ial": 766,
      "his": 767,
      "Ġnode": 768,
      "join": 769,
      "ptions": 770,
      "tra": 771,
      "ces": 772,
      "vert": 773,
      "False": 774,
      "os": 775,
      "base": 776,
      "ifi": 777,
      "ec": 778,
      "size": 779,
      "Ġsub": 780,
      "Ġk": 781,
      "min": 782,
      "do": 783,
      "odule": 784,
      "line": 785,
      "ON": 786,
      "ms": 787,
      "count": 788,
      "arget": 789,
      "Ġbo": 790,
      "ĠB": 791,
      "yn": 792,
      "start": 793,
      "ER": 794,
      "Ġ----": 795,
      "Ġcall": 796,
      "ress": 797,
      "Ġitem": 798,
      "num": 799,
      "ther": 800,
      "ĠW": 801,
      "ir": 802,
      "Ġresponse": 803,
      "word": 804,
      "ates": 805,
      "Ġinstance": 806,
      "Ġfield": 807,
      "unc": 808,
      "[\"": 809,
      "tt": 810,
      "Ġspecifi": 811,
      "index": 812,
      "Ġsh": 813,
      "Ġ[]": 814,
      "ard": 815,
      "cal": 816,
      "Ġte": 817,
      "user": 818,
      "label": 819,
      "Ġline": 820,
      "ml": 821,
      "Ġimp": 822,
      "nd": 823,
      "ape": 824,
      "ann": 825,
      "Get": 826,
      "Ġoutput": 827,
      "node": 828,
      "cord": 829,
      "own": 830,
      "ĉĉ": 831,
      "Ġvalues": 832,
      "Ġ>>": 833,
      "uld": 834,
      "Ġser": 835,
      "Return": 836,
      "loat": 837,
      "Ġso": 838,
      "Ġprint": 839,
      "obj": 840,
      "Ex": 841,
      "Ġcurrent": 842,
      "Ġle": 843,
      "ĠH": 844,
      "fix": 845,
      "St": 846,
      "comp": 847,
      "Ġ>": 848,
      "ab": 849,
      "ĠEx": 850,
      "Ġret": 851,
      "ses": 852,
      "by": 853,
      "qui": 854,
      "attrib": 855,
      "uct": 856,
      "ĠThis": 857,
      "ader": 858,
      "Ġerror": 859,
      "lin": 860,
      "ings": 861,
      "Ġ>>>": 862,
      "Ġat": 863,
      "ree": 864,
      "uple": 865,
      "point": 866,
      "array": 867,
      "ception": 868,
      "'s": 869,
      "arch": 870,
      "Ġ+=": 871,
      "ep": 872,
      "scri": 873,
      "Ġli": 874,
      "request": 875,
      "ĠĠĠĠĠĠ": 876,
      "ĠAr": 877,
      "Ġac": 878,
      "Ġ/": 879,
      "gth": 880,
      "rame": 881,
      "lete": 882,
      "\"]": 883,
      "ll": 884,
      "ject": 885,
      "==": 886,
      "ac": 887,
      "mit": 888,
      "lace": 889,
      "Ġstart": 890,
      "ariable": 891,
      "bug": 892,
      "\".": 893,
      "Ġcontain": 894,
      "cs": 895,
      "Ġne": 896,
      "ĠValue": 897,
      "Ġmessage": 898,
      "Ġurl": 899,
      "Ġkwargs": 900,
      "wa": 901,
      "field": 902,
      "ron": 903,
      "Ġindex": 904,
      "IN": 905,
      "pos": 906,
      "work": 907,
      "Ġbase": 908,
      "Ġargs": 909,
      "group": 910,
      "md": 911,
      "ich": 912,
      "Ġno": 913,
      "Ġcan": 914,
      "Ġreg": 915,
      "AT": 916,
      "ĠĠĠĠĠĠĠĠĠ": 917,
      "split": 918,
      "sert": 919,
      "lic": 920,
      "Ġcreate": 921,
      "vel": 922,
      "tern": 923,
      "Ġinput": 924,
      "mpl": 925,
      "bu": 926,
      "ST": 927,
      "Ġim": 928,
      "ence": 929,
      "=\"": 930,
      "Ġparam": 931,
      "Ġuse": 932,
      "sing": 933,
      "ound": 934,
      "led": 935,
      "Ġcheck": 936,
      "ĠValueError": 937,
      "params": 938,
      "ight": 939,
      "cur": 940,
      "pen": 941,
      "from": 942,
      "da": 943,
      "map": 944,
      "Ġnumber": 945,
      "].": 946,
      "sent": 947,
      "og": 948,
      "Ġinto": 949,
      "Ġtext": 950,
      "sub": 951,
      "Ġevent": 952,
      "ream": 953,
      "mb": 954,
      "call": 955,
      "{}": 956,
      "object": 957,
      "ull": 958,
      "nection": 959,
      "Ġmodel": 960,
      "rst": 961,
      "lect": 962,
      "ach": 963,
      "Ġapp": 964,
      "Ġend": 965,
      "ude": 966,
      "state": 967,
      "Ġent": 968,
      "())": 969,
      "Ġwhich": 970,
      "Ġversion": 971,
      "Ġbu": 972,
      "ils": 973,
      "RE": 974,
      "tes": 975,
      "ak": 976,
      "Ġpass": 977,
      "space": 978,
      "we": 979,
      "pi": 980,
      "values": 981,
      "ding": 982,
      "ler": 983,
      "Returns": 984,
      "ations": 985,
      "Ġ!": 986,
      "Ġquery": 987,
      "com": 988,
      "ote": 989,
      "reg": 990,
      "result": 991,
      "ĠPar": 992,
      "ost": 993,
      "ield": 994,
      "Ġarray": 995,
      "ages": 996,
      "ts": 997,
      "raph": 998,
      "Ġimport": 999,
      "Ġexist": 1000,
      "Ġspecified": 1001,
      "Ġvalid": 1002,
      "Ġ!=": 1003,
      "Ġstate": 1004,
      "default": 1005,
      "ĠIn": 1006,
      "for": 1007,
      "Ġargument": 1008,
      "items": 1009,
      "Set": 1010,
      "pert": 1011,
      "Ġused": 1012,
      "place": 1013,
      "Ġone": 1014,
      "so": 1015,
      "Ġcode": 1016,
      "Co": 1017,
      "debug": 1018,
      "ds": 1019,
      "last": 1020,
      "cket": 1021,
      "Ġmax": 1022,
      "Ġdirect": 1023,
      "Ġcommand": 1024,
      "with": 1025,
      "andle": 1026,
      "ĠArgs": 1027,
      "write": 1028,
      "max": 1029,
      "arn": 1030,
      "Ġcal": 1031,
      "its": 1032,
      "ename": 1033,
      "Ġper": 1034,
      "ctionary": 1035,
      "'):": 1036,
      "Ġlin": 1037,
      "Ġsu": 1038,
      "Ġz": 1039,
      "Ġclass": 1040,
      "Ġ..": 1041,
      "view": 1042,
      "thon": 1043,
      "ature": 1044,
      "Ġ@": 1045,
      "Ġ}": 1046,
      "Ġelement": 1047,
      "Ġformat": 1048,
      "Ġdis": 1049,
      "Ġrun": 1050,
      "([": 1051,
      "action": 1052,
      "ally": 1053,
      "ension": 1054,
      "Ġcontent": 1055,
      "Ġread": 1056,
      "mplate": 1057,
      "ptional": 1058,
      "Type": 1059,
      "row": 1060,
      "Ġsup": 1061,
      "Ġ3": 1062,
      "hould": 1063,
      "inter": 1064,
      "**": 1065,
      "Ġca": 1066,
      "Ġ\\": 1067,
      "aders": 1068,
      "pect": 1069,
      "move": 1070,
      "utes": 1071,
      "umn": 1072,
      "adata": 1073,
      "lename": 1074,
      "Par": 1075,
      "token": 1076,
      "sor": 1077,
      "Ġmatch": 1078,
      "tri": 1079,
      "Ġcont": 1080,
      "yst": 1081,
      "'t": 1082,
      "Ġ--------": 1083,
      "Ġattrib": 1084,
      "lable": 1085,
      "Ġinter": 1086,
      "api": 1087,
      "Ġup": 1088,
      "Ġpy": 1089,
      "Ġparams": 1090,
      "uration": 1091,
      "ph": 1092,
      "model": 1093,
      "func": 1094,
      "filename": 1095,
      "status": 1096,
      "etime": 1097,
      "Ġany": 1098,
      "//": 1099,
      "face": 1100,
      "Ġshould": 1101,
      "Ke": 1102,
      "PI": 1103,
      "lection": 1104,
      "run": 1105,
      "De": 1106,
      "Ġtarget": 1107,
      "Ġsource": 1108,
      "Ġj": 1109,
      "ystem": 1110,
      "ax": 1111,
      "let": 1112,
      "Ġmust": 1113,
      "lob": 1114,
      "Ġlogger": 1115,
      "Ġonly": 1116,
      "Ġfiles": 1117,
      "Ġgroup": 1118,
      "Ġrange": 1119,
      "feren": 1120,
      "Ġrow": 1121,
      "LE": 1122,
      "keys": 1123,
      "ast": 1124,
      "atetime": 1125,
      "parse": 1126,
      "Ġfilename": 1127,
      "job": 1128,
      "Ġsp": 1129,
      "Ġtrans": 1130,
      "Ġother": 1131,
      "main": 1132,
      "Ġfloat": 1133,
      "Ġtable": 1134,
      "Ġdictionary": 1135,
      "alt": 1136,
      "Ġ->": 1137,
      "Ġtoken": 1138,
      "ched": 1139,
      "andler": 1140,
      "Ġeach": 1141,
      "Ġupdate": 1142,
      "Ġtuple": 1143,
      "Ġ|": 1144,
      "Ġmat": 1145,
      "Ġvariable": 1146,
      "ID": 1147,
      "pts": 1148,
      "Ġwhe": 1149,
      "Ġreturns": 1150,
      "fil": 1151,
      "ref": 1152,
      "lat": 1153,
      "Create": 1154,
      "ix": 1155,
      "annel": 1156,
      "Ġhave": 1157,
      "tadata": 1158,
      "message": 1159,
      "://": 1160,
      "ments": 1161,
      "ody": 1162,
      "lot": 1163,
      "[:": 1164,
      "ME": 1165,
      "Ġtag": 1166,
      "create": 1167,
      "ail": 1168,
      "tings": 1169,
      "tag": 1170,
      "Pro": 1171,
      "ĠCon": 1172,
      "Ġusing": 1173,
      "Key": 1174,
      "av": 1175,
      "ĠParameters": 1176,
      "client": 1177,
      "ors": 1178,
      "method": 1179,
      "ash": 1180,
      "Ġwhen": 1181,
      "Name": 1182,
      "Ġcontext": 1183,
      "response": 1184,
      "check": 1185,
      "().": 1186,
      "output": 1187,
      "ries": 1188,
      "ou": 1189,
      "rip": 1190,
      "Ġdoc": 1191,
      "ution": 1192,
      "Ġmin": 1193,
      "Ġover": 1194,
      "rtype": 1195,
      "itle": 1196,
      "Ġobj": 1197,
      "ĠRe": 1198,
      "block": 1199,
      "content": 1200,
      "no": 1201,
      "ain": 1202,
      "OR": 1203,
      "ai": 1204,
      "01": 1205,
      "event": 1206,
      "::": 1207,
      "Ġresource": 1208,
      "'],": 1209,
      "df": 1210,
      "Ġgener": 1211,
      "Ġopen": 1212,
      "clude": 1213,
      "cls": 1214,
      "ark": 1215,
      "lib": 1216,
      "Ġjson": 1217,
      "rial": 1218,
      "ft": 1219,
      "ĠJ": 1220,
      "shape": 1221,
      "ual": 1222,
      "names": 1223,
      "process": 1224,
      "AN": 1225,
      "host": 1226,
      "not": 1227,
      "arg": 1228,
      "etwork": 1229,
      "Ġmodule": 1230,
      "Ġfirst": 1231,
      "idth": 1232,
      "sg": 1233,
      "ous": 1234,
      "Ġfound": 1235,
      "Ġimage": 1236,
      "mi": 1237,
      "Ġsize": 1238,
      "lug": 1239,
      "filter": 1240,
      "Ġpos": 1241,
      "ging": 1242,
      "table": 1243,
      "pack": 1244,
      "sum": 1245,
      "module": 1246,
      "ite": 1247,
      "source": 1248,
      "scription": 1249,
      "htt": 1250,
      "DE": 1251,
      "Data": 1252,
      "types": 1253,
      "(),": 1254,
      "Ġbool": 1255,
      "Ġ----------": 1256,
      "Id": 1257,
      "ide": 1258,
      "cre": 1259,
      "input": 1260,
      "present": 1261,
      "iter": 1262,
      "lean": 1263,
      "ĠX": 1264,
      "clo": 1265,
      "Ġtra": 1266,
      "Ġclient": 1267,
      "itial": 1268,
      "new": 1269,
      "ync": 1270,
      "Ġpoint": 1271,
      "Ġcls": 1272,
      "Add": 1273,
      "Ġext": 1274,
      "Ġpart": 1275,
      "Ġ{'": 1276,
      "Ġdefin": 1277,
      "Ġax": 1278,
      "db": 1279,
      "rig": 1280,
      "imp": 1281,
      "spe": 1282,
      "mode": 1283,
      "Se": 1284,
      "raw": 1285,
      "Ġparent": 1286,
      "`.": 1287,
      "Ġcor": 1288,
      "ids": 1289,
      "chema": 1290,
      "auth": 1291,
      "Ġass": 1292,
      "gra": 1293,
      "ped": 1294,
      "Ġpack": 1295,
      "Ġwork": 1296,
      "Res": 1297,
      "Ġrecord": 1298,
      "context": 1299,
      "ference": 1300,
      "Ġlabel": 1301,
      "ong": 1302,
      "Ġauth": 1303,
      "ches": 1304,
      "((": 1305,
      "quence": 1306,
      "rc": 1307,
      "Ġservice": 1308,
      "onent": 1309,
      "Ġiter": 1310,
      "ume": 1311,
      "session": 1312,
      "ical": 1313,
      "Ġfilter": 1314,
      "ized": 1315,
      "Ġab": 1316,
      "Ġyield": 1317,
      "use": 1318,
      "ay": 1319,
      "Ġdoes": 1320,
      "queue": 1321,
      "Ġsign": 1322,
      "Ġdirectory": 1323,
      "rix": 1324,
      "inal": 1325,
      "'])": 1326,
      "ĠĠĠĠĠĠĠĠĠĠĠĠĠĠĠĠĠĠĠĠĠĠĠĠĠĠĠ": 1327,
      "Ġserver": 1328,
      "entifi": 1329,
      "Ġblock": 1330,
      "command": 1331,
      "msg": 1332,
      "her": 1333,
      "files": 1334,
      "formation": 1335,
      "pend": 1336,
      "pop": 1337,
      "Ġmode": 1338,
      "Ġmo": 1339,
      "Element": 1340,
      "quired": 1341,
      "Ġ__": 1342,
      "dis": 1343,
      "ible": 1344,
      "Ġact": 1345,
      "ĠDe": 1346,
      "List": 1347,
      "unk": 1348,
      "cy": 1349,
      "mt": 1350,
      "ne": 1351,
      "Ġhost": 1352,
      "Ġmsg": 1353,
      "np": 1354,
      "Ġbut": 1355,
      "SE": 1356,
      "RL": 1357,
      "Ġrepresent": 1358,
      "rid": 1359,
      "Ġinst": 1360,
      "cul": 1361,
      "Ġprocess": 1362,
      "AL": 1363,
      "ify": 1364,
      "viron": 1365,
      "Ġstatus": 1366,
      "Ġarguments": 1367,
      "Ġoptions": 1368,
      "ures": 1369,
      "][": 1370,
      "play": 1371,
      "old": 1372,
      "Ġsort": 1373,
      "AR": 1374,
      "Ġsession": 1375,
      "ĠID": 1376,
      "ormal": 1377,
      "Ġuni": 1378,
      "Ġaction": 1379,
      "Lo": 1380,
      "Ġsc": 1381,
      "ĠY": 1382,
      "andom": 1383,
      "off": 1384,
      "trans": 1385,
      "iled": 1386,
      "Ġtask": 1387,
      "Ġparameters": 1388,
      "cor": 1389,
      "xy": 1390,
      "resh": 1391,
      "ĠReturn": 1392,
      "pr": 1393,
      "ccess": 1394,
      "utils": 1395,
      "Ġav": 1396,
      "Ġassert": 1397,
      "target": 1398,
      "Ġfe": 1399,
      "find": 1400,
      "ins": 1401,
      "ld": 1402,
      ")))": 1403,
      "tract": 1404,
      "---": 1405,
      "Ġoper": 1406,
      "indow": 1407,
      "Ġresults": 1408,
      "Ġcontin": 1409,
      "umns": 1410,
      "amb": 1411,
      "]:": 1412,
      "Ġcur": 1413,
      "pty": 1414,
      "Ġcount": 1415,
      "struct": 1416,
      "Ġ4": 1417,
      "anag": 1418,
      "pri": 1419,
      "Ġpri": 1420,
      "match": 1421,
      "Ġcallback": 1422,
      "core": 1423,
      "ĠQ": 1424,
      "amples": 1425,
      "tx": 1426,
      "ister": 1427,
      "var": 1428,
      "Ġnames": 1429,
      "gn": 1430,
      "Ġload": 1431,
      "ats": 1432,
      "doc": 1433,
      "length": 1434,
      "Ġoff": 1435,
      "resource": 1436,
      "err": 1437,
      "uri": 1438,
      "rie": 1439,
      "ud": 1440,
      "link": 1441,
      "Ġwhile": 1442,
      "Ġback": 1443,
      "be": 1444,
      "TE": 1445,
      "Ġlength": 1446,
      "File": 1447,
      "Ġval": 1448,
      "level": 1449,
      "ises": 1450,
      "io": 1451,
      "TP": 1452,
      "ating": 1453,
      "direct": 1454,
      "part": 1455,
      "ĠException": 1456,
      "Ġport": 1457,
      "ready": 1458,
      "Ġorder": 1459,
      "cent": 1460,
      "Ġhtt": 1461,
      "ĠĠĠĠĠĠĠĠĠĠ": 1462,
      "are": 1463,
      "Ġkeys": 1464,
      "options": 1465,
      "Ġqu": 1466,
      "Ġprovi": 1467,
      "coding": 1468,
      "Ġchild": 1469,
      "root": 1470,
      "Ġmap": 1471,
      "cate": 1472,
      "Ġthen": 1473,
      "stamp": 1474,
      "Ġcontinue": 1475,
      "Ġproject": 1476,
      "layer": 1477,
      "Ġconnection": 1478,
      "Ġdevice": 1479,
      "Ġobjects": 1480,
      "Un": 1481,
      "(*": 1482,
      "lication": 1483,
      "las": 1484,
      "Ġchar": 1485,
      "fore": 1486,
      "ĠGet": 1487,
      "ĠSt": 1488,
      "of": 1489,
      "Ġsing": 1490,
      "ML": 1491,
      "ambda": 1492,
      "Ġpropert": 1493,
      "ved": 1494,
      "ailable": 1495,
      "comm": 1496,
      "ĠčĊ": 1497,
      "swith": 1498,
      "cmd": 1499,
      "Ġwas": 1500,
      "cache": 1501,
      "ĠSe": 1502,
      "fter": 1503,
      "ake": 1504,
      "sign": 1505,
      "Ġparse": 1506,
      "Ġlast": 1507,
      "les": 1508,
      "Ġver": 1509,
      "attern": 1510,
      "Ġpage": 1511,
      "parent": 1512,
      "returns": 1513,
      "Ġits": 1514,
      "contain": 1515,
      "number": 1516,
      "strip": 1517,
      "Ġcolumn": 1518,
      "rt": 1519,
      "Ġinformation": 1520,
      "ffer": 1521,
      "replace": 1522,
      "TI": 1523,
      "http": 1524,
      "'))": 1525,
      "Ġad": 1526,
      "Ġarg": 1527,
      "PE": 1528,
      "ert": 1529,
      "ailed": 1530,
      "Ġparameter": 1531,
      "image": 1532,
      "current": 1533,
      "====": 1534,
      "mat": 1535,
      "reak": 1536,
      "server": 1537,
      "arning": 1538,
      "float": 1539,
      "hel": 1540,
      "Ġparser": 1541,
      "Ġ--": 1542,
      "Check": 1543,
      "Ġ.": 1544,
      "anager": 1545,
      "Ġ-------": 1546,
      "uto": 1547,
      "Ġtimeout": 1548,
      "Ġheader": 1549,
      "Ġstream": 1550,
      "ization": 1551,
      "frame": 1552,
      "su": 1553,
      "vid": 1554,
      "cond": 1555,
      "lease": 1556,
      "Ġattribute": 1557,
      "address": 1558,
      "ĠĠĠĠĠĠĠĠčĊ": 1559,
      "Ġjob": 1560,
      "Ġsys": 1561,
      "entifier": 1562,
      "ick": 1563,
      "Ġdate": 1564,
      "SON": 1565,
      "older": 1566,
      "Ġmult": 1567,
      "env": 1568,
      "Ġindi": 1569,
      "Ġbytes": 1570,
      "ĠAPI": 1571,
      "Ġreturned": 1572,
      "service": 1573,
      "Ġfind": 1574,
      "wise": 1575,
      "Ġentry": 1576,
      "Ġheaders": 1577,
      "Ġinfo": 1578,
      "Ġbet": 1579,
      "mission": 1580,
      "ĠCo": 1581,
      "Ġsingle": 1582,
      "yload": 1583,
      "Ġed": 1584,
      "Ġroot": 1585,
      "Ġtemplate": 1586,
      "ecute": 1587,
      "pdate": 1588,
      "lines": 1589,
      "ternal": 1590,
      "prefix": 1591,
      "itions": 1592,
      "Ġ['": 1593,
      "store": 1594,
      "lan": 1595,
      "Ar": 1596,
      "Ġnext": 1597,
      "copy": 1598,
      "AC": 1599,
      "Ġyou": 1600,
      "Ġmake": 1601,
      "callback": 1602,
      ")]": 1603,
      "iss": 1604,
      "Ġfields": 1605,
      "idget": 1606,
      "right": 1607,
      "Ġvi": 1608,
      "Ġoptional": 1609,
      "lobal": 1610,
      "Sub": 1611,
      "ib": 1612,
      "GE": 1613,
      "encode": 1614,
      "wait": 1615,
      "Ġconfiguration": 1616,
      "Ġtw": 1617,
      "Ġag": 1618,
      "function": 1619,
      "Ġhasattr": 1620,
      "idx": 1621,
      "apping": 1622,
      "child": 1623,
      "emo": 1624,
      "ĠType": 1625,
      "bro": 1626,
      "Ġq": 1627,
      "fields": 1628,
      "ĠAn": 1629,
      "Ser": 1630,
      "Ġaddress": 1631,
      "Ġlocal": 1632,
      "open": 1633,
      "To": 1634,
      "Ġalready": 1635,
      "task": 1636,
      "yle": 1637,
      "64": 1638,
      "send": 1639,
      "conds": 1640,
      "stream": 1641,
      "Ġthread": 1642,
      "Ġconvert": 1643,
      "Exception": 1644,
      "Ġsame": 1645,
      "ĠĠĠĠĠĠĠĠĠĠĠĠ": 1646,
      "vis": 1647,
      "element": 1648,
      "Ġlogging": 1649,
      "Ġcmd": 1650,
      "exist": 1651,
      "print": 1652,
      "top": 1653,
      "ring": 1654,
      "est": 1655,
      "connect": 1656,
      "ome": 1657,
      "Ġitems": 1658,
      "LI": 1659,
      "ell": 1660,
      "lower": 1661,
      "ning": 1662,
      "TTP": 1663,
      "Ġwhere": 1664,
      "search": 1665,
      "ĠKey": 1666,
      "Ġcache": 1667,
      "ĠET": 1668,
      "ative": 1669,
      "script": 1670,
      "uid": 1671,
      "pass": 1672,
      "Ġsy": 1673,
      "Ġpas": 1674,
      "##": 1675,
      "Ġ('": 1676,
      "'),": 1677,
      "10": 1678,
      "ols": 1679,
      "Ġsearch": 1680,
      "ector": 1681,
      "ose": 1682,
      "Ġneed": 1683,
      "net": 1684,
      "ves": 1685,
      "Ġprefix": 1686,
      "})": 1687,
      "Ġinte": 1688,
      "Ġdocument": 1689,
      "ustom": 1690,
      "FI": 1691,
      "imum": 1692,
      "order": 1693,
      "limit": 1694,
      "Ġsalt": 1695,
      "Ġnamespace": 1696,
      ")):": 1697,
      "[-": 1698,
      "container": 1699,
      "Ġbody": 1700,
      "Ġfla": 1701,
      "header": 1702,
      "EN": 1703,
      "mote": 1704,
      "Ġmetadata": 1705,
      "Ġallow": 1706,
      "Ġcontaining": 1707,
      "Ġfunc": 1708,
      "ĠPy": 1709,
      "ĠSet": 1710,
      "Ġdatetime": 1711,
      "Ġbased": 1712,
      "ensor": 1713,
      "project": 1714,
      "Ġapi": 1715,
      "Ġattr": 1716,
      "Ġprovided": 1717,
      "SS": 1718,
      "Ġhel": 1719,
      "Ġdatabase": 1720,
      "Ġlink": 1721,
      "Ġcom": 1722,
      "Ġref": 1723,
      "Ġcase": 1724,
      "``.": 1725,
      "igh": 1726,
      "Convert": 1727,
      "ween": 1728,
      "exp": 1729,
      "Ġ...": 1730,
      "LO": 1731,
      "mary": 1732,
      "Ġlevel": 1733,
      "RO": 1734,
      "Value": 1735,
      "The": 1736,
      "ĠĠĠĠĠĠĠĠĠĠĠĠĠ": 1737,
      "Ġsupport": 1738,
      "},": 1739,
      "itor": 1740,
      "remove": 1741,
      "etch": 1742,
      "Ġlines": 1743,
      "Ġdel": 1744,
      "Ġlimit": 1745,
      "gener": 1746,
      "req": 1747,
      "(_": 1748,
      "Ġ'.": 1749,
      "Ġdiff": 1750,
      "Ġpassed": 1751,
      "post": 1752,
      "record": 1753,
      "Ġbreak": 1754,
      "annot": 1755,
      "Ġwrap": 1756,
      "html": 1757,
      "ner": 1758,
      "Ġoffset": 1759,
      "Comp": 1760,
      "Ġcalled": 1761,
      "title": 1762,
      "Ġavailable": 1763,
      "Ġremove": 1764,
      "lugin": 1765,
      "DO": 1766,
      "cope": 1767,
      "like": 1768,
      "lation": 1769,
      "handle": 1770,
      "ownload": 1771,
      "du": 1772,
      "Ġexp": 1773,
      "Di": 1774,
      "range": 1775,
      "hash": 1776,
      "orage": 1777,
      "close": 1778,
      "Ġcopy": 1779,
      "ob": 1780,
      "Ġsend": 1781,
      "ĠURL": 1782,
      "bytes": 1783,
      "Ġorig": 1784,
      "width": 1785,
      "Ġclo": 1786,
      "dim": 1787,
      "pp": 1788,
      "Ġcolor": 1789,
      "Ġstruct": 1790,
      "serial": 1791,
      "build": 1792,
      "32": 1793,
      "Ġlocation": 1794,
      "Ġgetattr": 1795,
      "ting": 1796,
      "fault": 1797,
      "Ġwrite": 1798,
      "cade": 1799,
      "ency": 1800,
      "--------": 1801,
      "Ġshape": 1802,
      "Ġdb": 1803,
      "ĠCreate": 1804,
      "Ġnumpy": 1805,
      "cept": 1806,
      "pected": 1807,
      "mpty": 1808,
      "Ġsome": 1809,
      "ice": 1810,
      "local": 1811,
      "headers": 1812,
      "Ġmore": 1813,
      "ĠJSON": 1814,
      "({": 1815,
      "Ġcomm": 1816,
      "Ġthere": 1817,
      "color": 1818,
      "ass": 1819,
      "Ġtest": 1820,
      "connection": 1821,
      "Ġcoord": 1822,
      "delete": 1823,
      "ility": 1824,
      "page": 1825,
      "flow": 1826,
      "Ġaxis": 1827,
      "cli": 1828,
      "dout": 1829,
      "datetime": 1830,
      "xml": 1831,
      "Ġbetween": 1832,
      "Ġmem": 1833,
      "ĠAdd": 1834,
      "nown": 1835,
      "ql": 1836,
      "metadata": 1837,
      "']:": 1838,
      "RI": 1839,
      "Ġ'%": 1840,
      "anges": 1841,
      "vironment": 1842,
      "Ġframe": 1843,
      "Ġerrors": 1844,
      "SI": 1845,
      "offset": 1846,
      "...": 1847,
      "sy": 1848,
      "ential": 1849,
      "Ġsettings": 1850,
      "ĠList": 1851,
      "Ġview": 1852,
      "pon": 1853,
      "uni": 1854,
      "Ġenum": 1855,
      "\"):": 1856,
      "Ġdataset": 1857,
      "logger": 1858,
      "pression": 1859,
      "'].": 1860,
      "Ġsequence": 1861,
      "Ġafter": 1862,
      "atic": 1863,
      "Ġgraph": 1864,
      "Ġexists": 1865,
      "box": 1866,
      "Ch": 1867,
      "gment": 1868,
      "section": 1869,
      "Ġpassword": 1870,
      "template": 1871,
      "Ġdest": 1872,
      "Ġraw": 1873,
      "ĠData": 1874,
      "CO": 1875,
      "graph": 1876,
      "Ġchannel": 1877,
      "ugh": 1878,
      "ensions": 1879,
      "Ġnon": 1880,
      "tal": 1881,
      "utf": 1882,
      "Ġlook": 1883,
      "Ġter": 1884,
      "round": 1885,
      "istr": 1886,
      "pth": 1887,
      "Ġdist": 1888,
      "Ġexception": 1889,
      "cry": 1890,
      "ĠUn": 1891,
      "ities": 1892,
      "Ġhandle": 1893,
      "fn": 1894,
      "Ġinclude": 1895,
      "Ġtemp": 1896,
      "olume": 1897,
      "brocade": 1898,
      "Ġsum": 1899,
      "Ġbuild": 1900,
      "atures": 1901,
      "angu": 1902,
      "device": 1903,
      "Ġoption": 1904,
      "loc": 1905,
      "exists": 1906,
      "']['": 1907,
      "Ġattributes": 1908,
      "char": 1909,
      "Ġ5": 1910,
      "settings": 1911,
      "ttrib": 1912,
      "ification": 1913,
      "Ġbot": 1914,
      "oci": 1915,
      "verse": 1916,
      "kip": 1917,
      "Ġtop": 1918,
      "startswith": 1919,
      "Ġtwo": 1920,
      "Ġposition": 1921,
      "ful": 1922,
      "Ġtree": 1923,
      "Ġdf": 1924,
      "Ġword": 1925,
      "Not": 1926,
      "Ġselect": 1927,
      "ĠTypeError": 1928,
      "={": 1929,
      "parser": 1930,
      "Ġrequired": 1931,
      "Ġthan": 1932,
      "Ġfull": 1933,
      "Ġmatrix": 1934,
      "(**": 1935,
      "Gener": 1936,
      "ans": 1937,
      "alid": 1938,
      "channel": 1939,
      "ĠĠĠĠĠĠĠĠĠĠĠĠĠĠĠĠĠĠ": 1940,
      "ĠPro": 1941,
      "init": 1942,
      "gor": 1943,
      "ĠRa": 1944,
      "lear": 1945,
      "Ġbefore": 1946,
      "ait": 1947,
      "argument": 1948,
      "En": 1949,
      "decode": 1950,
      "Ġmay": 1951,
      "Ġsorted": 1952,
      "Ġlib": 1953,
      "inary": 1954,
      "Ġcollection": 1955,
      "ĠĠĠĠĠĠĠĠĠĠĠĠĠĠĠĠĠ": 1956,
      "}'.": 1957,
      "Frame": 1958,
      "any": 1959,
      "Ġhandler": 1960,
      "Read": 1961,
      "timeout": 1962,
      "ular": 1963,
      "cat": 1964,
      "sol": 1965,
      "Ġali": 1966,
      "ssages": 1967,
      "Ġwhether": 1968,
      "ster": 1969,
      "lasses": 1970,
      "vo": 1971,
      "Ġcorre": 1972,
      "gen": 1973,
      "UT": 1974,
      "licy": 1975,
      "Ġcl": 1976,
      "propert": 1977,
      "plot": 1978,
      "abled": 1979,
      "Ġdim": 1980,
      "ination": 1981,
      "Ġtf": 1982,
      "only": 1983,
      "ponse": 1984,
      "entic": 1985,
      "actor": 1986,
      "12": 1987,
      "fer": 1988,
      "Ġinitial": 1989,
      "stra": 1990,
      "go": 1991,
      "Ġbeen": 1992,
      "dum": 1993,
      "ride": 1994,
      "ĠĠĠĠĠĠĠĠĠĠĠĠĠĠĠĠĠĠĠĠĠ": 1995,
      "ush": 1996,
      "pub": 1997,
      "body": 1998,
      "Ġexec": 1999,
      "ript": 2000,
      "spec": 2001,
      "tuple": 2002,
      "ret": 2003,
      "paths": 2004,
      "Ġsection": 2005,
      "Ġnodes": 2006,
      "Ġsystem": 2007,
      "sort": 2008,
      "Ġ>=": 2009,
      "Ġ\"\"": 2010,
      "Ġrequests": 2011,
      "very": 2012,
      "Ġempty": 2013,
      ".')": 2014,
      "ions": 2015,
      "difi": 2016,
      "points": 2017,
      "ĠĠĠĠĠĠĠĠĠĠĠĠĠĠ": 2018,
      "AD": 2019,
      "izer": 2020,
      "alog": 2021,
      "Ġnetwork": 2022,
      "untime": 2023,
      "wrap": 2024,
      "Ġaccess": 2025,
      "uster": 2026,
      "Time": 2027,
      "Ġsuper": 2028,
      "meta": 2029,
      "cho": 2030,
      "cale": 2031,
      "location": 2032,
      "ics": 2033,
      "SubElement": 2034,
      "variable": 2035,
      "ollow": 2036,
      "NA": 2037,
      "Ġpackage": 2038,
      "Ġhash": 2039,
      "del": 2040,
      "tree": 2041,
      "ĠĠĠĠĠĠĠĠĠĠĠĠĠĠĠĠĠĠĠĠ": 2042,
      "Ġdelete": 2043,
      "mem": 2044,
      "ither": 2045,
      "'''": 2046,
      "entry": 2047,
      "UL": 2048,
      "ING": 2049,
      "roll": 2050,
      "Ġdtype": 2051,
      "Ġcomponent": 2052,
      "now": 2053,
      "nodes": 2054,
      ".\")": 2055,
      "fy": 2056,
      "util": 2057,
      "TY": 2058,
      "Ġaccount": 2059,
      "entity": 2060,
      "ward": 2061,
      "pk": 2062,
      "Ġqueue": 2063,
      "bit": 2064,
      "ear": 2065,
      "ĠĠĠĠĠĠĠĠĠĠĠĠĠĠĠĠĠĠĠĠĠĠĠĠĠĠĠĠĠĠĠ": 2066,
      "MA": 2067,
      "Ġ<=": 2068,
      "erate": 2069,
      "Ġold": 2070,
      "quire": 2071,
      "other": 2072,
      "qual": 2073,
      "Ġlike": 2074,
      "side": 2075,
      "test": 2076,
      "tem": 2077,
      "]]": 2078,
      "Ġchunk": 2079,
      "Ġcontainer": 2080,
      "wer": 2081,
      "Update": 2082,
      "Ġpython": 2083,
      "rs": 2084,
      "axis": 2085,
      "oc": 2086,
      "`,": 2087,
      "dist": 2088,
      "Ġschema": 2089,
      "culate": 2090,
      "zer": 2091,
      "mod": 2092,
      "Ġdescription": 2093,
      "sup": 2094,
      "tric": 2095,
      "Ġpub": 2096,
      "mail": 2097,
      "irs": 2098,
      "ĠHTTP": 2099,
      "ttribute": 2100,
      "posit": 2101,
      "org": 2102,
      "Ġcreated": 2103,
      "ĠFor": 2104,
      "tocol": 2105,
      "Col": 2106,
      "cont": 2107,
      "ie": 2108,
      "Ġrandom": 2109,
      "emove": 2110,
      "system": 2111,
      "Ġtitle": 2112,
      "Request": 2113,
      "Ġreference": 2114,
      "anguage": 2115,
      "mark": 2116,
      "Config": 2117,
      "ink": 2118,
      "ĠGener": 2119,
      "gest": 2120,
      "Ġexisting": 2121,
      "Ġsuccess": 2122,
      "my": 2123,
      "Ġpayload": 2124,
      "Ġelements": 2125,
      "ĠĠĠĠčĊ": 2126,
      "Ġdefined": 2127,
      "helper": 2128,
      "riter": 2129,
      "objects": 2130,
      "ANG": 2131,
      "peri": 2132,
      "cies": 2133,
      "Ġnormal": 2134,
      "rieve": 2135,
      "ges": 2136,
      "ants": 2137,
      "iple": 2138,
      "Ġencoding": 2139,
      "Object": 2140,
      "Ġdepend": 2141,
      "fla": 2142,
      "interface": 2143,
      "Ġ&": 2144,
      "ens": 2145,
      "save": 2146,
      "Ġ'/": 2147,
      "anged": 2148,
      "ĠNot": 2149,
      "Ġhttp": 2150,
      "Parse": 2151,
      "mbol": 2152,
      "derr": 2153,
      "Ġenv": 2154,
      "Ġcli": 2155,
      "oper": 2156,
      "dered": 2157,
      "Ġcolumns": 2158,
      "Ġsave": 2159,
      "tails": 2160,
      "Ġtypes": 2161,
      "stack": 2162,
      "conf": 2163,
      "Ġerr": 2164,
      "pc": 2165,
      "Ġinterface": 2166,
      "PO": 2167,
      "ĠĠĠĠĠĠĠĠĠĠĠĠĠĠĠĠĠĠĠĠĠĠĠĠĠ": 2168,
      "ĠĠĠĠĠĠĠĠĠĠĠĠĠĠĠĠĠĠĠĠĠĠ": 2169,
      "Ġph": 2170,
      "handler": 2171,
      "gr": 2172,
      "ont": 2173,
      "Ġserial": 2174,
      "Ġconnect": 2175,
      "itude": 2176,
      "Ġtotal": 2177,
      "Ġhelp": 2178,
      "Ġstop": 2179,
      "Ġ''": 2180,
      "ĠCheck": 2181,
      "Ġcharact": 2182,
      "Ġassoci": 2183,
      "pol": 2184,
      "extra": 2185,
      ":]": 2186,
      "column": 2187,
      "the": 2188,
      "erge": 2189,
      "rol": 2190,
      "rary": 2191,
      "uild": 2192,
      "vate": 2193,
      "defin": 2194,
      "Ġpost": 2195,
      "ĠPython": 2196,
      "bool": 2197,
      "Ġextra": 2198,
      "select": 2199,
      "lambda": 2200,
      "Ġprofile": 2201,
      "fl": 2202,
      "rop": 2203,
      "parameters": 2204,
      "CE": 2205,
      "ĠĠĠĠĠĠĠĠĠĠĠĠĠĠĠĠĠĠĠĠĠĠĠĠĠĠĠĠ": 2206,
      "Ġrule": 2207,
      "Ġ]": 2208,
      "This": 2209,
      "cf": 2210,
      "ĠKeyError": 2211,
      "Ġenumerate": 2212,
      "network": 2213,
      "ling": 2214,
      "over": 2215,
      "Cal": 2216,
      "term": 2217,
      "has": 2218,
      "-+": 2219,
      "nder": 2220,
      "ĠExample": 2221,
      "full": 2222,
      "olean": 2223,
      "she": 2224,
      "Ġob": 2225,
      "Ġkeyword": 2226,
      "Class": 2227,
      "aded": 2228,
      "next": 2229,
      "Ġstrings": 2230,
      "description": 2231,
      "vious": 2232,
      "Ġthem": 2233,
      "Ġrest": 2234,
      "Ġotherwise": 2235,
      "ĠRaises": 2236,
      "redential": 2237,
      "ĠWe": 2238,
      "password": 2239,
      "Ġop": 2240,
      "Ġimplement": 2241,
      "Ġdecor": 2242,
      "opts": 2243,
      "medi": 2244,
      "Ġsample": 2245,
      "Form": 2246,
      "ux": 2247,
      "ank": 2248,
      "Ġmark": 2249,
      "Ġgen": 2250,
      "Ġet": 2251,
      "Item": 2252,
      "ĠTO": 2253,
      "ATE": 2254,
      "Ġspecific": 2255,
      "scrib": 2256,
      "rest": 2257,
      "bose": 2258,
      "000": 2259,
      "show": 2260,
      "CH": 2261,
      "Ġunicode": 2262,
      "25": 2263,
      "Ġcorrespon": 2264,
      "Ġoperation": 2265,
      "async": 2266,
      "Ġfollow": 2267,
      "exc": 2268,
      "ĠLo": 2269,
      "mon": 2270,
      "ĠĠĠĠĠĠĠĠĠĠĠĠĠĠĠĠĠĠĠĠĠĠĠĠĠĠĠĠĠ": 2271,
      "rough": 2272,
      "gram": 2273,
      "mask": 2274,
      "ered": 2275,
      "leted": 2276,
      "Met": 2277,
      "Ġusername": 2278,
      "Ġbound": 2279,
      "Ġwidth": 2280,
      "domain": 2281,
      "Ġvar": 2282,
      "results": 2283,
      "raise": 2284,
      "chron": 2285,
      "UN": 2286,
      "Ġpoints": 2287,
      "Path": 2288,
      "ware": 2289,
      "profile": 2290,
      "ĠK": 2291,
      "Ġinteger": 2292,
      "book": 2293,
      "exception": 2294,
      "idd": 2295,
      "issing": 2296,
      "schema": 2297,
      "cp": 2298,
      "crypt": 2299,
      "essage": 2300,
      "itional": 2301,
      "pository": 2302,
      "duct": 2303,
      "Ġreplace": 2304,
      "seq": 2305,
      "Ġfeature": 2306,
      "ern": 2307,
      "lice": 2308,
      "').": 2309,
      "Ġremote": 2310,
      "Ġregister": 2311,
      "Log": 2312,
      "clu": 2313,
      "Ġrep": 2314,
      "rm": 2315,
      "namespace": 2316,
      "ived": 2317,
      "]))": 2318,
      "access": 2319,
      "afe": 2320,
      "lex": 2321,
      "username": 2322,
      "ynchron": 2323,
      "fs": 2324,
      "coord": 2325,
      "Ġshow": 2326,
      "directory": 2327,
      "No": 2328,
      "Ġvariables": 2329,
      ")[": 2330,
      "Ġproperty": 2331,
      "Ġweight": 2332,
      "Ġ\"%": 2333,
      "ping": 2334,
      "Ġlayer": 2335,
      "Ġvari": 2336,
      "ffix": 2337,
      "ĠDefault": 2338,
      "bar": 2339,
      "unter": 2340,
      "cret": 2341,
      "dtype": 2342,
      "ead": 2343,
      "Ġgo": 2344,
      "Ġcoordin": 2345,
      "LA": 2346,
      "ĠĠĠĠĠĠĠĠĠĠĠĠĠĠĠĠĠĠĠĠĠĠĠĠĠĠ": 2347,
      "active": 2348,
      ":`~": 2349,
      "Ġbatch": 2350,
      "Ġsplit": 2351,
      "ĠRes": 2352,
      "uery": 2353,
      "Ret": 2354,
      "Ġ6": 2355,
      "Ġpattern": 2356,
      "Ġproperties": 2357,
      "MP": 2358,
      "Node": 2359,
      "Run": 2360,
      "Ġpl": 2361,
      "Dict": 2362,
      "valu": 2363,
      "otal": 2364,
      "ek": 2365,
      "Ġdiffe": 2366,
      "Ġrece": 2367,
      "DI": 2368,
      "Ġawait": 2369,
      "Ġlat": 2370,
      "sets": 2371,
      "Ġeither": 2372,
      "istry": 2373,
      "Ġ10": 2374,
      "ĠSee": 2375,
      "Ġalso": 2376,
      "gress": 2377,
      "rule": 2378,
      "actory": 2379,
      "Ġtags": 2380,
      "inst": 2381,
      "Ġbyte": 2382,
      "FA": 2383,
      "ww": 2384,
      "wit": 2385,
      "Ġglobal": 2386,
      "Ġforce": 2387,
      "warning": 2388,
      "Ġxml": 2389,
      "Ġfin": 2390,
      "extend": 2391,
      "-+-+": 2392,
      "vider": 2393,
      "Ġparsed": 2394,
      "stop": 2395,
      "batch": 2396,
      "groups": 2397,
      "zone": 2398,
      "Sh": 2399,
      "gory": 2400,
      "meth": 2401,
      "account": 2402,
      "methods": 2403,
      "ribution": 2404,
      "Ġund": 2405,
      "columns": 2406,
      "ĠDi": 2407,
      "ily": 2408,
      "Ġsent": 2409,
      "Ġidentifier": 2410,
      "Ġwait": 2411,
      "zip": 2412,
      "CT": 2413,
      "Ġremo": 2414,
      "shot": 2415,
      "Ġ'{": 2416,
      "tach": 2417,
      "aml": 2418,
      "ents": 2419,
      "vals": 2420,
      "Ġexc": 2421,
      "ET": 2422,
      "Ġrepresentation": 2423,
      "src": 2424,
      "Invalid": 2425,
      "nap": 2426,
      "akes": 2427,
      "dev": 2428,
      "Ġcontains": 2429,
      "ĠLO": 2430,
      "buffer": 2431,
      "ssible": 2432,
      "ransp": 2433,
      "ton": 2434,
      "alys": 2435,
      "execute": 2436,
      "Ġunique": 2437,
      "ted": 2438,
      "Ġenvironment": 2439,
      "Response": 2440,
      "Ġ8": 2441,
      "Ġconn": 2442,
      "CON": 2443,
      "atter": 2444,
      "Ġdomain": 2445,
      "Ġendpoint": 2446,
      "ipe": 2447,
      "Ġright": 2448,
      "Load": 2449,
      "down": 2450,
      "Ġcustom": 2451,
      "Ġjust": 2452,
      "Ġrows": 2453,
      "16": 2454,
      "tags": 2455,
      "Ġip": 2456,
      "addr": 2457,
      "eps": 2458,
      "Ġidx": 2459,
      "curs": 2460,
      ".\"": 2461,
      "=[": 2462,
      "gine": 2463,
      "python": 2464,
      "String": 2465,
      "Ġzip": 2466,
      "Event": 2467,
      "umber": 2468,
      "Ġassociated": 2469,
      "Po": 2470,
      "sys": 2471,
      "rection": 2472,
      "ĠName": 2473,
      "ĠIt": 2474,
      "weight": 2475,
      "ven": 2476,
      "Ġchange": 2477,
      "Ġrel": 2478,
      "Ġhttps": 2479,
      "try": 2480,
      "NAME": 2481,
      "git": 2482,
      "]['": 2483,
      "pha": 2484,
      "eded": 2485,
      "ged": 2486,
      "TYPE": 2487,
      "Ġwindow": 2488,
      "ithub": 2489,
      "first": 2490,
      "gnore": 2491,
      "lied": 2492,
      "Ġabout": 2493,
      "Ġstore": 2494,
      "make": 2495,
      "Ġunit": 2496,
      "Ġsto": 2497,
      "rel": 2498,
      "Ġ'_": 2499,
      "ators": 2500,
      "option": 2501,
      "olve": 2502,
      "uture": 2503,
      "thing": 2504,
      "Ġthrough": 2505,
      "raises": 2506,
      "Ġind": 2507,
      "Ġplot": 2508,
      "imple": 2509,
      "Ġmask": 2510,
      "models": 2511,
      "Ġresp": 2512,
      "tect": 2513,
      "ince": 2514,
      "Ġgra": 2515,
      "Ġlabels": 2516,
      "Ġwithin": 2517,
      "[:,": 2518,
      "Ġexample": 2519,
      "sca": 2520,
      "Ġextract": 2521,
      "Ġtimestamp": 2522,
      "sid": 2523,
      "ffi": 2524,
      "ä¸": 2525,
      "temp": 2526,
      "until": 2527,
      "indi": 2528,
      "Ġseconds": 2529,
      "proxy": 2530,
      "Ġstep": 2531,
      "ynchronous": 2532,
      "Ġmapping": 2533,
      "wd": 2534,
      "}\".": 2535,
      "orig": 2536,
      "bin": 2537,
      "Ġpaths": 2538,
      "timestamp": 2539,
      "mult": 2540,
      "rate": 2541,
      "Ġmultiple": 2542,
      "style": 2543,
      "delta": 2544,
      "Ġreport": 2545,
      "left": 2546,
      "istory": 2547,
      "ason": 2548,
      "ĉĉĉ": 2549,
      "Ġwant": 2550,
      "ely": 2551,
      "ĠTODO": 2552,
      "river": 2553,
      "manager": 2554,
      "step": 2555,
      "ĠIP": 2556,
      "Ġgenerate": 2557,
      "Ġ'\\": 2558,
      "Ġregion": 2559,
      "random": 2560,
      "0000": 2561,
      "keep": 2562,
      "Ġdisplay": 2563,
      "Ġsignal": 2564,
      "Ġcond": 2565,
      "sv": 2566,
      "An": 2567,
      "Ġsix": 2568,
      "pl": 2569,
      "/{": 2570,
      "fin": 2571,
      "alysis": 2572,
      ")),": 2573,
      "EL": 2574,
      "99": 2575,
      "Ġoriginal": 2576,
      "Ġcontents": 2577,
      "requ": 2578,
      "Ġmatches": 2579,
      "wh": 2580,
      "Ġctx": 2581,
      "Ġexpression": 2582,
      "Ġencode": 2583,
      "Ġpk": 2584,
      "ĠNote": 2585,
      "Ġsocket": 2586,
      "OT": 2587,
      "ĠLOG": 2588,
      "Ġmeta": 2589,
      "dest": 2590,
      "ured": 2591,
      "Ġprevious": 2592,
      "lative": 2593,
      "ranch": 2594,
      "day": 2595,
      "Ġspace": 2596,
      "Ġsee": 2597,
      "pattern": 2598,
      "mage": 2599,
      "sample": 2600,
      "Found": 2601,
      "Ġdir": 2602,
      "chain": 2603,
      "Ġfail": 2604,
      "med": 2605,
      "Text": 2606,
      "Ġcorresponding": 2607,
      "Gets": 2608,
      "stats": 2609,
      "Ġappro": 2610,
      "matrix": 2611,
      "bound": 2612,
      "Ġmon": 2613,
      "man": 2614,
      "diff": 2615,
      "Ġopt": 2616,
      "Ġapplication": 2617,
      "vari": 2618,
      "conn": 2619,
      "change": 2620,
      "Ġrunning": 2621,
      "Ġmatching": 2622,
      "Ġmessages": 2623,
      "comment": 2624,
      "here": 2625,
      "Ġ'-": 2626,
      "Ġloop": 2627,
      "redentials": 2628,
      "mount": 2629,
      "Index": 2630,
      "Ġcursor": 2631,
      "11": 2632,
      "Ġpresent": 2633,
      "Ġevents": 2634,
      "Ġtheir": 2635,
      "andard": 2636,
      "alled": 2637,
      "ĠSer": 2638,
      "Session": 2639,
      "gin": 2640,
      "coder": 2641,
      "ĠTo": 2642,
      "mal": 2643,
      "Ġinstead": 2644,
      "Ġplugin": 2645,
      "NT": 2646,
      "labels": 2647,
      "Client": 2648,
      "way": 2649,
      "Ġfailed": 2650,
      "ias": 2651,
      "stdout": 2652,
      "]):": 2653,
      "rows": 2654,
      "ten": 2655,
      "des": 2656,
      "thread": 2657,
      "ĠAttribute": 2658,
      "__['": 2659,
      "Reg": 2660,
      "Ġdistance": 2661,
      "socket": 2662,
      "encies": 2663,
      "okup": 2664,
      "Valid": 2665,
      "State": 2666,
      "Pre": 2667,
      "Ġyang": 2668,
      "ULT": 2669,
      "ices": 2670,
      "========": 2671,
      "errors": 2672,
      "Ġlambda": 2673,
      "ĠComp": 2674,
      "total": 2675,
      "izes": 2676,
      "Ġignore": 2677,
      "af": 2678,
      "ndarray": 2679,
      "Ġadded": 2680,
      "Ġstack": 2681,
      "Ġemail": 2682,
      "Instance": 2683,
      "IT": 2684,
      "opt": 2685,
      "hed": 2686,
      "ĠĠĠĠĠĠĠĠĠĠĠĠĠĠĠĠĠĠĠĠĠĠĠĠĠĠĠĠĠĠ": 2687,
      "https": 2688,
      "Ġ{}\".": 2689,
      "board": 2690,
      "exec": 2691,
      "Ġnow": 2692,
      "Ġiss": 2693,
      "IO": 2694,
      "mean": 2695,
      "position": 2696,
      "mbers": 2697,
      "Ġthey": 2698,
      "ites": 2699,
      "known": 2700,
      "lem": 2701,
      "Ġfl": 2702,
      "ends": 2703,
      "Ġunder": 2704,
      "Ġdisable": 2705,
      "TION": 2706,
      "rict": 2707,
      "properties": 2708,
      "Find": 2709,
      "ĠOptional": 2710,
      "Ġflag": 2711,
      "cker": 2712,
      "Ġexpected": 2713,
      "Ġsupported": 2714,
      "Ġstructure": 2715,
      "ffect": 2716,
      "latform": 2717,
      "Ġvis": 2718,
      "salt": 2719,
      "tr": 2720,
      "Ġmain": 2721,
      "can": 2722,
      "package": 2723,
      "Creates": 2724,
      "common": 2725,
      "Call": 2726,
      "\\\\": 2727,
      "Ġvalidate": 2728,
      "Ġleft": 2729,
      "az": 2730,
      "normal": 2731,
      "Ġpol": 2732,
      "Per": 2733,
      "``,": 2734,
      "cause": 2735,
      "import": 2736,
      "Ġinvalid": 2737,
      "FF": 2738,
      "Ġ{\"": 2739,
      "Imp": 2740,
      "Ġvector": 2741,
      "DB": 2742,
      "SC": 2743,
      "seconds": 2744,
      "Info": 2745,
      "serialize": 2746,
      "andas": 2747,
      "ik": 2748,
      "Ġmissing": 2749,
      "Ġpossible": 2750,
      "Ġsrc": 2751,
      "height": 2752,
      "Ġus": 2753,
      "ier": 2754,
      "Failed": 2755,
      "napshot": 2756,
      "Ġ\".": 2757,
      "ĠYANG": 2758,
      "true": 2759,
      "ĠCLI": 2760,
      "Ġwithout": 2761,
      "User": 2762,
      "04": 2763,
      "qa": 2764,
      "Ġevery": 2765,
      "Ġmean": 2766,
      "Ġvia": 2767,
      "cast": 2768,
      "component": 2769,
      "Ġmod": 2770,
      "Ġclean": 2771,
      "Process": 2772,
      "unit": 2773,
      "ertifi": 2774,
      "grid": 2775,
      "Ġlong": 2776,
      "Ġpop": 2777,
      "Ġsepar": 2778,
      "bot": 2779,
      "required": 2780,
      "exit": 2781,
      "Ġhere": 2782,
      "au": 2783,
      "Ġdon": 2784,
      "lish": 2785,
      "gorith": 2786,
      "case": 2787,
      "Ġopts": 2788,
      "ian": 2789,
      "attrs": 2790,
      "ilter": 2791,
      "docs": 2792,
      "ĠĠĠĠĠĠĠĠĠĠĠĠĠĠĠĠĠĠĠĠĠĠĠĠĠĠĠĠĠĠĠĠĠĠĠ": 2793,
      "Ġscope": 2794,
      "patch": 2795,
      "Ġ(\"": 2796,
      "classes": 2797,
      "ĠUse": 2798,
      "Ġentity": 2799,
      "Ġroute": 2800,
      "loop": 2801,
      "Ġskip": 2802,
      "Ġ):": 2803,
      "Ġrepresenting": 2804,
      "Ġnote": 2805,
      "GET": 2806,
      "Ġauthor": 2807,
      "Context": 2808,
      "Ġmy": 2809,
      "dataset": 2810,
      "Model": 2811,
      "ared": 2812,
      "Ġseries": 2813,
      "Ġcorrect": 2814,
      "andid": 2815,
      "Ġtransform": 2816,
      "Parser": 2817,
      "email": 2818,
      "trics": 2819,
      "serv": 2820,
      "Ġwrapper": 2821,
      "\"],": 2822,
      "Ġindices": 2823,
      "AB": 2824,
      "Ġwidget": 2825,
      "collection": 2826,
      "gre": 2827,
      "ĠXML": 2828,
      "US": 2829,
      "ero": 2830,
      "Ġnoqa": 2831,
      "Ġcell": 2832,
      "Ġ',": 2833,
      "ences": 2834,
      "validate": 2835,
      "ernel": 2836,
      "actions": 2837,
      "gy": 2838,
      "Ġman": 2839,
      "Ġscript": 2840,
      "Ġatt": 2841,
      "na": 2842,
      "Ġiterable": 2843,
      "'][": 2844,
      "reshold": 2845,
      "Ġtrue": 2846,
      "window": 2847,
      "ango": 2848,
      "Ġpe": 2849,
      "cheme": 2850,
      "'}": 2851,
      "Ġsim": 2852,
      "tmp": 2853,
      "Ġproxy": 2854,
      "By": 2855,
      "stat": 2856,
      "Ġbuffer": 2857,
      "####": 2858,
      "Ġhand": 2859,
      "=(": 2860,
      "GER": 2861,
      "ways": 2862,
      "Ġstat": 2863,
      "Ġ'*": 2864,
      "esc": 2865,
      "Ġagain": 2866,
      "const": 2867,
      "Ġweb": 2868,
      "Ġheight": 2869,
      "FAULT": 2870,
      "KE": 2871,
      "identifier": 2872,
      "plo": 2873,
      "Auth": 2874,
      "Ġge": 2875,
      "pid": 2876,
      "loads": 2877,
      "chunk": 2878,
      "Ġoc": 2879,
      "straint": 2880,
      "Ġwrit": 2881,
      "Ġ[\"": 2882,
      "Ġassign": 2883,
      "istered": 2884,
      "Ġbinary": 2885,
      "DF": 2886,
      "Ġreq": 2887,
      "Ġsecond": 2888,
      "Ġparts": 2889,
      "ctx": 2890,
      "Trans": 2891,
      "Ġtokens": 2892,
      "Ġdoesn": 2893,
      "Ġconf": 2894,
      "Remove": 2895,
      "Ġfn": 2896,
      "URL": 2897,
      "uted": 2898,
      "attributes": 2899,
      "hen": 2900,
      "txt": 2901,
      "warn": 2902,
      "dified": 2903,
      "ĠImp": 2904,
      "ram": 2905,
      "Ġdecorator": 2906,
      "Dis": 2907,
      "Ġtmp": 2908,
      "Ġyour": 2909,
      "ĠAttributeError": 2910,
      "Ġdifferent": 2911,
      "duce": 2912,
      "ulate": 2913,
      "children": 2914,
      "enu": 2915,
      "late": 2916,
      "bers": 2917,
      "repo": 2918,
      "convert": 2919,
      "witch": 2920,
      "hod": 2921,
      "asic": 2922,
      "Ġcallable": 2923,
      "cifi": 2924,
      "optional": 2925,
      "si": 2926,
      "Ġfolder": 2927,
      "eno": 2928,
      "Ġnamed": 2929,
      "Ġsuch": 2930,
      "olution": 2931,
      "dumps": 2932,
      "scale": 2933,
      "Generate": 2934,
      "Ġbeing": 2935,
      "train": 2936,
      "solute": 2937,
      "Message": 2938,
      "hex": 2939,
      "hook": 2940,
      "__,": 2941,
      "cursor": 2942,
      "Ġvolume": 2943,
      "upper": 2944,
      "cut": 2945,
      "('/": 2946,
      "Ġinit": 2947,
      "Ġbucket": 2948,
      "ported": 2949,
      "gorithm": 2950,
      "Ġgenerator": 2951,
      "Ġclick": 2952,
      "Ġcate": 2953,
      "Ġbit": 2954,
      "region": 2955,
      "\"])": 2956,
      "reference": 2957,
      "layers": 2958,
      "aries": 2959,
      "Result": 2960,
      "encoding": 2961,
      "Ġmethods": 2962,
      "ilder": 2963,
      "initial": 2964,
      "Ġfunctions": 2965,
      "Ġstorage": 2966,
      ".,": 2967,
      "empty": 2968,
      "Array": 2969,
      "ump": 2970,
      "Ġdetails": 2971,
      "stderr": 2972,
      "Ġuntil": 2973,
      "Ġspec": 2974,
      "register": 2975,
      "API": 2976,
      "ght": 2977,
      "insert": 2978,
      "Ġcre": 2979,
      "sequence": 2980,
      "Ġrole": 2981,
      "Ġmemory": 2982,
      "parts": 2983,
      "Ġrecords": 2984,
      "depth": 2985,
      "mag": 2986,
      "Ġauthentic": 2987,
      "verage": 2988,
      "Ġsure": 2989,
      "TER": 2990,
      "pare": 2991,
      "SH": 2992,
      "('\\": 2993,
      "Argument": 2994,
      "payload": 2995,
      "samples": 2996,
      "ending": 2997,
      "ĠFile": 2998,
      "ws": 2999,
      "tail": 3000,
      "Write": 3001,
      "Ġstats": 3002,
      "atted": 3003,
      "scope": 3004,
      "ĠConvert": 3005,
      ":%": 3006,
      "Field": 3007,
      "Ġentries": 3008,
      "rep": 3009,
      "Ġtx": 3010,
      "ports": 3011,
      "ift": 3012,
      "Ent": 3013,
      "Ġdefaults": 3014,
      "Build": 3015,
      "layout": 3016,
      "cated": 3017,
      "Ġfollowing": 3018,
      "ynam": 3019,
      "Handler": 3020,
      "Ġboolean": 3021,
      "Ġinstances": 3022,
      "gments": 3023,
      "Ġapply": 3024,
      "Ġ{}'.": 3025,
      "Ġutils": 3026,
      "ority": 3027,
      "idden": 3028,
      "Ġcoordinates": 3029,
      "Sets": 3030,
      "global": 3031,
      "Ġow": 3032,
      "vision": 3033,
      "angle": 3034,
      "Ġuri": 3035,
      "Ġflags": 3036,
      "Ġsignature": 3037,
      "used": 3038,
      "leep": 3039,
      "Ġextension": 3040,
      "Query": 3041,
      "TO": 3042,
      "uplic": 3043,
      "Ġcent": 3044,
      "ivity": 3045,
      "chedule": 3046,
      "uuid": 3047,
      "Det": 3048,
      "Ġ'{}": 3049,
      "}.": 3050,
      "added": 3051,
      "lap": 3052,
      "Ġhparams": 3053,
      "cer": 3054,
      "App": 3055,
      "Ġrelative": 3056,
      "Ġrepo": 3057,
      "bs": 3058,
      "Ġdebug": 3059,
      "As": 3060,
      "document": 3061,
      "Group": 3062,
      "stim": 3063,
      "sure": 3064,
      "QL": 3065,
      "folder": 3066,
      "Ġinsert": 3067,
      "AP": 3068,
      "Ġpacket": 3069,
      "Start": 3070,
      "Ġmaximum": 3071,
      "card": 3072,
      "Ġclose": 3073,
      "empt": 3074,
      "indices": 3075,
      "alk": 3076,
      "Ġasync": 3077,
      "Ġstyle": 3078,
      "unicode": 3079,
      "ION": 3080,
      "Ġinclu": 3081,
      "Ġtrain": 3082,
      "bab": 3083,
      "Ġstored": 3084,
      ">`": 3085,
      "dot": 3086,
      "commit": 3087,
      "Ġfix": 3088,
      "TR": 3089,
      "sq": 3090,
      "ĠCode": 3091,
      "missions": 3092,
      "Ġedge": 3093,
      "tf": 3094,
      "SO": 3095,
      "Ġpipe": 3096,
      "Ġbecause": 3097,
      "xx": 3098,
      "jango": 3099,
      "VER": 3100,
      "sig": 3101,
      "Ġarch": 3102,
      "feature": 3103,
      "Ġconst": 3104,
      "head": 3105,
      "02": 3106,
      "environ": 3107,
      "chine": 3108,
      "Ġpd": 3109,
      "Ġrender": 3110,
      "vars": 3111,
      "mg": 3112,
      "amily": 3113,
      "Ġcomment": 3114,
      "ng": 3115,
      "oid": 3116,
      "Ġsite": 3117,
      "ively": 3118,
      "termin": 3119,
      "ground": 3120,
      "501": 3121,
      "Ġplace": 3122,
      "asure": 3123,
      "exce": 3124,
      "Ġindent": 3125,
      "Bo": 3126,
      "Ġprivate": 3127,
      "vers": 3128,
      "Ġactive": 3129,
      "Ġcompat": 3130,
      "els": 3131,
      "ives": 3132,
      "cores": 3133,
      "Auto": 3134,
      "PAT": 3135,
      "cloud": 3136,
      "arr": 3137,
      "fetch": 3138,
      "ferences": 3139,
      "For": 3140,
      "tml": 3141,
      "transform": 3142,
      "rec": 3143,
      "/%": 3144,
      "Content": 3145,
      "Ġour": 3146,
      "Ġ})": 3147,
      "Ġscale": 3148,
      "cording": 3149,
      "elper": 3150,
      "attribute": 3151,
      "ia": 3152,
      "Ġchain": 3153,
      "ving": 3154,
      "Ġmag": 3155,
      "zeros": 3156,
      "ene": 3157,
      "ould": 3158,
      "ĠĠĠĠĠĠĠĠĠĠĠĠĠĠĠĠĠĠĠĠĠĠĠĠĠĠĠĠĠĠĠĠĠĠĠĠ": 3159,
      "Ġsamples": 3160,
      "AM": 3161,
      "ĠRuntime": 3162,
      "Ġkeep": 3163,
      "roller": 3164,
      "Ġshe": 3165,
      "Ġids": 3166,
      "()):": 3167,
      "lint": 3168,
      "bed": 3169,
      "just": 3170,
      "Ġctypes": 3171,
      "_,": 3172,
      "Ġcho": 3173,
      "requency": 3174,
      "EX": 3175,
      "Ġstdout": 3176,
      "Ġcomplete": 3177,
      "Py": 3178,
      "Ġneeded": 3179,
      "Iter": 3180,
      "lemented": 3181,
      "Ġtrace": 3182,
      "ĠOn": 3183,
      "curity": 3184,
      "year": 3185,
      "Ġtransaction": 3186,
      "UE": 3187,
      "ui": 3188,
      "less": 3189,
      "Ġseq": 3190,
      "Ġbash": 3191,
      "greg": 3192,
      "Ġdownload": 3193,
      "tered": 3194,
      "rompt": 3195,
      "poch": 3196,
      "ĠĠĠĠĠĠĠĠĠĠĠĠĠĠĠĠĠĠĠĠĠĠĠĠĠĠĠĠĠĠĠĠĠ": 3197,
      "utom": 3198,
      "ĠUpdate": 3199,
      "rtual": 3200,
      "github": 3201,
      "Ġgroups": 3202,
      "Ġverbose": 3203,
      "gle": 3204,
      "logging": 3205,
      "Ġdefinition": 3206,
      "ĠRE": 3207,
      "csv": 3208,
      "ertificate": 3209,
      "</": 3210,
      "events": 3211,
      "utable": 3212,
      "Ġannot": 3213,
      "site": 3214,
      "bucket": 3215,
      "Ġterm": 3216,
      "clear": 3217,
      "cell": 3218,
      "tools": 3219,
      "\"))": 3220,
      "MO": 3221,
      "Inter": 3222,
      "ĠIO": 3223,
      "cle": 3224,
      "Le": 3225,
      "Ġdt": 3226,
      "Ġallowed": 3227,
      "ĠArgument": 3228,
      "Map": 3229,
      "Ġboth": 3230,
      "uter": 3231,
      "Ġremoved": 3232,
      "Or": 3233,
      "Ġart": 3234,
      "IP": 3235,
      "Ġlanguage": 3236,
      "spect": 3237,
      "velo": 3238,
      "iew": 3239,
      "non": 3240,
      "Ġmetric": 3241,
      "24": 3242,
      "bits": 3243,
      "Ġmember": 3244,
      "endswith": 3245,
      "fit": 3246,
      "Ġho": 3247,
      "Ġdown": 3248,
      "vm": 3249,
      "Ġcalling": 3250,
      "=%": 3251,
      "features": 3252,
      "ighb": 3253,
      "depend": 3254,
      "Ġ\"/": 3255,
      "TML": 3256,
      "series": 3257,
      "Ġcluster": 3258,
      "Ġchanges": 3259,
      "Ġconstruct": 3260,
      "words": 3261,
      "cols": 3262,
      "Ġsince": 3263,
      "NO": 3264,
      "desc": 3265,
      "Ġpartic": 3266,
      "mac": 3267,
      "ire": 3268,
      "author": 3269,
      "ED": 3270,
      "hes": 3271,
      "Ġpair": 3272,
      "Ġextensions": 3273,
      "ulation": 3274,
      "dirname": 3275,
      "numpy": 3276,
      "ĠAny": 3277,
      "}'": 3278,
      "Ġcannot": 3279,
      "Ġdecode": 3280,
      "Ġnet": 3281,
      "Given": 3282,
      "ories": 3283,
      "Ġrequire": 3284,
      "tty": 3285,
      "secret": 3286,
      "remote": 3287,
      "sted": 3288,
      "policy": 3289,
      "tom": 3290,
      "clean": 3291,
      "application": 3292,
      "math": 3293,
      "Ġselected": 3294,
      "cimal": 3295,
      "Ġsig": 3296,
      "Base": 3297,
      "ctions": 3298,
      "Ġinternal": 3299,
      "ship": 3300,
      "ually": 3301,
      "adding": 3302,
      "Ġaccording": 3303,
      "allow": 3304,
      "()))": 3305,
      "sess": 3306,
      "erm": 3307,
      "ĠCh": 3308,
      "aved": 3309,
      "lers": 3310,
      "ross": 3311,
      ".'": 3312,
      "tokens": 3313,
      "Ġupdated": 3314,
      "BU": 3315,
      "Ġvert": 3316,
      "leg": 3317,
      "route": 3318,
      "ĠOS": 3319,
      "member": 3320,
      "auto": 3321,
      "bl": 3322,
      "lack": 3323,
      "]),": 3324,
      "Ġhtml": 3325,
      "ĠEn": 3326,
      "trace": 3327,
      "variables": 3328,
      "Ġpix": 3329,
      "Ġpairs": 3330,
      "('%": 3331,
      "Ġbox": 3332,
      "pter": 3333,
      "Ġpool": 3334,
      "Ġsupp": 3335,
      "ater": 3336,
      "Ġrepository": 3337,
      "ĠRuntimeError": 3338,
      "Ġ\"{": 3339,
      "score": 3340,
      "Ġlock": 3341,
      "licit": 3342,
      "widget": 3343,
      "50": 3344,
      "Ġcould": 3345,
      "ersion": 3346,
      "Adds": 3347,
      "rb": 3348,
      "fra": 3349,
      "Delete": 3350,
      "parameter": 3351,
      "Ġchildren": 3352,
      "cb": 3353,
      "Ġtimes": 3354,
      "sen": 3355,
      "HE": 3356,
      "ĠĠĠĠĠĠĠĠĠĠĠĠĠĠĠĠĠĠĠĠĠĠĠĠĠĠĠĠĠĠĠĠĠĠ": 3357,
      "als": 3358,
      "LOG": 3359,
      "Ġ'--": 3360,
      "periment": 3361,
      "bind": 3362,
      "Do": 3363,
      "Ġstandard": 3364,
      "Ġwarn": 3365,
      "ransport": 3366,
      "exceptions": 3367,
      "IL": 3368,
      "Ġmodels": 3369,
      "Ġda": 3370,
      "Ġcharacters": 3371,
      "Ġexit": 3372,
      "DataFrame": 3373,
      "storage": 3374,
      "ters": 3375,
      "__)": 3376,
      "Ġ'*'": 3377,
      "itive": 3378,
      "center": 3379,
      "Ġrelation": 3380,
      "aly": 3381,
      "expr": 3382,
      "Ġperform": 3383,
      "Ġdestination": 3384,
      "display": 3385,
      "Ġdelta": 3386,
      "coe": 3387,
      "Spe": 3388,
      "mapping": 3389,
      "Ġrequested": 3390,
      "\"),": 3391,
      "fast": 3392,
      "ĠUser": 3393,
      "ĠZ": 3394,
      "Ġlon": 3395,
      "ĠNo": 3396,
      "Ġprop": 3397,
      "abs": 3398,
      "Ġplt": 3399,
      "Ġ7": 3400,
      "Ġlists": 3401,
      "Ġfeatures": 3402,
      "Ġcommands": 3403,
      "Ġsegment": 3404,
      "Ġfinal": 3405,
      "endpoint": 3406,
      "Ġdistribution": 3407,
      "okie": 3408,
      "role": 3409,
      "Ġindic": 3410,
      "Ġlower": 3411,
      ".*": 3412,
      "ty": 3413,
      "Ġdirectly": 3414,
      "dr": 3415,
      "-%": 3416,
      "Ġtensor": 3417,
      "Te": 3418,
      "Ġanother": 3419,
      "[:-": 3420,
      "ĠDo": 3421,
      "sole": 3422,
      "interval": 3423,
      "SP": 3424,
      "quires": 3425,
      "lugins": 3426,
      "POST": 3427,
      "KEY": 3428,
      "cessed": 3429,
      "Ġinputs": 3430,
      "Ġdepth": 3431,
      "Table": 3432,
      "ogle": 3433,
      "()[": 3434,
      "atten": 3435,
      "20": 3436,
      "cessary": 3437,
      "Ġpredi": 3438,
      "Ġinstall": 3439,
      "Ġcat": 3440,
      "(\"%": 3441,
      "çļ": 3442,
      "çļĦ": 3443,
      "Ġauto": 3444,
      "Ġ_,": 3445,
      "Ġwhat": 3446,
      "defined": 3447,
      "Ġfig": 3448,
      "ĠPath": 3449,
      "ï¼": 3450,
      "Ġdone": 3451,
      "Ġhow": 3452,
      "Ġcharacter": 3453,
      "cla": 3454,
      "ffici": 3455,
      "Ġlookup": 3456,
      "ision": 3457,
      "Ġactual": 3458,
      "cap": 3459,
      "dt": 3460,
      "press": 3461,
      "DEFAULT": 3462,
      "ometry": 3463,
      "NS": 3464,
      "img": 3465,
      "Ġfetch": 3466,
      "Handle": 3467,
      "vec": 3468,
      "scriptor": 3469,
      "sist": 3470,
      "PC": 3471,
      "Ġsetting": 3472,
      "Ġdimension": 3473,
      "Sp": 3474,
      "Ġmapped": 3475,
      "Ġcommon": 3476,
      "ha": 3477,
      "ru": 3478,
      "ended": 3479,
      "force": 3480,
      "Ġspecify": 3481,
      "Ġcommit": 3482,
      "utput": 3483,
      "byte": 3484,
      "edge": 3485,
      "Ġasynchronous": 3486,
      "help": 3487,
      "Ġevalu": 3488,
      "ĠDE": 3489,
      "Ġinterval": 3490,
      "Send": 3491,
      "Ġnd": 3492,
      "ĠGenerated": 3493,
      "UR": 3494,
      "Ġmak": 3495,
      "ĠOr": 3496,
      "Ġmulti": 3497,
      "tore": 3498,
      "pool": 3499,
      "TH": 3500,
      "ĠPer": 3501,
      "Ġalias": 3502,
      "lookup": 3503,
      "modules": 3504,
      "dio": 3505,
      "istics": 3506,
      "Ġlibrary": 3507,
      "CK": 3508,
      "Ġshort": 3509,
      "ĠAs": 3510,
      "Ġmedi": 3511,
      "cfg": 3512,
      "Ġpylint": 3513,
      "Ġsuccessful": 3514,
      "std": 3515,
      "Clo": 3516,
      "Ġfilters": 3517,
      "ĠValid": 3518,
      "Ġpublic": 3519,
      "Ġgrid": 3520,
      "ified": 3521,
      "Service": 3522,
      "Ġmost": 3523,
      "Ġfit": 3524,
      "Ġcurrently": 3525,
      "Ġdisk": 3526,
      "Ġzero": 3527,
      "cii": 3528,
      "Ġadditional": 3529,
      "lon": 3530,
      "buf": 3531,
      "Mo": 3532,
      "Ġday": 3533,
      "Ġattrs": 3534,
      "Ġsubprocess": 3535,
      "resources": 3536,
      "Ġjoin": 3537,
      "ilt": 3538,
      "FO": 3539,
      "Ġregistered": 3540,
      "release": 3541,
      "tk": 3542,
      "Ġ201": 3543,
      "Ġcalls": 3544,
      "sec": 3545,
      "eger": 3546,
      "fd": 3547,
      "Ġreal": 3548,
      "Ġtrig": 3549,
      "Ġcalcul": 3550,
      "ĠIndex": 3551,
      "Ġdesc": 3552,
      "ness": 3553,
      "Ġalign": 3554,
      "Ġequal": 3555,
      "ĠCal": 3556,
      "uting": 3557,
      "On": 3558,
      "Ġaccept": 3559,
      "Ġencoded": 3560,
      "fname": 3561,
      "ĠConfig": 3562,
      "report": 3563,
      "Image": 3564,
      "hing": 3565,
      "rence": 3566,
      "ressed": 3567,
      "Function": 3568,
      "Ġoverride": 3569,
      "Ġusers": 3570,
      "Ġprotocol": 3571,
      "alias": 3572,
      "iod": 3573,
      "Ġchanged": 3574,
      "where": 3575,
      "flags": 3576,
      "sql": 3577,
      "units": 3578,
      "peration": 3579,
      "Compute": 3580,
      "login": 3581,
      "Ġfast": 3582,
      "Ġsuffix": 3583,
      "Ġscore": 3584,
      "Ġtr": 3585,
      "Ġscal": 3586,
      "Connection": 3587,
      "osition": 3588,
      "gb": 3589,
      "light": 3590,
      "priate": 3591,
      "(['": 3592,
      "From": 3593,
      "database": 3594,
      "extract": 3595,
      "Ġproduct": 3596,
      "PRO": 3597,
      "ancel": 3598,
      "mgmt": 3599,
      "Ġla": 3600,
      "atio": 3601,
      "Ġresources": 3602,
      "Ġalways": 3603,
      "null": 3604,
      "sep": 3605,
      "sens": 3606,
      "Ġunits": 3607,
      "Ġzone": 3608,
      "imer": 3609,
      "Ġexecute": 3610,
      "filepath": 3611,
      "vide": 3612,
      "Ġensure": 3613,
      "Ġgenerated": 3614,
      "confi": 3615,
      "plugin": 3616,
      "Ġty": 3617,
      "rf": 3618,
      "metric": 3619,
      "alle": 3620,
      "ues": 3621,
      "loaded": 3622,
      "property": 3623,
      "utomatic": 3624,
      "vs": 3625,
      "Ġexceptions": 3626,
      "Ġimg": 3627,
      "blem": 3628,
      "ilar": 3629,
      "ense": 3630,
      "Ġcomb": 3631,
      "Ġsubject": 3632,
      "complete": 3633,
      "Al": 3634,
      "ypes": 3635,
      "Ġbackend": 3636,
      "Ġbin": 3637,
      "Ġappropriate": 3638,
      "admin": 3639,
      "prop": 3640,
      "Ġtuples": 3641,
      "ient": 3642,
      "defaults": 3643,
      "ather": 3644,
      "safe": 3645,
      "generate": 3646,
      "Ġtri": 3647,
      "ish": 3648,
      "__.": 3649,
      "HTTP": 3650,
      "ĠĠĠĠĠĠĠĠččĊ": 3651,
      "rain": 3652,
      "Ġsetup": 3653,
      "----------------": 3654,
      "Size": 3655,
      "ole": 3656,
      "Ġrelease": 3657,
      "long": 3658,
      "Ġfra": 3659,
      "urface": 3660,
      "','": 3661,
      "Ġfinally": 3662,
      "ifact": 3663,
      "Ġclasses": 3664,
      "Resource": 3665,
      "80": 3666,
      "align": 3667,
      "Ġsymbol": 3668,
      "norm": 3669,
      "Ġimages": 3670,
      "ze": 3671,
      "cc": 3672,
      "Ġ100": 3673,
      "Ġfp": 3674,
      "PATH": 3675,
      "Extract": 3676,
      "agent": 3677,
      "AGE": 3678,
      "ATION": 3679,
      "Filter": 3680,
      "ams": 3681,
      "({'": 3682,
      "include": 3683,
      "Ġ9": 3684,
      "}/": 3685,
      "ĠInvalid": 3686,
      "quences": 3687,
      "download": 3688,
      "expected": 3689,
      "Retrieve": 3690,
      "unique": 3691,
      "contents": 3692,
      "100": 3693,
      "UP": 3694,
      "Ġ\"\\": 3695,
      "Ġmanager": 3696,
      "tact": 3697,
      "'\\": 3698,
      "dius": 3699,
      "Ġfalse": 3700,
      "web": 3701,
      "formed": 3702,
      "uring": 3703,
      "201": 3704,
      "ĠTime": 3705,
      "ĠExamples": 3706,
      "ploy": 3707,
      "undle": 3708,
      "Ġway": 3709,
      "operation": 3710,
      "cing": 3711,
      "volume": 3712,
      "real": 3713,
      "Ġsets": 3714,
      "letion": 3715,
      "AS": 3716,
      "ĠRead": 3717,
      "He": 3718,
      "={}": 3719,
      "ĠCol": 3720,
      "Ġnecessary": 3721,
      "ĠDataFrame": 3722,
      "Tree": 3723,
      "Ġpolicy": 3724,
      "Ġagainst": 3725,
      "Ġreset": 3726,
      "Ġinstalled": 3727,
      "Ġdirection": 3728,
      "cluster": 3729,
      "custom": 3730,
      "ration": 3731,
      "Ġweights": 3732,
      "55": 3733,
      "Ġthese": 3734,
      "ili": 3735,
      "Ġalpha": 3736,
      "pix": 3737,
      "Ġmerge": 3738,
      "Ġstd": 3739,
      "30": 3740,
      "Ġfuture": 3741,
      "ĠString": 3742,
      "atom": 3743,
      "FILE": 3744,
      "tab": 3745,
      "ERR": 3746,
      "NotFound": 3747,
      "Ġreverse": 3748,
      "ntax": 3749,
      "Input": 3750,
      "Helper": 3751,
      "changed": 3752,
      "sk": 3753,
      "uble": 3754,
      "Ġbranch": 3755,
      "ails": 3756,
      "Ġfmt": 3757,
      "distance": 3758,
      "Ġprogress": 3759,
      "Ġatom": 3760,
      "ĠĠĠĠĠĠĠĠĠĠĠĠĠĠĠĠĠĠĠĠĠĠĠĠĠĠĠĠĠĠĠĠĠĠĠĠĠĠĠ": 3761,
      "Ġsens": 3762,
      "Ġestim": 3763,
      "resses": 3764,
      "come": 3765,
      "hand": 3766,
      "Status": 3767,
      "period": 3768,
      "(\"\\": 3769,
      "Ġregex": 3770,
      "utton": 3771,
      "ĠHTML": 3772,
      "View": 3773,
      "Ġtrack": 3774,
      "ĠOther": 3775,
      "compile": 3776,
      "()]": 3777,
      "Ġcomponents": 3778,
      "uint": 3779,
      "ĠWhen": 3780,
      "Ġexclude": 3781,
      "Desc": 3782,
      "ĠMet": 3783,
      "Ġcf": 3784,
      "Ġder": 3785,
      "Ġupload": 3786,
      "Ġcompute": 3787,
      "Ġcondition": 3788,
      "Ġwould": 3789,
      "Ġbind": 3790,
      "expand": 3791,
      "Ġflow": 3792,
      "Ġcached": 3793,
      "cesses": 3794,
      "Ġhex": 3795,
      "dims": 3796,
      "sessment": 3797,
      "Ġverify": 3798,
      "install": 3799,
      "åı": 3800,
      "Ġbest": 3801,
      "Ġoperator": 3802,
      "ĠRemove": 3803,
      "Ġ((": 3804,
      "protocol": 3805,
      "Ġassume": 3806,
      "ength": 3807,
      "sha": 3808,
      "Ġ\"_": 3809,
      "ones": 3810,
      "Ġsql": 3811,
      "-+-+-+-+": 3812,
      "atterns": 3813,
      "rag": 3814,
      "Ġcredentials": 3815,
      "ĠSh": 3816,
      "Graph": 3817,
      "cision": 3818,
      "Ġsummary": 3819,
      "eric": 3820,
      "utation": 3821,
      "Ġformatted": 3822,
      "success": 3823,
      "Ġretrieve": 3824,
      "Manager": 3825,
      "Ġfname": 3826,
      "SET": 3827,
      "CS": 3828,
      "cab": 3829,
      "symbol": 3830,
      "Ġamount": 3831,
      "Ġrecurs": 3832,
      "reset": 3833,
      "Command": 3834,
      "Ġbro": 3835,
      "Method": 3836,
      "flag": 3837,
      "rl": 3838,
      "scribe": 3839,
      "DS": 3840,
      "Count": 3841,
      "Ġprobab": 3842,
      "Ġiterator": 3843,
      "sleep": 3844,
      "Th": 3845,
      "ĠArguments": 3846,
      "VAL": 3847,
      "master": 3848,
      "Ġ200": 3849,
      "dump": 3850,
      "Wrap": 3851,
      "language": 3852,
      "Ġfill": 3853,
      "elements": 3854,
      "Ġanalysis": 3855,
      "Ġpartition": 3856,
      "OP": 3857,
      "Point": 3858,
      "factor": 3859,
      "writ": 3860,
      "ases": 3861,
      "basename": 3862,
      "}\"": 3863,
      "tool": 3864,
      "Ġkw": 3865,
      "ĠĠĠĠĠĠĠĠĠĠĠĠĠĠĠĠĠĠĠĠĠĠĠĠĠĠĠĠĠĠĠĠĠĠĠĠĠĠ": 3866,
      "ateway": 3867,
      "yg": 3868,
      "atches": 3869,
      "Record": 3870,
      "Ġneeds": 3871,
      "spath": 3872,
      "Initial": 3873,
      "ker": 3874,
      "inputs": 3875,
      "gers": 3876,
      "www": 3877,
      "ridge": 3878,
      "sl": 3879,
      "Ġ'')": 3880,
      "Ġcandid": 3881,
      "Ġtermin": 3882,
      "_.": 3883,
      "tz": 3884,
      "stru": 3885,
      "ND": 3886,
      "ĠParse": 3887,
      "coords": 3888,
      "Ġstderr": 3889,
      "public": 3890,
      "dat": 3891,
      "Ġconfi": 3892,
      "Ġhigh": 3893,
      "Ġloaded": 3894,
      "Ġyear": 3895,
      "Ġpkg": 3896,
      "WS": 3897,
      "('.": 3898,
      "(-": 3899,
      "Make": 3900,
      "Ġfont": 3901,
      "Number": 3902,
      "Ġwords": 3903,
      "Ġsimple": 3904,
      "Ġchecks": 3905,
      "Ġsupplied": 3906,
      "Ġperiod": 3907,
      "IG": 3908,
      "olver": 3909,
      "Ġdetect": 3910,
      "filters": 3911,
      "states": 3912,
      "ĠIOError": 3913,
      "MS": 3914,
      "Ġshell": 3915,
      "quival": 3916,
      "ectors": 3917,
      "Ġsm": 3918,
      "nan": 3919,
      "ĠĠĠĠĠĠĠĠĠĠĠĠĠĠĠĠĠĠĠĠĠĠĠĠĠĠĠĠĠĠĠĠĠĠĠĠĠ": 3920,
      "fmt": 3921,
      "Ġ12": 3922,
      "ignore": 3923,
      "rieves": 3924,
      "OST": 3925,
      "ars": 3926,
      "Ġhead": 3927,
      "history": 3928,
      "details": 3929,
      "Ġslice": 3930,
      "Ġnumbers": 3931,
      "Ġmath": 3932,
      "Ġneg": 3933,
      "ibility": 3934,
      "sn": 3935,
      "arm": 3936,
      "Ġetc": 3937,
      "ynamic": 3938,
      "ES": 3939,
      "Ġclear": 3940,
      "Ġreceived": 3941,
      "setup": 3942,
      "Ġ\",": 3943,
      "apply": 3944,
      "ĠĠĠĠĠĠĠĠĠĠĠĠĠĠĠĠĠĠĠĠĠĠĠĠĠĠĠĠĠĠĠĠĠĠĠĠĠĠĠĠ": 3945,
      "Ġtab": 3946,
      "Ġprovider": 3947,
      "Ġactions": 3948,
      "Ġbits": 3949,
      "Ġ\"{}": 3950,
      "umb": 3951,
      "codes": 3952,
      "pb": 3953,
      "lain": 3954,
      "Checks": 3955,
      "gno": 3956,
      "Ġrot": 3957,
      "Ġcategory": 3958,
      "Ġwere": 3959,
      "sm": 3960,
      "emon": 3961,
      "Ġpandas": 3962,
      "users": 3963,
      "Ġmany": 3964,
      "Ġlogin": 3965,
      "ower": 3966,
      "track": 3967,
      "Print": 3968,
      "Ġhook": 3969,
      "Format": 3970,
      "Version": 3971,
      "'](": 3972,
      "Ġabsolute": 3973,
      "month": 3974,
      "render": 3975,
      "19": 3976,
      "osid": 3977,
      "Ġstarting": 3978,
      "pipe": 3979,
      "grade": 3980,
      "If": 3981,
      "Ġ%(": 3982,
      "Ġedges": 3983,
      "factory": 3984,
      "Ġ-=": 3985,
      "fill": 3986,
      "signal": 3987,
      "Bu": 3988,
      "Ġappend": 3989,
      "Ġdefining": 3990,
      "Ġhy": 3991,
      "Ġmodules": 3992,
      "forms": 3993,
      "rer": 3994,
      "Ġuses": 3995,
      "Open": 3996,
      "partition": 3997,
      "suffix": 3998,
      "Ġndarray": 3999,
      "Ġvalidation": 4000,
      "Tag": 4001,
      "relation": 4002,
      "Ġpers": 4003,
      "ĠAl": 4004,
      "Ġduration": 4005,
      "edges": 4006,
      "ĠQt": 4007,
      "Ġfactor": 4008,
      "sumer": 4009,
      "15": 4010,
      "Int": 4011,
      "verbose": 4012,
      "Ac": 4013,
      "Ġ'',": 4014,
      "ĠTrans": 4015,
      "rpc": 4016,
      "=_": 4017,
      "foo": 4018,
      "summary": 4019,
      "miss": 4020,
      "Series": 4021,
      "ensity": 4022,
      "}\\": 4023,
      "zero": 4024,
      "('-": 4025,
      "ifier": 4026,
      "Ġcontrol": 4027,
      "Calculate": 4028,
      "kind": 4029,
      "ished": 4030,
      "Ġimplemented": 4031,
      "dic": 4032,
      "precated": 4033,
      "Code": 4034,
      "assign": 4035,
      "Ġput": 4036,
      "Ġwarnings": 4037,
      "counter": 4038,
      "mbed": 4039,
      "emoves": 4040,
      "Ġhelper": 4041,
      "Ġ16": 4042,
      "33": 4043,
      "ĠNumber": 4044,
      "{}'.": 4045,
      "Ġpid": 4046,
      "Ġ$": 4047,
      ",)": 4048,
      "ops": 4049,
      "Ġasset": 4050,
      "Ġdat": 4051,
      "Ġkind": 4052,
      "acy": 4053,
      "sorted": 4054,
      "cos": 4055,
      "ascii": 4056,
      "Converts": 4057,
      "Ġvariant": 4058,
      "ATA": 4059,
      "Ġorigin": 4060,
      "catalog": 4061,
      "specifi": 4062,
      "Ġfailure": 4063,
      "Ġdeleted": 4064,
      "Ġcounter": 4065,
      "Ġkernel": 4066,
      "dify": 4067,
      "hether": 4068,
      "Ġreply": 4069,
      "fp": 4070,
      "draw": 4071,
      "Ġdraw": 4072,
      "Ġthose": 4073,
      "mplates": 4074,
      "orary": 4075,
      "Ġreason": 4076,
      "Ġtasks": 4077,
      "scape": 4078,
      "Ġrelated": 4079,
      "pkg": 4080,
      "Ġcoe": 4081,
      "Stream": 4082,
      "after": 4083,
      "Search": 4084,
      "Ġcsv": 4085,
      "pair": 4086,
      "erature": 4087,
      "icro": 4088,
      "utomatically": 4089,
      "uch": 4090,
      "logy": 4091,
      "counts": 4092,
      "Ġgre": 4093,
      "regex": 4094,
      "Ġmer": 4095,
      "ender": 4096,
      "aves": 4097,
      "Ġupper": 4098,
      "Ġspecification": 4099,
      "commands": 4100,
      "Ġimplementation": 4101,
      "Dec": 4102,
      "digest": 4103,
      "Widget": 4104,
      "icle": 4105,
      "Entry": 4106,
      "Ġagent": 4107,
      "ABLE": 4108,
      "Ġcap": 4109,
      "TIME": 4110,
      "rece": 4111,
      "yaml": 4112,
      "Ġleast": 4113,
      "Ġpick": 4114,
      "note": 4115,
      "Ġregistry": 4116,
      "Exec": 4117,
      "short": 4118,
      "Ġoccur": 4119,
      "fail": 4120,
      "Ġstatement": 4121,
      "Ġorg": 4122,
      "subject": 4123,
      "oot": 4124,
      "]+": 4125,
      "__(": 4126,
      "sqrt": 4127,
      "FOR": 4128,
      "arguments": 4129,
      "Link": 4130,
      "mer": 4131,
      "Ġfeed": 4132,
      "memory": 4133,
      "Ġusage": 4134,
      "fun": 4135,
      "Ġarrays": 4136,
      "Ġvirtual": 4137,
      "Ġmonth": 4138,
      "termine": 4139,
      "category": 4140,
      "Ġast": 4141,
      "entries": 4142,
      "vector": 4143,
      "lev": 4144,
      ")])": 4145,
      "Date": 4146,
      "Ġminimum": 4147,
      "members": 4148,
      "ĉĉĉĉ": 4149,
      "ĠOtherwise": 4150,
      "Ġreturning": 4151,
      "ĠLog": 4152,
      "Ġknown": 4153,
      "Ġsetattr": 4154,
      "tensor": 4155,
      "RA": 4156,
      "Ġident": 4157,
      "ifest": 4158,
      "Ġcollect": 4159,
      "Ġinspect": 4160,
      "Ġelem": 4161,
      "Ġrate": 4162,
      "records": 4163,
      "}{": 4164,
      "Str": 4165,
      "merge": 4166,
      "bet": 4167,
      "home": 4168,
      "ied": 4169,
      "Ġfilepath": 4170,
      "Tra": 4171,
      "urse": 4172,
      "ĠMake": 4173,
      "gp": 4174,
      "Ġprogram": 4175,
      "Ġalgorithm": 4176,
      "ĠFind": 4177,
      "Ġraised": 4178,
      "VI": 4179,
      "engine": 4180,
      "ferred": 4181,
      "mbols": 4182,
      "ĠRequest": 4183,
      "Ġrec": 4184,
      "isfile": 4185,
      "Ġconnected": 4186,
      "Ġstates": 4187,
      "ĠReg": 4188,
      "cd": 4189,
      "Ġexecution": 4190,
      "Ġns": 4191,
      "ĠCall": 4192,
      "Lay": 4193,
      "Token": 4194,
      "lim": 4195,
      "links": 4196,
      "served": 4197,
      "rand": 4198,
      "provider": 4199,
      "ERROR": 4200,
      "ache": 4201,
      "Ġrules": 4202,
      "Ġoptim": 4203,
      "Ġdesi": 4204,
      "Ġmeans": 4205,
      "iteritems": 4206,
      "Ġredirect": 4207,
      "win": 4208,
      "span": 4209,
      "Ġ[(": 4210,
      "ĠRun": 4211,
      "Ġmetrics": 4212,
      "driver": 4213,
      "gories": 4214,
      "lies": 4215,
      "ells": 4216,
      "Ġinside": 4217,
      "ĠBy": 4218,
      "Ġversionadded": 4219,
      "Ġ},": 4220,
      "Ġarchive": 4221,
      "Ġenabled": 4222,
      "compute": 4223,
      "crypted": 4224,
      "Ġsnapshot": 4225,
      "multi": 4226,
      "Ġinv": 4227,
      "messages": 4228,
      "hostname": 4229,
      "enabled": 4230,
      "Ġconverted": 4231,
      "echo": 4232,
      "ĠDict": 4233,
      "14": 4234,
      "setdefault": 4235,
      "Action": 4236,
      "Ġdot": 4237,
      "Line": 4238,
      "ĠAll": 4239,
      "Ġut": 4240,
      "maining": 4241,
      "expression": 4242,
      "Ġattach": 4243,
      "binary": 4244,
      "Ġ[])": 4245,
      "deredDict": 4246,
      "Ġpackages": 4247,
      "ĠUni": 4248,
      "Store": 4249,
      "ons": 4250,
      "Ġbuf": 4251,
      "34": 4252,
      "Ġworker": 4253,
      "(__": 4254,
      "rowser": 4255,
      "Ġeffect": 4256,
      "Ġonce": 4257,
      "Server": 4258,
      "We": 4259,
      "Ġretry": 4260,
      "ailf": 4261,
      "olved": 4262,
      "ĠImport": 4263,
      "Sign": 4264,
      "ierarch": 4265,
      "Ġmembers": 4266,
      "Ġnested": 4267,
      "quivalent": 4268,
      "ĠPre": 4269,
      "Ġvm": 4270,
      "aw": 4271,
      "Ġexpi": 4272,
      "Ġyaml": 4273,
      "ĠObject": 4274,
      "mediate": 4275,
      "MM": 4276,
      "Ġnotification": 4277,
      "Ġloc": 4278,
      "Ġmove": 4279,
      "ĠLOGGER": 4280,
      "60": 4281,
      "Ġtake": 4282,
      "tasks": 4283,
      "ĠCreates": 4284,
      "Could": 4285,
      "Default": 4286,
      "__.__": 4287,
      "backend": 4288,
      "ĠLoad": 4289,
      "CP": 4290,
      "Obj": 4291,
      "Ġcenter": 4292,
      "ermine": 4293,
      "ĠId": 4294,
      "times": 4295,
      "days": 4296,
      "Ad": 4297,
      "ti": 4298,
      "Ġadmin": 4299,
      "ĠOnly": 4300,
      "Ġtool": 4301,
      "crement": 4302,
      "Block": 4303,
      "Ġmaster": 4304,
      "ks": 4305,
      "Ġdesired": 4306,
      "ric": 4307,
      "ava": 4308,
      "Ġtakes": 4309,
      "unch": 4310,
      "SION": 4311,
      "*.": 4312,
      ".)": 4313,
      "Ġmachine": 4314,
      "Ġcalculate": 4315,
      "Ġvo": 4316,
      "Ġcompatible": 4317,
      "vl": 4318,
      "Ġcy": 4319,
      "definition": 4320,
      "running": 4321,
      "Ġproper": 4322,
      "alpha": 4323,
      "Ġidentifi": 4324,
      "steps": 4325,
      "Ġsaved": 4326,
      "Ġbutton": 4327,
      "ours": 4328,
      "TS": 4329,
      "asset": 4330,
      "Ġparticular": 4331,
      "Ġexpr": 4332,
      "ĠBuild": 4333,
      "oto": 4334,
      "ada": 4335,
      "Cont": 4336,
      "weights": 4337,
      "Ġauthentication": 4338,
      "enum": 4339,
      "Ġplatform": 4340,
      "ï¼Į": 4341,
      "ilities": 4342,
      "Ġsafe": 4343,
      "Ġdst": 4344,
      "verify": 4345,
      "anti": 4346,
      "uce": 4347,
      "activ": 4348,
      "Attribute": 4349,
      "ĠURI": 4350,
      "Ġdimensions": 4351,
      "Ġqual": 4352,
      "Ġangle": 4353,
      "created": 4354,
      "Ġblob": 4355,
      "ĠNode": 4356,
      "QU": 4357,
      "Ġaxes": 4358,
      "indent": 4359,
      "repr": 4360,
      "ĠApp": 4361,
      "Ġpercent": 4362,
      "ĠDefaults": 4363,
      "={'": 4364,
      "200": 4365,
      "sync": 4366,
      "invalid": 4367,
      "scal": 4368,
      "product": 4369,
      "tick": 4370,
      "Ġarr": 4371,
      "lineno": 4372,
      ")}": 4373,
      "Ġwell": 4374,
      "Ġstrip": 4375,
      "Ġ(%": 4376,
      "dirs": 4377,
      "Ġlinks": 4378,
      "writer": 4379,
      "segment": 4380,
      "Ġexport": 4381,
      "configuration": 4382,
      "condition": 4383,
      "slice": 4384,
      "SU": 4385,
      "vas": 4386,
      "Ġtopic": 4387,
      "missing": 4388,
      "Ġigno": 4389,
      "Ġgit": 4390,
      "Ġprocessing": 4391,
      "transaction": 4392,
      "reshape": 4393,
      "signature": 4394,
      "channels": 4395,
      "uplicate": 4396,
      "straints": 4397,
      "Ġbar": 4398,
      "ä»": 4399,
      "registry": 4400,
      "wrapper": 4401,
      "ocument": 4402,
      "cid": 4403,
      "ASE": 4404,
      "ipv": 4405,
      "Ġ))": 4406,
      "ampling": 4407,
      "Up": 4408,
      "ĠWhether": 4409,
      "SER": 4410,
      "ĠDis": 4411,
      "Ġconfigured": 4412,
      "Ġans": 4413,
      "dimension": 4414,
      "\"\"\",": 4415,
      "Ġdetermine": 4416,
      "creen": 4417,
      "ĠRet": 4418,
      "Ġwrapped": 4419,
      "256": 4420,
      "ulti": 4421,
      "ĠGiven": 4422,
      "IM": 4423,
      "none": 4424,
      "Ġtile": 4425,
      "ets": 4426,
      "hs": 4427,
      "\").": 4428,
      "cert": 4429,
      "Ġhist": 4430,
      "Sc": 4431,
      "orld": 4432,
      "iterable": 4433,
      "ĠTh": 4434,
      "Ġengine": 4435,
      "ĠOpen": 4436,
      "TypeError": 4437,
      "eries": 4438,
      "lots": 4439,
      "Ġedit": 4440,
      "ural": 4441,
      "vidual": 4442,
      "zen": 4443,
      "resp": 4444,
      "Ġalong": 4445,
      "argv": 4446,
      "sd": 4447,
      "letes": 4448,
      "Over": 4449,
      "ĠPo": 4450,
      "structure": 4451,
      "lask": 4452,
      "ACK": 4453,
      "Ġscan": 4454,
      "allet": 4455,
      "requests": 4456,
      "second": 4457,
      ":-": 4458,
      "Dyn": 4459,
      "Ref": 4460,
      "holder": 4461,
      "OK": 4462,
      "upload": 4463,
      "Ġmodified": 4464,
      "indows": 4465,
      "nn": 4466,
      "generator": 4467,
      "GS": 4468,
      "Ġ\"-": 4469,
      "Ġduring": 4470,
      "Ġ'__": 4471,
      "\"]:": 4472,
      "uff": 4473,
      "Ġprev": 4474,
      "rency": 4475,
      "Ġblocks": 4476,
      "aving": 4477,
      "åĪ": 4478,
      "Ġsecret": 4479,
      "ands": 4480,
      "ĠOSError": 4481,
      "}:": 4482,
      "Ġcfg": 4483,
      "reader": 4484,
      "'re": 4485,
      "ĠBase": 4486,
      "oom": 4487,
      ")).": 4488,
      "sidered": 4489,
      "OL": 4490,
      "ttp": 4491,
      "Ġdependencies": 4492,
      "Serial": 4493,
      "clus": 4494,
      "owner": 4495,
      "Ġhostname": 4496,
      "Ġside": 4497,
      "drop": 4498,
      "abspath": 4499,
      "gt": 4500,
      "ĠCommand": 4501,
      ":])": 4502,
      "Ġselection": 4503,
      "single": 4504,
      "utype": 4505,
      "changes": 4506,
      "Ġmeasure": 4507,
      "images": 4508,
      "Ed": 4509,
      "example": 4510,
      "sence": 4511,
      "Ġbegin": 4512,
      "font": 4513,
      "Level": 4514,
      "veloper": 4515,
      "Ġenable": 4516,
      "strings": 4517,
      ")\"": 4518,
      "bove": 4519,
      "Ġconsidered": 4520,
      "components": 4521,
      "Ġyet": 4522,
      "skip": 4523,
      "56": 4524,
      "System": 4525,
      "unpack": 4526,
      "area": 4527,
      "Ġhistory": 4528,
      "extmethods": 4529,
      "Ġextmethods": 4530,
      "DynClass": 4531,
      "otes": 4532,
      "Propert": 4533,
      "ĠTe": 4534,
      "sock": 4535,
      "refresh": 4536,
      "PRE": 4537,
      "Ġren": 4538,
      "utor": 4539,
      "Ġdrop": 4540,
      "Ġspecial": 4541,
      "wb": 4542,
      "ermin": 4543,
      "variant": 4544,
      "Ġmd": 4545,
      "Parses": 4546,
      "Ġlar": 4547,
      "BUG": 4548,
      "metrics": 4549,
      ")*": 4550,
      "Ġ//": 4551,
      "Ġabs": 4552,
      "Box": 4553,
      "Ġ),": 4554,
      "Ġexpect": 4555,
      "ĠSub": 4556,
      "Ġcreating": 4557,
      "Ġfrequency": 4558,
      "Cannot": 4559,
      "stract": 4560,
      "Ġbounds": 4561,
      "Ġaround": 4562,
      "clar": 4563,
      "platform": 4564,
      "scheme": 4565,
      "Ġavoid": 4566,
      "Ġversions": 4567,
      "Ġactiv": 4568,
      "ĠIDs": 4569,
      "amma": 4570,
      "separ": 4571,
      "Ġ{})": 4572,
      "Ġautomatically": 4573,
      "Ġmakes": 4574,
      "high": 4575,
      "_{": 4576,
      "js": 4577,
      "zy": 4578,
      "ĠResponse": 4579,
      "OS": 4580,
      "Ġplan": 4581,
      "Ġtables": 4582,
      "Save": 4583,
      "Fe": 4584,
      "Ġarea": 4585,
      "ogram": 4586,
      "jor": 4587,
      "sim": 4588,
      "detail": 4589,
      "IC": 4590,
      "Part": 4591,
      "Ġcla": 4592,
      "Ġservices": 4593,
      "ked": 4594,
      "}}": 4595,
      "orator": 4596,
      "available": 4597,
      "Ġpipeline": 4598,
      "Ġproto": 4599,
      ":`.": 4600,
      "uman": 4601,
      "Ġoutputs": 4602,
      "uler": 4603,
      "plotlib": 4604,
      "Ġembed": 4605,
      "Ġ''.": 4606,
      "Ġmac": 4607,
      "Ġdataframe": 4608,
      "Ġissue": 4609,
      "proto": 4610,
      "Ġrank": 4611,
      "Unable": 4612,
      "Ġreci": 4613,
      "blocks": 4614,
      "Act": 4615,
      "ĠĠĠĠĠĠĠĠĠĠĠĠčĊ": 4616,
      "VE": 4617,
      "before": 4618,
      "control": 4619,
      "exclude": 4620,
      "ube": 4621,
      "processing": 4622,
      "topic": 4623,
      "pace": 4624,
      "ĠNO": 4625,
      "threshold": 4626,
      "Ġnorm": 4627,
      "worker": 4628,
      "ĠError": 4629,
      "Ġrequires": 4630,
      "Ġscheme": 4631,
      "Ġsym": 4632,
      "uous": 4633,
      "cio": 4634,
      "iddle": 4635,
      "Ġpermission": 4636,
      "ierarchy": 4637,
      "retry": 4638,
      "Job": 4639,
      "edit": 4640,
      "pture": 4641,
      "\"][\"": 4642,
      "cepts": 4643,
      "ĠMessage": 4644,
      "hidden": 4645,
      "ression": 4646,
      "ription": 4647,
      "ationError": 4648,
      "this": 4649,
      "Ġwritten": 4650,
      "Ġnormalize": 4651,
      "Ġdescrib": 4652,
      "quote": 4653,
      "dst": 4654,
      "ĠYou": 4655,
      "ZE": 4656,
      "ĠQuery": 4657,
      "Ġrect": 4658,
      "lso": 4659,
      "shell": 4660,
      "dient": 4661,
      "flush": 4662,
      "Source": 4663,
      "Ġdirectories": 4664,
      "]*": 4665,
      "Ġpadding": 4666,
      "isdir": 4667,
      "Output": 4668,
      "Ġsteps": 4669,
      "IS": 4670,
      "pm": 4671,
      "matches": 4672,
      "Ġincluding": 4673,
      "Ġreader": 4674,
      "UM": 4675,
      "Ġdiction": 4676,
      "lastic": 4677,
      "found": 4678,
      "static": 4679,
      "Att": 4680,
      "family": 4681,
      "\"].": 4682,
      "ĠSets": 4683,
      "Ġtargets": 4684,
      "iki": 4685,
      "ropy": 4686,
      "sem": 4687,
      "ssl": 4688,
      "nsure": 4689,
      "sage": 4690,
      "ines": 4691,
      "Ġexact": 4692,
      "Ġsources": 4693,
      "Ġthreshold": 4694,
      "UID": 4695,
      "ĠInput": 4696,
      "13": 4697,
      "Of": 4698,
      "oo": 4699,
      "Ġlayout": 4700,
      "Ġmesh": 4701,
      "Ġpretty": 4702,
      "Ġworking": 4703,
      "rules": 4704,
      "fficient": 4705,
      "ORD": 4706,
      "esca": 4707,
      "['_": 4708,
      "Ġcollections": 4709,
      "Ġdriver": 4710,
      "Ġdescriptor": 4711,
      ":\\": 4712,
      "scan": 4713,
      "Validate": 4714,
      "Work": 4715,
      "Ġfall": 4716,
      "Address": 4717,
      "Ġlet": 4718,
      "ula": 4719,
      "stit": 4720,
      "']))": 4721,
      "ĠĠĠĠĠĠĠĠĠĠĠĠĠĠĠĠĠĠĠĠĠĠĠĠĠĠĠĠĠĠĠĠĠĠĠĠĠĠĠĠĠ": 4722,
      "Ġprovide": 4723,
      ".'''": 4724,
      "slug": 4725,
      "Ġlate": 4726,
      "branch": 4727,
      "sto": 4728,
      "JSON": 4729,
      "rr": 4730,
      "Ġsimp": 4731,
      ")'": 4732,
      "Ġoperations": 4733,
      "Ġrefresh": 4734,
      "Pa": 4735,
      "grees": 4736,
      "emit": 4737,
      "nb": 4738,
      "editor": 4739,
      "final": 4740,
      "culates": 4741,
      "End": 4742,
      "servation": 4743,
      "ĠForm": 4744,
      "havi": 4745,
      "done": 4746,
      "internal": 4747,
      "Ġcounts": 4748,
      "Ġignored": 4749,
      "private": 4750,
      "Ġdocumentation": 4751,
      "Ġwarning": 4752,
      "Ġexperiment": 4753,
      "Unknown": 4754,
      "Ġcertificate": 4755,
      "Ġchannels": 4756,
      "########": 4757,
      "PA": 4758,
      "eval": 4759,
      "lip": 4760,
      "Qt": 4761,
      "ĠĠĠĠĠĠĠĠĠĠĠĠĠĠĠĠĠĠĠĠĠĠĠĠĠĠĠĠĠĠĠĠĠĠĠĠĠĠĠĠĠĠĠ": 4762,
      "mk": 4763,
      "loader": 4764,
      "ongo": 4765,
      "limiter": 4766,
      "Ġcp": 4767,
      "Ġprocessed": 4768,
      "Task": 4769,
      "ĠIter": 4770,
      "Ġcolors": 4771,
      "bank": 4772,
      "alance": 4773,
      "liance": 4774,
      "duration": 4775,
      "yncio": 4776,
      "æĸ": 4777,
      "Retrieves": 4778,
      "PAR": 4779,
      "parsed": 4780,
      "colors": 4781,
      "Ġcatalog": 4782,
      "INT": 4783,
      "Device": 4784,
      "elem": 4785,
      "ueue": 4786,
      "FIG": 4787,
      "hy": 4788,
      "Ġclosed": 4789,
      "attach": 4790,
      "Ġprimary": 4791,
      "Ġwhose": 4792,
      "Ġsn": 4793,
      "Ġsecurity": 4794,
      "Ġbasestring": 4795,
      "18": 4796,
      "glob": 4797,
      "LETE": 4798,
      "END": 4799,
      "require": 4800,
      "Ġfiltered": 4801,
      "sources": 4802,
      "Parameters": 4803,
      "voke": 4804,
      "mitted": 4805,
      "cr": 4806,
      "Ġincluded": 4807,
      "=-": 4808,
      "Ġuuid": 4809,
      "Ġaddr": 4810,
      "tile": 4811,
      "')[": 4812,
      "packages": 4813,
      "mpls": 4814,
      "ĠIN": 4815,
      "=\"\"": 4816,
      "Ġgot": 4817,
      "ĠAlso": 4818,
      "percent": 4819,
      "ĠDet": 4820,
      "Implemented": 4821,
      "blob": 4822,
      "vlan": 4823,
      "astype": 4824,
      "origin": 4825,
      "eds": 4826,
      "bounds": 4827,
      "Ġdelay": 4828,
      "ĠBo": 4829,
      "caten": 4830,
      "PS": 4831,
      "notification": 4832,
      "cum": 4833,
      "cryption": 4834,
      "(',": 4835,
      "boot": 4836,
      "Ġada": 4837,
      "roy": 4838,
      "Ġsequences": 4839,
      "Ġround": 4840,
      "Ġown": 4841,
      "eg": 4842,
      "Ġnone": 4843,
      "services": 4844,
      "Ġattempt": 4845,
      "Ġtoo": 4846,
      "serve": 4847,
      "Ġdev": 4848,
      "Qu": 4849,
      "Register": 4850,
      "progress": 4851,
      "Ġdump": 4852,
      "Ġstatic": 4853,
      "media": 4854,
      "Ġgene": 4855,
      "ssh": 4856,
      "Ġparsing": 4857,
      "authentic": 4858,
      "Use": 4859,
      "Ġtrigger": 4860,
      "sume": 4861,
      "ĠGenerate": 4862,
      "Ġcoordinate": 4863,
      "utdown": 4864,
      "aa": 4865,
      "epcopy": 4866,
      "(?": 4867,
      "pad": 4868,
      "Ġescape": 4869,
      "Parameter": 4870,
      "cial": 4871,
      "tainer": 4872,
      "bam": 4873,
      "keyword": 4874,
      "ĠSpe": 4875,
      "atory": 4876,
      "delay": 4877,
      "Ġexternal": 4878,
      "iver": 4879,
      "Ġ\"--": 4880,
      "Ġapplied": 4881,
      "'\"": 4882,
      "cu": 4883,
      "ĠCan": 4884,
      "ention": 4885,
      "ĠIndexError": 4886,
      "TA": 4887,
      "rot": 4888,
      "Ġwriter": 4889,
      "ĠAc": 4890,
      "ĠOperation": 4891,
      "false": 4892,
      "anis": 4893,
      "Ġoverwrite": 4894,
      "Ġindexes": 4895,
      "Ġutil": 4896,
      "pg": 4897,
      "Ġlow": 4898,
      "Ġchunks": 4899,
      "developer": 4900,
      "lying": 4901,
      "olders": 4902,
      "encoded": 4903,
      "ygon": 4904,
      "cipy": 4905,
      "pdf": 4906,
      "ically": 4907,
      "Ġscalar": 4908,
      "Warning": 4909,
      "freq": 4910,
      "Ġproblem": 4911,
      "lishe": 4912,
      "Ġbasic": 4913,
      "Ġconsist": 4914,
      "Ġupdates": 4915,
      "gits": 4916,
      "struction": 4917,
      "Ġabove": 4918,
      "hood": 4919,
      "ced": 4920,
      "Ġsk": 4921,
      "chor": 4922,
      "choice": 4923,
      "Download": 4924,
      "uses": 4925,
      "Ġmodifi": 4926,
      "']]": 4927,
      "ENT": 4928,
      "Access": 4929,
      "Ġcert": 4930,
      "Ġregular": 4931,
      "Ġsw": 4932,
      "antity": 4933,
      "Connect": 4934,
      "Ġallows": 4935,
      "Ġpermissions": 4936,
      "unic": 4937,
      "Ġpartial": 4938,
      "Optional": 4939,
      "Ġbuilt": 4940,
      "Ġmight": 4941,
      "Ġknow": 4942,
      "Ġdevices": 4943,
      "Ġsensor": 4944,
      "repository": 4945,
      "Ġglob": 4946,
      "router": 4947,
      "ĠDB": 4948,
      "question": 4949,
      "Ġcut": 4950,
      ")/": 4951,
      "pan": 4952,
      "Ġpad": 4953,
      "connected": 4954,
      "GB": 4955,
      "Ġlooking": 4956,
      "ALL": 4957,
      "reen": 4958,
      "upported": 4959,
      "Ġswitch": 4960,
      "{}\".": 4961,
      "lyph": 4962,
      "%(": 4963,
      "security": 4964,
      "Row": 4965,
      "retri": 4966,
      "()``": 4967,
      "ĠĠĠĠĠĠĠĠĠĠĠĠĠĠĠĠĠĠĠĠĠĠĠĠĠĠĠĠĠĠĠĠĠĠĠĠĠĠĠĠĠĠ": 4968,
      "coming": 4969,
      "Ġcompar": 4970,
      "alg": 4971,
      "_)": 4972,
      "Ġbl": 4973,
      "integer": 4974,
      "17": 4975,
      "Ġ'<": 4976,
      "Logger": 4977,
      "extension": 4978,
      "Ġio": 4979,
      "Ġepoch": 4980,
      "Ġconversion": 4981,
      "construct": 4982,
      "Ġcreates": 4983,
      "Ġsimilar": 4984,
      "expi": 4985,
      "Ġbackground": 4986,
      "86": 4987,
      "SV": 4988,
      "cm": 4989,
      "Ġdid": 4990,
      "ined": 4991,
      "('_": 4992,
      "Ġitself": 4993,
      "ado": 4994,
      "rypt": 4995,
      "ools": 4996,
      "='',": 4997,
      "Ġ{},": 4998,
      "Ġfore": 4999,
      "utc": 5000,
      "rong": 5001,
      "ĠStart": 5002,
      "Ġequivalent": 5003,
      "Ag": 5004,
      "STR": 5005,
      "ulk": 5006,
      "proc": 5007,
      "original": 5008,
      "direction": 5009,
      "ĠFunction": 5010,
      "Ġforward": 5011,
      "Ġuid": 5012,
      "rites": 5013,
      "Ġsep": 5014,
      "neighb": 5015,
      "Ġcir": 5016,
      "Ġfilenames": 5017,
      "Ġdefinitions": 5018,
      ".\",": 5019,
      "Ġdictionaries": 5020,
      "Mode": 5021,
      "targets": 5022,
      "inv": 5023,
      "Ġbel": 5024,
      "Ġdetermin": 5025,
      "ĠClo": 5026,
      "usage": 5027,
      "Ġrespect": 5028,
      "moot": 5029,
      "Ġcols": 5030,
      "EM": 5031,
      "So": 5032,
      "Ġscreen": 5033,
      "Ġequ": 5034,
      "Ġsomething": 5035,
      "sw": 5036,
      "DIR": 5037,
      "Ver": 5038,
      "ROM": 5039,
      "03": 5040,
      "Api": 5041,
      "br": 5042,
      "free": 5043,
      "ough": 5044,
      "Ġmedia": 5045,
      "Ġteam": 5046,
      "abel": 5047,
      "sym": 5048,
      "Ġowner": 5049,
      "Ġpot": 5050,
      "ront": 5051,
      "ited": 5052,
      "signed": 5053,
      "Ġresolve": 5054,
      "resolve": 5055,
      "Ġauthorization": 5056,
      "All": 5057,
      "Ġidentity": 5058,
      "allel": 5059,
      "archive": 5060,
      "operator": 5061,
      "monitor": 5062,
      "walk": 5063,
      "reduce": 5064,
      "Ġdocstring": 5065,
      "Ġvide": 5066,
      "ĠNotImplemented": 5067,
      "Ġschedule": 5068,
      "Ġpredict": 5069,
      "snapshot": 5070,
      "onical": 5071,
      "uess": 5072,
      "Ġ[{": 5073,
      "Ġaggreg": 5074,
      "dn": 5075,
      "Ġds": 5076,
      "quare": 5077,
      "Ġsubclass": 5078,
      "loss": 5079,
      "ĠImage": 5080,
      "Ġreading": 5081,
      "Ġpopulate": 5082,
      "Ġpower": 5083,
      "oriz": 5084,
      "ĠOrderedDict": 5085,
      "oring": 5086,
      "lists": 5087,
      "trig": 5088,
      "22": 5089,
      "At": 5090,
      "SA": 5091,
      "axes": 5092,
      "Reads": 5093,
      "LIN": 5094,
      "isters": 5095,
      "orter": 5096,
      "Ġts": 5097,
      "urls": 5098,
      "Ġnormalized": 5099,
      "Sy": 5100,
      "Ġpur": 5101,
      "Ġinner": 5102,
      "ĠĠĠĠĠĠĠĠĠĠĠĠĠĠĠĠĠĠĠĠĠĠĠĠĠĠĠĠĠĠĠĠĠĠĠĠĠĠĠĠĠĠĠĠĠĠĠĠĠĠĠĠĠĠĠĠĠĠĠĠĠĠĠĠ": 5103,
      "verter": 5104,
      "Ġ[],": 5105,
      "Exist": 5106,
      "Ġqueryset": 5107,
      "gene": 5108,
      "button": 5109,
      "rupt": 5110,
      "packet": 5111,
      "begin": 5112,
      "refs": 5113,
      "================": 5114,
      "ĠAuth": 5115,
      "INFO": 5116,
      "ACE": 5117,
      "MAT": 5118,
      "seek": 5119,
      "cover": 5120,
      "lank": 5121,
      "Ġtraining": 5122,
      "Ġ1000": 5123,
      "Ġmatched": 5124,
      "Updates": 5125,
      "handlers": 5126,
      "Ġcore": 5127,
      "istration": 5128,
      "udio": 5129,
      "ĠEach": 5130,
      "sheet": 5131,
      "Color": 5132,
      "lite": 5133,
      "Ġcover": 5134,
      "DD": 5135,
      "kit": 5136,
      "Ġpr": 5137,
      "Ġcloud": 5138,
      "Ġshutil": 5139,
      "feed": 5140,
      "auss": 5141,
      "ĠBack": 5142,
      "cached": 5143,
      "deg": 5144,
      "escape": 5145,
      "]])": 5146,
      "priority": 5147,
      "cel": 5148,
      "Ġeven": 5149,
      "Ġradius": 5150,
      "SIZE": 5151,
      "Ġless": 5152,
      "nitude": 5153,
      "environment": 5154,
      "Pack": 5155,
      "COL": 5156,
      "most": 5157,
      "hosts": 5158,
      "Ġrecursive": 5159,
      "amo": 5160,
      "ĠRec": 5161,
      "ĠWrite": 5162,
      "Ġeditor": 5163,
      "coordin": 5164,
      "ired": 5165,
      "subprocess": 5166,
      "identity": 5167,
      "Inst": 5168,
      "Initialize": 5169,
      "Ġruntime": 5170,
      "Ġexplicit": 5171,
      "runtime": 5172,
      "Ġseed": 5173,
      "Ġjobs": 5174,
      "Ġ':": 5175,
      "AND": 5176,
      "pose": 5177,
      "Show": 5178,
      "ga": 5179,
      "atrix": 5180,
      "empts": 5181,
      "Com": 5182,
      "(':": 5183,
      "andatory": 5184,
      "Ġ<<": 5185,
      "Removes": 5186,
      "normalize": 5187,
      "Ġfixed": 5188,
      "Ġdeploy": 5189,
      "era": 5190,
      "Ġmount": 5191,
      "ppend": 5192,
      "plugins": 5193,
      "prompt": 5194,
      "yment": 5195,
      "selected": 5196,
      "è¯": 5197,
      "Ġ')": 5198,
      "library": 5199,
      "Perform": 5200,
      "ĠSQL": 5201,
      "Construct": 5202,
      "ral": 5203,
      "Ġfd": 5204,
      "Ġhapp": 5205,
      "fasta": 5206,
      "cwd": 5207,
      "seed": 5208,
      "Ġwin": 5209,
      "Ġ[[": 5210,
      "Ġretrie": 5211,
      "Ġfactory": 5212,
      "tached": 5213,
      "reverse": 5214,
      "predi": 5215,
      "irst": 5216,
      "Ġserialized": 5217,
      "CONFIG": 5218,
      "Ġcer": 5219,
      "ĠPOST": 5220,
      "ĠVM": 5221,
      "functions": 5222,
      "push": 5223,
      "enable": 5224,
      "derer": 5225,
      "Pri": 5226,
      "Red": 5227,
      "CM": 5228,
      "åĲ": 5229,
      "/'": 5230,
      "_(": 5231,
      "Ġdicts": 5232,
      "gz": 5233,
      "ĠHandle": 5234,
      "google": 5235,
      "xim": 5236,
      "pairs": 5237,
      "menu": 5238,
      "Ġps": 5239,
      "ĠElement": 5240,
      "rstrip": 5241,
      "Ġpeer": 5242,
      "ience": 5243,
      "lag": 5244,
      "ĠGET": 5245,
      "Ġtor": 5246,
      "Ġindividual": 5247,
      "Params": 5248,
      "ips": 5249,
      "cn": 5250,
      "kernel": 5251,
      "Ġpag": 5252,
      "LECT": 5253,
      "Ġnegative": 5254,
      "park": 5255,
      "Ġve": 5256,
      "override": 5257,
      "ĠImportError": 5258,
      "Ass": 5259,
      "Ġreferences": 5260,
      "strument": 5261,
      "cpu": 5262,
      "\"\\": 5263,
      "DATA": 5264,
      "Ġtar": 5265,
      "Ġpriority": 5266,
      "solution": 5267,
      "Ġpatch": 5268,
      "prog": 5269,
      "Spec": 5270,
      "Ġturn": 5271,
      "Ġmenu": 5272,
      "logical": 5273,
      "Generates": 5274,
      "Ġprompt": 5275,
      "Ġnothing": 5276,
      "wraps": 5277,
      "Import": 5278,
      "Page": 5279,
      "epoch": 5280,
      "(\"/": 5281,
      "Ġtraceback": 5282,
      "Ġurllib": 5283,
      "usters": 5284,
      "Test": 5285,
      "nl": 5286,
      "jobs": 5287,
      "see": 5288,
      "lished": 5289,
      "Ġordered": 5290,
      "cogn": 5291,
      "(\\": 5292,
      "Can": 5293,
      "appings": 5294,
      "ĠWindows": 5295,
      "Ġplease": 5296,
      "Ġsurface": 5297,
      "iler": 5298,
      "assert": 5299,
      "mesh": 5300,
      "Ġcontroller": 5301,
      "FS": 5302,
      "PU": 5303,
      "Ġ~": 5304,
      "selection": 5305,
      "Ġnb": 5306,
      "Ġcoords": 5307,
      "Layer": 5308,
      "Ġdeprecated": 5309,
      "Ġ?": 5310,
      "variance": 5311,
      "Ġartifact": 5312,
      "Cur": 5313,
      "lang": 5314,
      "obs": 5315,
      "ĠClient": 5316,
      "modified": 5317,
      "Ġstill": 5318,
      "export": 5319,
      "Ġrv": 5320,
      "ĠOption": 5321,
      "Called": 5322,
      "hist": 5323,
      "Ġalt": 5324,
      "closed": 5325,
      "ValueError": 5326,
      "power": 5327,
      "terms": 5328,
      "div": 5329,
      "Thread": 5330,
      "switch": 5331,
      "sect": 5332,
      "ĠInt": 5333,
      "Ġinterpol": 5334,
      "Ġlater": 5335,
      "Ġisn": 5336,
      "Ġsync": 5337,
      "Ġtemporary": 5338,
      "ĠModel": 5339,
      "MENT": 5340,
      "Ġmarker": 5341,
      "transport": 5342,
      "Ġmime": 5343,
      "tein": 5344,
      "ĠArray": 5345,
      "HER": 5346,
      "Ġrdf": 5347,
      "Ġneighb": 5348,
      "Ġentire": 5349,
      "strict": 5350,
      "`:": 5351,
      "ftime": 5352,
      "Ġrepr": 5353,
      "Ġdum": 5354,
      "ĠBe": 5355,
      "pred": 5356,
      "Ġraises": 5357,
      "Ġdays": 5358,
      "Is": 5359,
      "pus": 5360,
      "Ġlatest": 5361,
      "IX": 5362,
      "('.')": 5363,
      "geo": 5364,
      "dx": 5365,
      "Ġsat": 5366,
      "getattr": 5367,
      "ike": 5368,
      "æľ": 5369,
      "ĠDictionary": 5370,
      "Ġuseful": 5371,
      "Tensor": 5372,
      "dl": 5373,
      "icon": 5374,
      "Select": 5375,
      "cod": 5376,
      "Ġprior": 5377,
      "ilio": 5378,
      "Ġface": 5379,
      "Ġcandidate": 5380,
      "Ġreduce": 5381,
      "Ġterms": 5382,
      "bre": 5383,
      "ptr": 5384,
      "ĠText": 5385,
      "ĠUT": 5386,
      "ĠNotImplementedError": 5387,
      "ĠSo": 5388,
      "ragma": 5389,
      "Ġtimezone": 5390,
      "failed": 5391,
      "Ġremaining": 5392,
      "Copy": 5393,
      "Ġsec": 5394,
      "Wrapper": 5395,
      "AML": 5396,
      "PY": 5397,
      "asis": 5398,
      "viation": 5399,
      ".',": 5400,
      "Ġconsole": 5401,
      "ouse": 5402,
      "Ġworkflow": 5403,
      "Ġmerged": 5404,
      "CL": 5405,
      "rectory": 5406,
      "Ġpositions": 5407,
      "Ġkeywords": 5408,
      "05": 5409,
      "LL": 5410,
      "Ġcast": 5411,
      "laces": 5412,
      "maked": 5413,
      "credentials": 5414,
      "comb": 5415,
      "cheduler": 5416,
      "Column": 5417,
      "Ġtz": 5418,
      "lict": 5419,
      "redirect": 5420,
      "Mem": 5421,
      "inf": 5422,
      "ĠTensor": 5423,
      "shift": 5424,
      "ĠWork": 5425,
      "VERSION": 5426,
      "Ġseen": 5427,
      "wards": 5428,
      "venience": 5429,
      "alf": 5430,
      "iso": 5431,
      "anner": 5432,
      "riteria": 5433,
      "pages": 5434,
      "Ġfigure": 5435,
      "Ġtick": 5436,
      "pick": 5437,
      "ORT": 5438,
      "('{": 5439,
      "Ġboot": 5440,
      "PIPE": 5441,
      "Ġshared": 5442,
      "anization": 5443,
      "destination": 5444,
      "Ġsock": 5445,
      "ĠHe": 5446,
      "sity": 5447,
      "è¿": 5448,
      "Ġpositive": 5449,
      "Ġtemperature": 5450,
      "Ġ).": 5451,
      "allowed": 5452,
      "Ġsegments": 5453,
      "iling": 5454,
      "instances": 5455,
      "collect": 5456,
      "('--": 5457,
      "DEBUG": 5458,
      "MAX": 5459,
      "Ġå": 5460,
      "Ġpresence": 5461,
      "Ġadds": 5462,
      "Ġsubscription": 5463,
      "crete": 5464,
      "Ġexpand": 5465,
      "itespace": 5466,
      "tables": 5467,
      "23": 5468,
      "Ġsha": 5469,
      "mlink": 5470,
      "builder": 5471,
      "outputs": 5472,
      "frames": 5473,
      "beta": 5474,
      "Execute": 5475,
      "Ġ32": 5476,
      "Ġannotation": 5477,
      "ever": 5478,
      "decor": 5479,
      "Ġspan": 5480,
      "plan": 5481,
      "onal": 5482,
      "Ġsigned": 5483,
      "amount": 5484,
      "splitlines": 5485,
      "Const": 5486,
      "Ġdouble": 5487,
      "Ġfails": 5488,
      "Ġpatterns": 5489,
      "Ġlogs": 5490,
      "devices": 5491,
      "Ġcookie": 5492,
      "acity": 5493,
      "PER": 5494,
      "lihood": 5495,
      "peat": 5496,
      "prepare": 5497,
      "Ġmig": 5498,
      "Ġpublish": 5499,
      "related": 5500,
      "ĠAss": 5501,
      "Ġchecked": 5502,
      "Ġrepresents": 5503,
      "Ġcard": 5504,
      "Ġworks": 5505,
      "reply": 5506,
      "XX": 5507,
      "anded": 5508,
      "()),": 5509,
      "egr": 5510,
      "ability": 5511,
      "diag": 5512,
      "Ġbehavi": 5513,
      "pot": 5514,
      "Ġunpack": 5515,
      "configs": 5516,
      ")(": 5517,
      "SL": 5518,
      "ond": 5519,
      "uest": 5520,
      "')]": 5521,
      "machine": 5522,
      "Ġintegr": 5523,
      "generated": 5524,
      "ection": 5525,
      "best": 5526,
      "Ġstrict": 5527,
      "âĶ": 5528,
      "dec": 5529,
      "ĠStop": 5530,
      "Ġplay": 5531,
      "OM": 5532,
      "Ġindicating": 5533,
      "NE": 5534,
      "Ġbuilder": 5535,
      "Ġtransition": 5536,
      "Ġvideo": 5537,
      "prob": 5538,
      "ĠMA": 5539,
      "ĠMo": 5540,
      "Ġunknown": 5541,
      "Ġfun": 5542,
      "Ġpixel": 5543,
      "Ġmandatory": 5544,
      "ĠTra": 5545,
      "strftime": 5546,
      "Header": 5547,
      "Ġsubset": 5548,
      "Ġsubnet": 5549,
      "Ab": 5550,
      "Ġproc": 5551,
      "ĠEvent": 5552,
      "rant": 5553,
      "correct": 5554,
      "Ġsender": 5555,
      "accept": 5556,
      "ĠService": 5557,
      "Ġobjective": 5558,
      "Ġadding": 5559,
      "lu": 5560,
      "FIX": 5561,
      ".%": 5562,
      "CF": 5563,
      "II": 5564,
      "sin": 5565,
      "Ġlang": 5566,
      "mar": 5567,
      "Ġanaly": 5568,
      "bins": 5569,
      "Collection": 5570,
      "Ġdjango": 5571,
      "publish": 5572,
      "Network": 5573,
      "neg": 5574,
      "Ġconstructor": 5575,
      "click": 5576,
      "tl": 5577,
      "splitext": 5578,
      "Ġdependency": 5579,
      "tod": 5580,
      "ĠField": 5581,
      "Ġhandlers": 5582,
      "lst": 5583,
      "ĠTuple": 5584,
      "sections": 5585,
      "Ġassigned": 5586,
      "minion": 5587,
      "compat": 5588,
      "ĠDelete": 5589,
      "Ġfamily": 5590,
      "Ġfs": 5591,
      "okies": 5592,
      "aut": 5593,
      "Ġnull": 5594,
      "Ġaddresses": 5595,
      "Split": 5596,
      "Ġord": 5597,
      "ym": 5598,
      "rase": 5599,
      "Ġthreads": 5600,
      "ĠResource": 5601,
      "`)": 5602,
      "atype": 5603,
      "Ġrelationship": 5604,
      ",))": 5605,
      "Ġrecent": 5606,
      "ĠOver": 5607,
      "Ġsentence": 5608,
      "Ġnumeric": 5609,
      "based": 5610,
      "ĠInter": 5611,
      "reason": 5612,
      "outine": 5613,
      "super": 5614,
      "ranscript": 5615,
      "candid": 5616,
      "screen": 5617,
      "break": 5618,
      "Ġlayers": 5619,
      "Ġplugins": 5620,
      "Ġmade": 5621,
      ".'.": 5622,
      "partial": 5623,
      "=['": 5624,
      "\\'": 5625,
      "ardware": 5626,
      "Ġiteration": 5627,
      "Ġboto": 5628,
      "Ġasyncio": 5629,
      "Ġ60": 5630,
      "redis": 5631,
      "Ġqui": 5632,
      "ĠAdds": 5633,
      "compress": 5634,
      "ARN": 5635,
      ">'": 5636,
      "cred": 5637,
      "Ġprecision": 5638,
      "ully": 5639,
      "USER": 5640,
      "ĠĠĠĠĠĠĠĠĠĠĠĠĠĠĠĠĠĠĠĠĠĠĠĠĠĠĠĠĠĠĠĠĠĠĠĠĠĠĠĠĠĠĠĠĠ": 5641,
      "Ġoutfile": 5642,
      "Ġstatistics": 5643,
      "css": 5644,
      "schedule": 5645,
      "ane": 5646,
      "Ġmot": 5647,
      "orizon": 5648,
      "else": 5649,
      ")',": 5650,
      "Dir": 5651,
      "Ġlinear": 5652,
      "ĠGets": 5653,
      "Ġcomments": 5654,
      "ja": 5655,
      "Ġ20": 5656,
      "optim": 5657,
      "future": 5658,
      "NG": 5659,
      "Ġbelow": 5660,
      "Ġreads": 5661,
      "Ġvectors": 5662,
      "Ġactually": 5663,
      "otype": 5664,
      "ĠUnicode": 5665,
      "entities": 5666,
      "chars": 5667,
      "Ġsmall": 5668,
      "Ġcertain": 5669,
      "Num": 5670,
      "tw": 5671,
      "Ġener": 5672,
      "Ġpreviously": 5673,
      "Ġsigma": 5674,
      "tar": 5675,
      "Display": 5676,
      "Determine": 5677,
      "Ġflat": 5678,
      "ĠNew": 5679,
      "Ext": 5680,
      "mq": 5681,
      "Sequence": 5682,
      "Reference": 5683,
      "Ġdigest": 5684,
      "Ġcompare": 5685,
      "suppress": 5686,
      "ĠĠĠĠĠĠĠĠĠĠĠĠĠĠĠĠĠĠĠĠĠĠĠĠĠĠĠĠĠĠĠĠĠĠĠĠĠĠĠĠĠĠĠĠ": 5687,
      "Metadata": 5688,
      ")\\": 5689,
      "scriptions": 5690,
      "covery": 5691,
      "ĠInitial": 5692,
      "versed": 5693,
      "HEAD": 5694,
      "Ġslug": 5695,
      "week": 5696,
      "Ġpragma": 5697,
      "Ġlineno": 5698,
      "updated": 5699,
      "Ġperm": 5700,
      "Ġinterpre": 5701,
      "Ġexecuted": 5702,
      "Ġvertex": 5703,
      "Property": 5704,
      "With": 5705,
      "Ġmatplotlib": 5706,
      "valuate": 5707,
      "semble": 5708,
      "predict": 5709,
      "Ġfh": 5710,
      "leaf": 5711,
      "conv": 5712,
      "ĠFilter": 5713,
      "supported": 5714,
      "Be": 5715,
      "çĶ": 5716,
      "Ġpages": 5717,
      "perm": 5718,
      "flatten": 5719,
      "Ġresulting": 5720,
      "pending": 5721,
      "png": 5722,
      "Ġdiag": 5723,
      "SIG": 5724,
      "Pass": 5725,
      "analysis": 5726,
      "*(": 5727,
      "tp": 5728,
      "Ġchecksum": 5729,
      "phi": 5730,
      "Ġobtain": 5731,
      "Stop": 5732,
      "Ġfree": 5733,
      "Ġscores": 5734,
      "Ġdocker": 5735,
      "disable": 5736,
      "estim": 5737,
      "logs": 5738,
      "Ġratio": 5739,
      "Decorator": 5740,
      "BO": 5741,
      "compliance": 5742,
      "ĠState": 5743,
      "ndim": 5744,
      "Ġbad": 5745,
      "olds": 5746,
      "ĠProcess": 5747,
      "adapter": 5748,
      "gateway": 5749,
      "Ġredis": 5750,
      "Ġenviron": 5751,
      "Internal": 5752,
      "'{": 5753,
      "lier": 5754,
      "Ġconnections": 5755,
      "Ġquote": 5756,
      "fc": 5757,
      "[:]": 5758,
      "ĠCompute": 5759,
      "40": 5760,
      "YANG": 5761,
      "Ġep": 5762,
      "Ġstarted": 5763,
      "Fetch": 5764,
      "Ġframes": 5765,
      ".\".": 5766,
      "DU": 5767,
      "Range": 5768,
      "dp": 5769,
      "Ġhuman": 5770,
      "Ġunable": 5771,
      "Ġflatten": 5772,
      "Ġhosts": 5773,
      "Ġunderlying": 5774,
      "LOGGER": 5775,
      "SD": 5776,
      "endar": 5777,
      "Ġoptionally": 5778,
      "Ġbundle": 5779,
      "ison": 5780,
      "illi": 5781,
      "embed": 5782,
      "Ġready": 5783,
      "Ġlisten": 5784,
      "Port": 5785,
      "Su": 5786,
      "Defin": 5787,
      "ĠSend": 5788,
      "prev": 5789,
      "Ġloss": 5790,
      "Ġvals": 5791,
      "CODE": 5792,
      "Mark": 5793,
      "mass": 5794,
      "argin": 5795,
      "visible": 5796,
      "adcast": 5797,
      "Ġrequirements": 5798,
      "ĠMethod": 5799,
      "Ġaverage": 5800,
      "controller": 5801,
      "Transform": 5802,
      "Ġ'{}'": 5803,
      "clusive": 5804,
      "except": 5805,
      "Ġmx": 5806,
      "chat": 5807,
      "pipeline": 5808,
      "CA": 5809,
      "Ġappe": 5810,
      ".\\": 5811,
      "Ġgeometry": 5812,
      "Ġcells": 5813,
      "Ġcontract": 5814,
      "makedirs": 5815,
      "mas": 5816,
      "Ġdepending": 5817,
      "Container": 5818,
      "255": 5819,
      "cluded": 5820,
      "inger": 5821,
      "radi": 5822,
      "versions": 5823,
      "itable": 5824,
      "statement": 5825,
      "dependencies": 5826,
      "90": 5827,
      "_:": 5828,
      "rgb": 5829,
      "æķ": 5830,
      "Ġfreq": 5831,
      "constants": 5832,
      "amera": 5833,
      "Ġmodify": 5834,
      "mu": 5835,
      "ality": 5836,
      "ptime": 5837,
      "Ġtyp": 5838,
      "Ġbig": 5839,
      "assessment": 5840,
      "docker": 5841,
      "unknown": 5842,
      "Ġcases": 5843,
      "Ġcontact": 5844,
      "indexes": 5845,
      "Change": 5846,
      "band": 5847,
      "program": 5848,
      "XT": 5849,
      "fact": 5850,
      "Decode": 5851,
      "findall": 5852,
      ")-": 5853,
      "ially": 5854,
      "Ġcomplex": 5855,
      "uer": 5856,
      "Ġsynchronous": 5857,
      "ilent": 5858,
      "rank": 5859,
      "Ġcaller": 5860,
      "Ġcontained": 5861,
      "Ġphase": 5862,
      "\"'": 5863,
      "Ġcb": 5864,
      "illar": 5865,
      "Ut": 5866,
      "Ġssh": 5867,
      "den": 5868,
      "fa": 5869,
      "nail": 5870,
      "Ġdialog": 5871,
      "Ġdecimal": 5872,
      "chemy": 5873,
      "Ġconstant": 5874,
      "Ġdocs": 5875,
      "views": 5876,
      "Ġhandling": 5877,
      "ãĢ": 5878,
      "Back": 5879,
      "roid": 5880,
      "permission": 5881,
      "anit": 5882,
      "ONE": 5883,
      "Ġvalidator": 5884,
      "soft": 5885,
      "marker": 5886,
      "px": 5887,
      "Ġev": 5888,
      "Ġmass": 5889,
      "96": 5890,
      "aken": 5891,
      "timedelta": 5892,
      "oked": 5893,
      "Ġdefine": 5894,
      "Ġargparse": 5895,
      "Ġpersist": 5896,
      "Ġpending": 5897,
      "lette": 5898,
      "Ġhig": 5899,
      "izing": 5900,
      "ritical": 5901,
      "ĠHttp": 5902,
      "Ġmultip": 5903,
      "PUT": 5904,
      "unset": 5905,
      "workflow": 5906,
      "objective": 5907,
      "riend": 5908,
      "Ali": 5909,
      "Ġrecur": 5910,
      "CTION": 5911,
      "Length": 5912,
      "Formatter": 5913,
      "rmware": 5914,
      "Ġsolution": 5915,
      "istic": 5916,
      "Ġsa": 5917,
      "Ġminutes": 5918,
      "Location": 5919,
      "theta": 5920,
      "][\"": 5921,
      "Ġcompleted": 5922,
      "inner": 5923,
      "Ġformatter": 5924,
      "Ġonto": 5925,
      "CRE": 5926,
      "_%": 5927,
      "ĠST": 5928,
      "ratio": 5929,
      "Ġslot": 5930,
      "Ġchecking": 5931,
      "recv": 5932,
      "Variable": 5933,
      "roles": 5934,
      "cip": 5935,
      "peer": 5936,
      "Ġpixels": 5937,
      "Ġscipy": 5938,
      "Ġlocale": 5939,
      "Ġleg": 5940,
      "lapsed": 5941,
      "arange": 5942,
      "Ġgreater": 5943,
      "IF": 5944,
      "WN": 5945,
      "ulated": 5946,
      "vc": 5947,
      "alan": 5948,
      "84": 5949,
      "props": 5950,
      "Values": 5951,
      "ranspose": 5952,
      "ĠGroup": 5953,
      "bosity": 5954,
      "Ġtwilio": 5955,
      "Ġti": 5956,
      "Ġcreation": 5957,
      "Ġfact": 5958,
      "Ġpointer": 5959,
      ",'": 5960,
      "digit": 5961,
      "Setter": 5962,
      "FIEL": 5963,
      "36": 5964,
      "Ġ(:": 5965,
      "isinstance": 5966,
      "Ġaltern": 5967,
      "which": 5968,
      "aussian": 5969,
      "scores": 5970,
      "Ġinitialize": 5971,
      "Document": 5972,
      "oauth": 5973,
      "calls": 5974,
      "Python": 5975,
      "Ġexecutable": 5976,
      "sigma": 5977,
      "Ġderiv": 5978,
      "Ġsq": 5979,
      "ĠOne": 5980,
      "ĠUnion": 5981,
      "video": 5982,
      "levant": 5983,
      "Ġseparator": 5984,
      "PL": 5985,
      "Callback": 5986,
      "wt": 5987,
      "Ġcurr": 5988,
      "ĠĠĠĠĠĠĠĠĠĠĠĠĠĠĠĠĠĠĠĠĠĠĠĠĠĠĠĠĠĠĠĠĠĠĠĠĠĠĠĠĠĠĠĠĠĠ": 5989,
      "riction": 5990,
      "]).": 5991,
      "Ġurls": 5992,
      "Ġchoice": 5993,
      "semb": 5994,
      "strap": 5995,
      "sr": 5996,
      "Ġspect": 5997,
      "Ġruns": 5998,
      "Ġtransl": 5999,
      "ffic": 6000,
      "Ġseparate": 6001,
      "cookie": 6002,
      "asc": 6003,
      "ĠEnt": 6004,
      "aggreg": 6005,
      "Ġlocations": 6006,
      "alth": 6007,
      "urations": 6008,
      "MAP": 6009,
      "Ġimmediate": 6010,
      "Ġeval": 6011,
      "ading": 6012,
      "claration": 6013,
      "Vector": 6014,
      "game": 6015,
      "Ġtransport": 6016,
      "Ġactor": 6017,
      "rive": 6018,
      "bus": 6019,
      "Ġdry": 6020,
      "inder": 6021,
      "boolean": 6022,
      "ables": 6023,
      "ĠGraph": 6024,
      "Apply": 6025,
      "Module": 6026,
      "bi": 6027,
      "ench": 6028,
      "ategy": 6029,
      "basic": 6030,
      "equal": 6031,
      "mes": 6032,
      "Core": 6033,
      "disk": 6034,
      "azure": 6035,
      "Schema": 6036,
      "simple": 6037,
      "Exit": 6038,
      "Ġcurve": 6039,
      "calc": 6040,
      "-+-+-+-+-+-+-+-+": 6041,
      "([\"": 6042,
      "descriptor": 6043,
      "ĠChecks": 6044,
      "specific": 6045,
      "td": 6046,
      "Ġpush": 6047,
      "Ġrotation": 6048,
      "Ġasynchronously": 6049,
      "ĠRed": 6050,
      "âĶĢ": 6051,
      "cule": 6052,
      "ĠRep": 6053,
      "Ġprocesses": 6054,
      "HERE": 6055,
      "MI": 6056,
      "Ġtranslation": 6057,
      "Proxy": 6058,
      "1000": 6059,
      "unn": 6060,
      "Ġconv": 6061,
      "ĠCON": 6062,
      "Ġcodes": 6063,
      ")+": 6064,
      "Results": 6065,
      "Ġgets": 6066,
      "ĠUsed": 6067,
      "Ġrout": 6068,
      "Ġsections": 6069,
      "ĠNotes": 6070,
      "Ġnotebook": 6071,
      "rum": 6072,
      "Ġconsumer": 6073,
      "Ġdecorated": 6074,
      "Ġmanifest": 6075,
      "watch": 6076,
      "Ġcross": 6077,
      "Ġtheta": 6078,
      "Ġchoices": 6079,
      "lacklist": 6080,
      "pag": 6081,
      "Timeout": 6082,
      "tle": 6083,
      "}},": 6084,
      "ĠDesc": 6085,
      "lices": 6086,
      "named": 6087,
      "ĠSalt": 6088,
      "Ġkeyid": 6089,
      "Ġintegers": 6090,
      "Cache": 6091,
      "GI": 6092,
      "itation": 6093,
      "ĠNetwork": 6094,
      "ĠExtract": 6095,
      "Ġpull": 6096,
      "Ġsca": 6097,
      "Ġstage": 6098,
      "Ġetree": 6099,
      "Ġpickle": 6100,
      "Ġpie": 6101,
      "Ġ'/'": 6102,
      "anism": 6103,
      "HO": 6104,
      "ĠThere": 6105,
      "ipher": 6106,
      "Ġprice": 6107,
      "pology": 6108,
      "ĠOperationFailed": 6109,
      "75": 6110,
      "ueprint": 6111,
      "forward": 6112,
      "Ġbeta": 6113,
      "Match": 6114,
      "uation": 6115,
      "ĠNOTE": 6116,
      "Ġbook": 6117,
      "ields": 6118,
      "Try": 6119,
      "æĪ": 6120,
      "Channel": 6121,
      "Does": 6122,
      "aws": 6123,
      "seg": 6124,
      "enari": 6125,
      "ĠTry": 6126,
      "segments": 6127,
      "Max": 6128,
      "]],": 6129,
      "Ġdynamic": 6130,
      "pec": 6131,
      "threads": 6132,
      "OF": 6133,
      "sa": 6134,
      "ised": 6135,
      "Ġentities": 6136,
      "Ġchat": 6137,
      "price": 6138,
      "desk": 6139,
      "Render": 6140,
      "bad": 6141,
      "deepcopy": 6142,
      "external": 6143,
      "atting": 6144,
      "geometry": 6145,
      "flux": 6146,
      "pd": 6147,
      "ĠÐ": 6148,
      "extensions": 6149,
      "ĠNull": 6150,
      "Configuration": 6151,
      "Ġlogical": 6152,
      "Ġannotations": 6153,
      "Ġvocab": 6154,
      "repos": 6155,
      "Ġfully": 6156,
      "cally": 6157,
      "Ġones": 6158,
      "Rece": 6159,
      "CESS": 6160,
      "Ġmu": 6161,
      "aps": 6162,
      "Ġterminal": 6163,
      "ĠDjango": 6164,
      "Ġbottom": 6165,
      "(%": 6166,
      "Pol": 6167,
      "ims": 6168,
      "primary": 6169,
      "ĠTable": 6170,
      "listdir": 6171,
      "Only": 6172,
      "supports": 6173,
      "ordered": 6174,
      "TED": 6175,
      "pandas": 6176,
      "ĠFROM": 6177,
      "Ġtimedelta": 6178,
      "Calculates": 6179,
      "URI": 6180,
      "Factory": 6181,
      "PTION": 6182,
      "ĠCalculate": 6183,
      "}/{": 6184,
      "Ġpi": 6185,
      "Ġbins": 6186,
      "Operation": 6187,
      "hour": 6188,
      "ini": 6189,
      "orization": 6190,
      "Ġ*=": 6191,
      "cancel": 6192,
      "deploy": 6193,
      "Ġsupports": 6194,
      "Reader": 6195,
      "Ġstarts": 6196,
      "servers": 6197,
      "Ġlimits": 6198,
      "measure": 6199,
      "umbnail": 6200,
      "Ġwalk": 6201,
      "asarray": 6202,
      "Ġadapter": 6203,
      "Ġdelimiter": 6204,
      "ĠRetrieve": 6205,
      "Ġrouter": 6206,
      "radius": 6207,
      "virtual": 6208,
      "wiki": 6209,
      "using": 6210,
      "Ġinstanti": 6211,
      "Ġanswer": 6212,
      "ached": 6213,
      "Ġgu": 6214,
      "existing": 6215,
      "Ġmp": 6216,
      "DATE": 6217,
      "oted": 6218,
      "Normal": 6219,
      "ysical": 6220,
      "Ġbuff": 6221,
      "Ġroom": 6222,
      "Ġsuccessfully": 6223,
      "Ġtre": 6224,
      "ĠSetter": 6225,
      "Ġtxt": 6226,
      "yles": 6227,
      "('{}": 6228,
      "uplicates": 6229,
      "Order": 6230,
      "RR": 6231,
      "sender": 6232,
      "Ġden": 6233,
      "algorithm": 6234,
      "callpoint": 6235,
      "YY": 6236,
      "'%": 6237,
      "Takes": 6238,
      "Ġloader": 6239,
      "Ġproduce": 6240,
      "mav": 6241,
      "latest": 6242,
      "Ġ,": 6243,
      "Ġ255": 6244,
      "ĠContent": 6245,
      "ka": 6246,
      "Ġfilesystem": 6247,
      "Ġdegrees": 6248,
      "Writes": 6249,
      "Ġgame": 6250,
      "And": 6251,
      "âĢ": 6252,
      "Ġadjust": 6253,
      "ctools": 6254,
      "cov": 6255,
      "Ġ::": 6256,
      "ĉĉčĊ": 6257,
      "Ġabort": 6258,
      "anaged": 6259,
      "itch": 6260,
      "[(": 6261,
      "lour": 6262,
      "Ġprepare": 6263,
      "callable": 6264,
      "arest": 6265,
      "Ġserialize": 6266,
      "Tuple": 6267,
      "decimal": 6268,
      "Ġcred": 6269,
      "Ġdue": 6270,
      "Ġvisible": 6271,
      "New": 6272,
      "ĠĠĠĠĠĠĠĠĠĠĠĠĠĠĠĠĠĠĠĠĠĠĠĠĠĠĠĠĠĠĠĠĠĠĠĠĠĠĠĠĠĠĠĠĠĠĠ": 6273,
      "Child": 6274,
      "Ġparents": 6275,
      "FORMAT": 6276,
      "Ġhidden": 6277,
      "Ġsymbols": 6278,
      "/:": 6279,
      "Queue": 6280,
      "Ġwatch": 6281,
      "Any": 6282,
      "ĠServer": 6283,
      "Ġchrom": 6284,
      "ĠShould": 6285,
      "Option": 6286,
      "rp": 6287,
      "categories": 6288,
      "rev": 6289,
      "ĠFirst": 6290,
      "ixed": 6291,
      "Ġbackup": 6292,
      "Ġconditions": 6293,
      "Ġpredicate": 6294,
      "78": 6295,
      "Ġ'':": 6296,
      "comments": 6297,
      "OUT": 6298,
      "SQL": 6299,
      "Ġdifference": 6300,
      "Ġtyping": 6301,
      "Off": 6302,
      "ĠMax": 6303,
      "catenate": 6304,
      "tc": 6305,
      "timer": 6306,
      "Types": 6307,
      "Ġmonitor": 6308,
      "Ġdecoded": 6309,
      "agement": 6310,
      "Insert": 6311,
      "Pub": 6312,
      "Ġdocuments": 6313,
      "=''": 6314,
      "wn": 6315,
      "Ġcourse": 6316,
      "ĠGo": 6317,
      "Ġreceive": 6318,
      "Cloud": 6319,
      "MIN": 6320,
      "double": 6321,
      "Ġshift": 6322,
      "vocation": 6323,
      "Meta": 6324,
      "orth": 6325,
      "Ġprobability": 6326,
      "Me": 6327,
      "Ġaudio": 6328,
      "Ġrevision": 6329,
      "Ġdd": 6330,
      "Ġband": 6331,
      "Ġrc": 6332,
      "LAGS": 6333,
      "eo": 6334,
      "hip": 6335,
      "ali": 6336,
      "Ġresponses": 6337,
      "Ġicon": 6338,
      "Ġroles": 6339,
      "FC": 6340,
      "Ġspa": 6341,
      "Ġnoise": 6342,
      "Ġsyntax": 6343,
      "Execution": 6344,
      "\">": 6345,
      "many": 6346,
      "getter": 6347,
      "Enabled": 6348,
      "distribution": 6349,
      "Ġunless": 6350,
      "Ġ-----": 6351,
      "ĠResult": 6352,
      "Url": 6353,
      "æĹ": 6354,
      "room": 6355,
      "chrom": 6356,
      "Authentic": 6357,
      "Ġwhole": 6358,
      "Dataset": 6359,
      "Ġselector": 6360,
      "('<": 6361,
      "ermines": 6362,
      "Ġ])": 6363,
      "reci": 6364,
      "Ġsid": 6365,
      "trigger": 6366,
      "tor": 6367,
      "(\"{": 6368,
      "Ġresid": 6369,
      "anguages": 6370,
      "iddleware": 6371,
      "Ġ'#": 6372,
      "clip": 6373,
      "NOT": 6374,
      "Rule": 6375,
      "You": 6376,
      "dating": 6377,
      "ĠWill": 6378,
      "RED": 6379,
      "Control": 6380,
      "gether": 6381,
      "ĠNOT": 6382,
      "ĠBlock": 6383,
      "Fail": 6384,
      "SM": 6385,
      "ĠTask": 6386,
      "ensure": 6387,
      "Host": 6388,
      "70": 6389,
      "Ġtemplates": 6390,
      "visit": 6391,
      "Ġlongitude": 6392,
      "deleted": 6393,
      "Ġsyn": 6394,
      "connections": 6395,
      "Ġhyper": 6396,
      "Ġanything": 6397,
      "Ġincludes": 6398,
      "ĠWeb": 6399,
      "ĠIPv": 6400,
      "projects": 6401,
      "ao": 6402,
      "STAT": 6403,
      "æķ°": 6404,
      "vol": 6405,
      "Ġenergy": 6406,
      "AF": 6407,
      "big": 6408,
      "Ġms": 6409,
      "Ġmut": 6410,
      "processor": 6411,
      "ni": 6412,
      "Ġthree": 6413,
      "permissions": 6414,
      "Ġalignment": 6415,
      "rou": 6416,
      "submit": 6417,
      ">`_": 6418,
      "Dist": 6419,
      "Ġradi": 6420,
      "attice": 6421,
      "Ġspeed": 6422,
      "Ġvars": 6423,
      "ĠMark": 6424,
      "MODE": 6425,
      "Close": 6426,
      "']),": 6427,
      "ĠPrint": 6428,
      "Ġrespon": 6429,
      "Ġdec": 6430,
      "NotFoundError": 6431,
      "Description": 6432,
      "orizontal": 6433,
      "patterns": 6434,
      "ĠSy": 6435,
      "templates": 6436,
      "Ġcountry": 6437,
      "esian": 6438,
      "35": 6439,
      "padding": 6440,
      "ssib": 6441,
      "Ġconfigure": 6442,
      "Options": 6443,
      "Ġxmlns": 6444,
      "Out": 6445,
      "atched": 6446,
      "Ġflux": 6447,
      "joint": 6448,
      "ĠGit": 6449,
      "SELECT": 6450,
      "sel": 6451,
      "posed": 6452,
      "ĠCSV": 6453,
      "çĶ¨": 6454,
      "inja": 6455,
      "Ġnative": 6456,
      "ĠMust": 6457,
      "pher": 6458,
      "95": 6459,
      "getLogger": 6460,
      "dictionary": 6461,
      "Ġsuitable": 6462,
      "Ġspaces": 6463,
      "AUT": 6464,
      "()`": 6465,
      "Ġ'.'": 6466,
      "Min": 6467,
      "Ġgeo": 6468,
      "Template": 6469,
      "fw": 6470,
      "ĠOutput": 6471,
      "linear": 6472,
      "ior": 6473,
      "rd": 6474,
      "nsupported": 6475,
      "Lookup": 6476,
      "mot": 6477,
      "relative": 6478,
      "Ġ*,": 6479,
      "Plot": 6480,
      "Ġpan": 6481,
      "ident": 6482,
      "See": 6483,
      "Ġincoming": 6484,
      "rozen": 6485,
      "ĠInst": 6486,
      "Ġdatasets": 6487,
      "Ġcalculated": 6488,
      "RPC": 6489,
      "](": 6490,
      "frequency": 6491,
      "Ġattached": 6492,
      "scalar": 6493,
      "dom": 6494,
      "ĠNum": 6495,
      "lify": 6496,
      "aster": 6497,
      "Ġqueries": 6498,
      "Ġsending": 6499,
      "'}},": 6500,
      "Ġwa": 6501,
      "absolute": 6502,
      "LS": 6503,
      "keywords": 6504,
      "Ġmaps": 6505,
      "Ġinitialized": 6506,
      "agraph": 6507,
      "Ġcost": 6508,
      "pient": 6509,
      "ĠAd": 6510,
      "pping": 6511,
      "pointer": 6512,
      "Ġintervals": 6513,
      "levels": 6514,
      "fcoe": 6515,
      "ĠCurrent": 6516,
      "ĠGO": 6517,
      "ULL": 6518,
      "Ġlatitude": 6519,
      "Ġextracted": 6520,
      "ital": 6521,
      "Ġclone": 6522,
      "servations": 6523,
      "grams": 6524,
      "æĸĩ": 6525,
      "Ġeps": 6526,
      "Ġklass": 6527,
      "{})": 6528,
      "ibration": 6529,
      "inx": 6530,
      "atial": 6531,
      "Ġbytearray": 6532,
      "ĠToken": 6533,
      "ildcard": 6534,
      "charact": 6535,
      "Struct": 6536,
      "console": 6537,
      "ĠCO": 6538,
      "rences": 6539,
      "Ġloading": 6540,
      "åĽ": 6541,
      "Ġpress": 6542,
      "VALUE": 6543,
      "()}": 6544,
      "iration": 6545,
      "Generator": 6546,
      "ĠConverts": 6547,
      "!\")": 6548,
      "\"][": 6549,
      "tuples": 6550,
      "CI": 6551,
      "Rel": 6552,
      "etches": 6553,
      "acl": 6554,
      "Ġfinished": 6555,
      "Ġduplicate": 6556,
      "Ġsparse": 6557,
      "Ġbus": 6558,
      "blems": 6559,
      "Ġdirs": 6560,
      "ĠConnection": 6561,
      "Cursor": 6562,
      "vocab": 6563,
      "Loads": 6564,
      "Ġdaemon": 6565,
      "Admin": 6566,
      "66": 6567,
      "Ġstatements": 6568,
      "Ġyields": 6569,
      "riptor": 6570,
      ">,": 6571,
      "Ġtax": 6572,
      "chr": 6573,
      "Ġresolved": 6574,
      "ĠHow": 6575,
      "Ġgood": 6576,
      "ãĢĤ": 6577,
      "Ġresolution": 6578,
      "XML": 6579,
      "ĠKeyword": 6580,
      "85": 6581,
      "Agent": 6582,
      "ste": 6583,
      "Ġsever": 6584,
      "Ġhome": 6585,
      "Ġ{}).": 6586,
      "ĠSequence": 6587,
      "Ġcandidates": 6588,
      "etc": 6589,
      "grad": 6590,
      "å¤": 6591,
      "Ġweek": 6592,
      "Names": 6593,
      "issue": 6594,
      "ubclass": 6595,
      "major": 6596,
      "Missing": 6597,
      "ĠAb": 6598,
      "ropo": 6599,
      "uggest": 6600,
      "speed": 6601,
      "Vis": 6602,
      "Ġpip": 6603,
      "locals": 6604,
      "ĠPermission": 6605,
      ")``": 6606,
      "linalg": 6607,
      "Ġstypes": 6608,
      "Comm": 6609,
      "plus": 6610,
      "Ġderived": 6611,
      "Ids": 6612,
      "qs": 6613,
      "å®": 6614,
      "Ġeas": 6615,
      "Bad": 6616,
      "vered": 6617,
      "team": 6618,
      "Label": 6619,
      "hat": 6620,
      "Ġtrip": 6621,
      "Ġarbit": 6622,
      "Storage": 6623,
      "DELETE": 6624,
      "Med": 6625,
      "gu": 6626,
      "Ġdispatch": 6627,
      "ĠYAML": 6628,
      "subnet": 6629,
      ",),": 6630,
      "eration": 6631,
      "Ġvol": 6632,
      "Ġencoder": 6633,
      "Flow": 6634,
      "course": 6635,
      "dia": 6636,
      "phab": 6637,
      "rouped": 6638,
      "DR": 6639,
      "detect": 6640,
      "Ġpred": 6641,
      "Ġconstraints": 6642,
      "mediator": 6643,
      "Ġencrypted": 6644,
      "dispatch": 6645,
      "HA": 6646,
      "QUE": 6647,
      "Ġscene": 6648,
      "('/')": 6649,
      "Ġfallback": 6650,
      "ARNING": 6651,
      "ĠPlease": 6652,
      "Ġvs": 6653,
      "Ġqs": 6654,
      "Ra": 6655,
      "mig": 6656,
      "tax": 6657,
      "executable": 6658,
      "ventory": 6659,
      "Ġprevent": 6660,
      "Ġformats": 6661,
      "Project": 6662,
      "CHE": 6663,
      "Ġconstraint": 6664,
      "Ġcalc": 6665,
      "äº": 6666,
      "lecule": 6667,
      "Ġshare": 6668,
      "Ġseparated": 6669,
      "Ġmagic": 6670,
      "dependent": 6671,
      "Target": 6672,
      "è¡": 6673,
      "Ġes": 6674,
      "maps": 6675,
      "serializer": 6676,
      "Encode": 6677,
      "remo": 6678,
      "/{}": 6679,
      "Clear": 6680,
      "complex": 6681,
      "Ġports": 6682,
      "car": 6683,
      "ranges": 6684,
      "Ġgithub": 6685,
      "validation": 6686,
      "formatter": 6687,
      "pin": 6688,
      "agger": 6689,
      "coordinates": 6690,
      "dep": 6691,
      "frac": 6692,
      "bg": 6693,
      "Ġsampling": 6694,
      "(\".": 6695,
      "micro": 6696,
      "tour": 6697,
      "dicts": 6698,
      "Ġwriting": 6699,
      "locale": 6700,
      "sentence": 6701,
      "Computes": 6702,
      "Hash": 6703,
      "syn": 6704,
      "Ġten": 6705,
      "previous": 6706,
      "ĠNullArgument": 6707,
      "Ġinplace": 6708,
      "Ġssl": 6709,
      "Ġchars": 6710,
      "ĠSearch": 6711,
      "Ð°": 6712,
      "ĠFe": 6713,
      "Ġeverything": 6714,
      "ĠAssert": 6715,
      "DA": 6716,
      "bundle": 6717,
      "jac": 6718,
      "Ġserializer": 6719,
      "Multi": 6720,
      "Ġok": 6721,
      "Rep": 6722,
      "ranches": 6723,
      "green": 6724,
      "Bytes": 6725,
      "Ġvertices": 6726,
      "Ġbank": 6727,
      "riendly": 6728,
      "+'": 6729,
      "AA": 6730,
      "Ph": 6731,
      "byref": 6732,
      "star": 6733,
      "setting": 6734,
      "Ġ=>": 6735,
      "Ġ\\\\": 6736,
      "ee": 6737,
      "alive": 6738,
      "Ġtogether": 6739,
      "']):": 6740,
      "ART": 6741,
      "poly": 6742,
      "]}": 6743,
      "mime": 6744,
      "sites": 6745,
      "Ġang": 6746,
      "fixed": 6747,
      "Ġ\"\")": 6748,
      "Ġtimer": 6749,
      "Ġgive": 6750,
      "intf": 6751,
      "Ġ15": 6752,
      "iterator": 6753,
      "Pool": 6754,
      "tn": 6755,
      "unity": 6756,
      "LED": 6757,
      "notify": 6758,
      "enc": 6759,
      "Ġdates": 6760,
      "lid": 6761,
      "iving": 6762,
      "ird": 6763,
      "MQ": 6764,
      "Ġcompletion": 6765,
      "CB": 6766,
      "Draw": 6767,
      "phabet": 6768,
      ">\\": 6769,
      "activity": 6770,
      "Ġlevels": 6771,
      "Ġhit": 6772,
      "Ġ[-": 6773,
      "curacy": 6774,
      "Wait": 6775,
      "href": 6776,
      "ĠDec": 6777,
      "Ġ------": 6778,
      "mc": 6779,
      "circ": 6780,
      "ĠQu": 6781,
      "Ġbelon": 6782,
      "Ġretrieved": 6783,
      "posure": 6784,
      "Ġtests": 6785,
      "ĠSeries": 6786,
      "Window": 6787,
      "izable": 6788,
      "(\"-": 6789,
      "ba": 6790,
      "jid": 6791,
      "iteral": 6792,
      "Interface": 6793,
      "Ġdep": 6794,
      "calculate": 6795,
      "Ġcompatibility": 6796,
      "Ġrelevant": 6797,
      "imit": 6798,
      "Ġreplacement": 6799,
      "flat": 6800,
      "Union": 6801,
      "ĠBackends": 6802,
      "Replace": 6803,
      "ĠCloud": 6804,
      ")\"\"\",": 6805,
      "åŃ": 6806,
      "Ġear": 6807,
      "Ġthrow": 6808,
      "figure": 6809,
      "READ": 6810,
      "Ġrecursively": 6811,
      "Ġpotential": 6812,
      "ilon": 6813,
      "currency": 6814,
      "limits": 6815,
      "__))": 6816,
      "chunks": 6817,
      "cnt": 6818,
      "enter": 6819,
      "Append": 6820,
      "Ġwrong": 6821,
      "callbacks": 6822,
      "Ġconfirm": 6823,
      "Ġquestion": 6824,
      "Args": 6825,
      "licies": 6826,
      "ingerprint": 6827,
      "sizes": 6828,
      "Ġcrypt": 6829,
      "ĠthisObj": 6830,
      "ĠMulti": 6831,
      "irt": 6832,
      "ĠYANGDynClass": 6833,
      "HEADER": 6834,
      "YANGDynClass": 6835,
      "Ġrev": 6836,
      "ampa": 6837,
      "Ġoverrid": 6838,
      "IST": 6839,
      "Ġæ": 6840,
      "Ġ\")": 6841,
      "Ġhappen": 6842,
      "dm": 6843,
      "Ġpin": 6844,
      "selector": 6845,
      "Ġevaluate": 6846,
      "fully": 6847,
      "Ġtrunc": 6848,
      "Ġfragment": 6849,
      "enario": 6850,
      "ampaign": 6851,
      "Ġinject": 6852,
      "ĠSim": 6853,
      "omial": 6854,
      "backup": 6855,
      "abilities": 6856,
      "Keys": 6857,
      "Feature": 6858,
      "Ġ##": 6859,
      "choices": 6860,
      "unnel": 6861,
      "PT": 6862,
      "Ġtaken": 6863,
      "ĠISO": 6864,
      "trip": 6865,
      "Ġgeneric": 6866,
      "Ġactivity": 6867,
      "canvas": 6868,
      "Temp": 6869,
      "åħ": 6870,
      "nested": 6871,
      "versal": 6872,
      "\"%": 6873,
      "Uni": 6874,
      "symbols": 6875,
      "Ġwaiting": 6876,
      "Exp": 6877,
      "fficients": 6878,
      "lasticsearch": 6879,
      "Gra": 6880,
      "azard": 6881,
      "wall": 6882,
      "Ġtail": 6883,
      "Ġsur": 6884,
      "ĠSystem": 6885,
      "Ġinverse": 6886,
      "locations": 6887,
      "Ġreplaced": 6888,
      "77": 6889,
      "pn": 6890,
      "Ð¾": 6891,
      "errno": 6892,
      "Ġsignals": 6893,
      "EV": 6894,
      "Sum": 6895,
      "mid": 6896,
      "(\"{}": 6897,
      "Ġassumed": 6898,
      "Post": 6899,
      "ĠNe": 6900,
      "Ġoverlap": 6901,
      "herit": 6902,
      "annotation": 6903,
      "TYPES": 6904,
      "stmt": 6905,
      "Ġcancel": 6906,
      "ctl": 6907,
      "fire": 6908,
      "sider": 6909,
      "statistics": 6910,
      "Mapping": 6911,
      "vcf": 6912,
      "recurs": 6913,
      "Ġenough": 6914,
      "parents": 6915,
      "Component": 6916,
      "Ġconstants": 6917,
      "Role": 6918,
      "ĠVer": 6919,
      "Profile": 6920,
      "legal": 6921,
      ").__": 6922,
      "bbox": 6923,
      "traceback": 6924,
      "contract": 6925,
      "Ġlistener": 6926,
      "ony": 6927,
      "annotations": 6928,
      "Ġdescribing": 6929,
      "cce": 6930,
      "ionError": 6931,
      "Ġhour": 6932,
      "ĠAR": 6933,
      "Ġdeg": 6934,
      "SK": 6935,
      "aff": 6936,
      "ev": 6937,
      "tep": 6938,
      "Deletes": 6939,
      "Ġtransfer": 6940,
      "Ġguess": 6941,
      "Ġdigits": 6942,
      "Def": 6943,
      "Ġissubclass": 6944,
      "404": 6945,
      "erred": 6946,
      "Ġbrowser": 6947,
      "Ġcompile": 6948,
      "bottom": 6949,
      "Func": 6950,
      "vance": 6951,
      "Ġmis": 6952,
      "effect": 6953,
      "ĠStr": 6954,
      "zure": 6955,
      "Ġranges": 6956,
      "Ġgradient": 6957,
      "ulative": 6958,
      "Ġsubstit": 6959,
      "Ġcategories": 6960,
      "Ġattachment": 6961,
      "Ġdensity": 6962,
      "Ġimported": 6963,
      "Iteration": 6964,
      "ĠDEFAULT": 6965,
      "Ensure": 6966,
      "browser": 6967,
      "listen": 6968,
      "ĠSE": 6969,
      "Ġcomputed": 6970,
      "ĠNotFound": 6971,
      "cognized": 6972,
      "hest": 6973,
      "Ġvlan": 6974,
      "Ġquant": 6975,
      "Ġclip": 6976,
      "expanduser": 6977,
      "Ġlst": 6978,
      "Ġprojection": 6979,
      "Application": 6980,
      "ssibly": 6981,
      "irtual": 6982,
      "Position": 6983,
      "exe": 6984,
      "ĠSign": 6985,
      "Directory": 6986,
      "voice": 6987,
      "lt": 6988,
      "Ġxrange": 6989,
      "Ġlonger": 6990,
      "ĠFormat": 6991,
      "eq": 6992,
      "Ġchart": 6993,
      "SCII": 6994,
      "=''):": 6995,
      "dence": 6996,
      "Ġbbox": 6997,
      "ĠAWS": 6998,
      "ipant": 6999,
      "ĠOR": 7000,
      "Ġfw": 7001,
      "prior": 7002,
      "=\"\",": 7003,
      "imal": 7004,
      "Ġpoly": 7005,
      "contact": 7006,
      "ĠSave": 7007,
      "Ġ|=": 7008,
      "ĠDataset": 7009,
      "war": 7010,
      "vertex": 7011,
      "`):": 7012,
      "experiment": 7013,
      "Ġlogged": 7014,
      "Ġcause": 7015,
      "Ġri": 7016,
      "va": 7017,
      "stdin": 7018,
      "Ġfraction": 7019,
      "diffe": 7020,
      "SCRI": 7021,
      "Edit": 7022,
      "AME": 7023,
      "INTER": 7024,
      "Ġcallbacks": 7025,
      "rad": 7026,
      "Ġlex": 7027,
      "mitive": 7028,
      "Ġnever": 7029,
      "poll": 7030,
      "509": 7031,
      "Ġhistogram": 7032,
      "Ġcriteria": 7033,
      "ĠClass": 7034,
      "may": 7035,
      "Ġpassing": 7036,
      "Ġdisabled": 7037,
      "Ġidentify": 7038,
      "Ġ(`": 7039,
      "Ġrgb": 7040,
      "ĠWHERE": 7041,
      "pet": 7042,
      "formatted": 7043,
      "Ġparallel": 7044,
      "namespaced": 7045,
      ")],": 7046,
      "Button": 7047,
      "Please": 7048,
      "Ġbug": 7049,
      "Ġprops": 7050,
      "outer": 7051,
      "Install": 7052,
      "Ġfg": 7053,
      "Ġsites": 7054,
      "Ġminion": 7055,
      "Ġextended": 7056,
      "relationship": 7057,
      "Account": 7058,
      "39": 7059,
      "URE": 7060,
      "outfile": 7061,
      "ored": 7062,
      "rdf": 7063,
      "appro": 7064,
      "Ġbehavior": 7065,
      "Ġwx": 7066,
      "Ġhandles": 7067,
      "Policy": 7068,
      "certificate": 7069,
      "mut": 7070,
      "Ġgetting": 7071,
      "ĠDate": 7072,
      "ampler": 7073,
      "Ġshard": 7074,
      "ĠInstance": 7075,
      "Char": 7076,
      "Ġvec": 7077,
      "Ġwhitespace": 7078,
      "minimum": 7079,
      "osen": 7080,
      "Ġfasta": 7081,
      "failure": 7082,
      "><": 7083,
      "contin": 7084,
      "resid": 7085,
      "Ġproperly": 7086,
      "Ġrendered": 7087,
      "Ġsleep": 7088,
      "aper": 7089,
      "(\"--": 7090,
      "ttributes": 7091,
      "Ġrestart": 7092,
      "()).": 7093,
      "ledge": 7094,
      "Ġ30": 7095,
      "nu": 7096,
      "Ðµ": 7097,
      "STATE": 7098,
      "bra": 7099,
      "Ġformatting": 7100,
      "positions": 7101,
      "Ġbinding": 7102,
      "Ġarbitrary": 7103,
      "Ġeg": 7104,
      "LOCK": 7105,
      "fh": 7106,
      "vcs": 7107,
      "}]": 7108,
      "slot": 7109,
      "ament": 7110,
      "Ġosid": 7111,
      "gered": 7112,
      "pended": 7113,
      "Ġphi": 7114,
      "constraints": 7115,
      "Ġhref": 7116,
      "GR": 7117,
      "encoder": 7118,
      "ints": 7119,
      "pied": 7120,
      "django": 7121,
      "ixin": 7122,
      "ç»": 7123,
      "Ġcanonical": 7124,
      "Pop": 7125,
      "aking": 7126,
      "Local": 7127,
      "Ġsimply": 7128,
      "ĠProject": 7129,
      "eral": 7130,
      "ĠThese": 7131,
      "Ġexactly": 7132,
      ")**": 7133,
      "isode": 7134,
      "ĠTakes": 7135,
      "readline": 7136,
      "queryset": 7137,
      "ientation": 7138,
      "Ġcomparison": 7139,
      "=',": 7140,
      "Cell": 7141,
      "dit": 7142,
      "Ġtransformation": 7143,
      "Ġinterfaces": 7144,
      "hooks": 7145,
      "ticks": 7146,
      "Ġcwd": 7147,
      "Ġseg": 7148,
      "manifest": 7149,
      "tb": 7150,
      "erce": 7151,
      "urther": 7152,
      "utit": 7153,
      "Ġprodu": 7154,
      "country": 7155,
      "regions": 7156,
      "ARY": 7157,
      "sparse": 7158,
      "cost": 7159,
      "Oper": 7160,
      "VM": 7161,
      "cator": 7162,
      "impl": 7163,
      "Ġobs": 7164,
      "Ġbroker": 7165,
      "did": 7166,
      "Ġacross": 7167,
      "Ġopened": 7168,
      "Current": 7169,
      "learn": 7170,
      "ĠTag": 7171,
      "dian": 7172,
      "sensitive": 7173,
      "Ġbasis": 7174,
      "lstrip": 7175,
      "raft": 7176,
      "mooth": 7177,
      "inator": 7178,
      "adjust": 7179,
      "usr": 7180,
      "Ġimmediately": 7181,
      "Ġpdf": 7182,
      "Ġincrement": 7183,
      "ropout": 7184,
      "vrf": 7185,
      "Ġcos": 7186,
      "ĠĠĠĠĠĠĠĠĠĠĠĠĠĠĠĠĠĠĠĠĠĠĠĠĠĠĠĠĠĠĠĠĠĠĠĠĠĠĠĠĠĠĠĠĠĠĠĠ": 7187,
      "Ġboard": 7188,
      "built": 7189,
      "Ġstdin": 7190,
      "Ġtb": 7191,
      "Ġdecla": 7192,
      "Main": 7193,
      "OB": 7194,
      "VICE": 7195,
      "alancer": 7196,
      "dimensions": 7197,
      "artifact": 7198,
      "shared": 7199,
      "parsers": 7200,
      "Cre": 7201,
      "Ġwhite": 7202,
      "ĠLe": 7203,
      "28": 7204,
      "Matrix": 7205,
      "Ġvery": 7206,
      "union": 7207,
      "Ġxy": 7208,
      "Ġregions": 7209,
      "Ġaccepted": 7210,
      "Ġam": 7211,
      "TEXT": 7212,
      "sequences": 7213,
      "Ġhashlib": 7214,
      "Runs": 7215,
      "Lib": 7216,
      "ĠEnd": 7217,
      "Ġoutside": 7218,
      "Ġassignment": 7219,
      "')):": 7220,
      "validator": 7221,
      "Ġreadable": 7222,
      ":],": 7223,
      "LATE": 7224,
      "Ġrather": 7225,
      "NotExist": 7226,
      "CAL": 7227,
      "Den": 7228,
      "world": 7229,
      "Ġeig": 7230,
      "Ġ\"<": 7231,
      "Style": 7232,
      "checks": 7233,
      "/.": 7234,
      "bum": 7235,
      "java": 7236,
      "Ġ24": 7237,
      "atoms": 7238,
      "Ġconsume": 7239,
      "configure": 7240,
      "ĠWrap": 7241,
      "({\"": 7242,
      "Allow": 7243,
      "lash": 7244,
      "ACHE": 7245,
      "Ġlarge": 7246,
      "âĶĢâĶĢ": 7247,
      "Ġnl": 7248,
      "Ġstmt": 7249,
      "Ġsubmission": 7250,
      "requirements": 7251,
      "Font": 7252,
      "rename": 7253,
      "ĠMap": 7254,
      "Ġ({": 7255,
      "ĠPass": 7256,
      "TEMP": 7257,
      "contains": 7258,
      "multip": 7259,
      "Ġmagnitude": 7260,
      "Script": 7261,
      "(('": 7262,
      "Ġplayer": 7263,
      "ĠCom": 7264,
      "ECT": 7265,
      "HT": 7266,
      "))]": 7267,
      "iguous": 7268,
      "energy": 7269,
      "issues": 7270,
      "ĠSerial": 7271,
      "FIELD": 7272,
      "pdb": 7273,
      "since": 7274,
      "Ġsizes": 7275,
      "more": 7276,
      ":\"": 7277,
      "oute": 7278,
      "ĠEnsure": 7279,
      "Ġexplicitly": 7280,
      "overflow": 7281,
      "hexdigest": 7282,
      "Ġ64": 7283,
      "Ġreversed": 7284,
      "Ġ``'": 7285,
      "Move": 7286,
      "Pos": 7287,
      "tm": 7288,
      "ĠRPC": 7289,
      "preview": 7290,
      "ĠUsage": 7291,
      "Ġcompressed": 7292,
      "vertices": 7293,
      "Popen": 7294,
      "Ġrestriction": 7295,
      "Assign": 7296,
      "inc": 7297,
      "artesian": 7298,
      "Ġrouting": 7299,
      "ysql": 7300,
      "compressed": 7301,
      "scripts": 7302,
      "Ġindicates": 7303,
      "balance": 7304,
      "Ġblank": 7305,
      "44": 7306,
      "inct": 7307,
      "standard": 7308,
      "/(": 7309,
      "nick": 7310,
      "Ġwallet": 7311,
      "angles": 7312,
      "Ġconverts": 7313,
      "FT": 7314,
      "RC": 7315,
      "Ġcss": 7316,
      "requencies": 7317,
      "formats": 7318,
      "ĠĠĠĠĠĠĠĠĠĠĠĠĠĠĠĠĠĠĠĠĠĠĠĠĠĠĠĠĠĠĠĠĠĠĠĠĠĠĠĠĠĠĠĠĠĠĠĠĠĠĠ": 7319,
      "Ġrepresented": 7320,
      "Ġspecifying": 7321,
      "Ġbeginning": 7322,
      "cells": 7323,
      "nx": 7324,
      "Ġcipher": 7325,
      "ĠĠĠĠĠĠĠĠĠĠĠĠĠĠĠĠĠĠĠĠĠĠĠĠĠĠĠĠĠĠĠĠĠĠĠĠĠĠĠĠĠĠĠĠĠĠĠĠĠ": 7326,
      "workers": 7327,
      "ĠContext": 7328,
      "crease": 7329,
      "confirm": 7330,
      "stage": 7331,
      "Ġcorrectly": 7332,
      "learning": 7333,
      "ota": 7334,
      "('#": 7335,
      "eve": 7336,
      "stone": 7337,
      "Ġhours": 7338,
      "ĠConstruct": 7339,
      "29": 7340,
      "Ob": 7341,
      "wcs": 7342,
      "Ġcatch": 7343,
      "Ġdownloaded": 7344,
      "58": 7345,
      "PORT": 7346,
      "pur": 7347,
      "incip": 7348,
      "Ġred": 7349,
      "Ġecho": 7350,
      "expect": 7351,
      "numbers": 7352,
      "specs": 7353,
      "Ġgenes": 7354,
      "tic": 7355,
      "pars": 7356,
      "clone": 7357,
      "Ġsubmit": 7358,
      "phase": 7359,
      "Ġvarious": 7360,
      "Ġtenant": 7361,
      "!')": 7362,
      "GP": 7363,
      "Ġcum": 7364,
      "Ġgenome": 7365,
      "9999": 7366,
      "Ġna": 7367,
      "lig": 7368,
      "ĠSource": 7369,
      "__[": 7370,
      "ORY": 7371,
      "installed": 7372,
      "separator": 7373,
      "Ġextent": 7374,
      "osite": 7375,
      "white": 7376,
      "Ġmeasurement": 7377,
      "Ġbra": 7378,
      "Ġlogic": 7379,
      "Ġexamples": 7380,
      "Ġformula": 7381,
      "Configure": 7382,
      "ä¸Ģ": 7383,
      "uffle": 7384,
      "ĠRecord": 7385,
      "CLA": 7386,
      "concat": 7387,
      "apps": 7388,
      "Ġbetter": 7389,
      "locity": 7390,
      "ĠAssertionError": 7391,
      "visor": 7392,
      "08": 7393,
      "Ġss": 7394,
      "ĠAND": 7395,
      "background": 7396,
      "zoom": 7397,
      "analy": 7398,
      "Web": 7399,
      "Ġcycle": 7400,
      "ij": 7401,
      "erial": 7402,
      "ffs": 7403,
      "checksum": 7404,
      "implemented": 7405,
      "aliases": 7406,
      "WORD": 7407,
      "dc": 7408,
      "Ġplain": 7409,
      "Ġtrailing": 7410,
      "sually": 7411,
      "26": 7412,
      "Builder": 7413,
      "aN": 7414,
      "Ġsimulation": 7415,
      "Ġmodification": 7416,
      "luster": 7417,
      "nr": 7418,
      "zz": 7419,
      "76": 7420,
      "ii": 7421,
      "arches": 7422,
      "izers": 7423,
      "Ġcomma": 7424,
      "QUI": 7425,
      "Ġquad": 7426,
      ">\"": 7427,
      "Plugin": 7428,
      "Ġbecome": 7429,
      "runk": 7430,
      "LINE": 7431,
      "Definition": 7432,
      "ĠAct": 7433,
      "Ġnewly": 7434,
      "Ġpeak": 7435,
      "ĠSup": 7436,
      "completion": 7437,
      "audio": 7438,
      "pixel": 7439,
      "Ġworld": 7440,
      "ĠIterable": 7441,
      "Ġtempfile": 7442,
      "Ġ50": 7443,
      "Ġfront": 7444,
      "Ġcv": 7445,
      "registered": 7446,
      "LOW": 7447,
      "finished": 7448,
      "USE": 7449,
      "det": 7450,
      "Ġthing": 7451,
      "emote": 7452,
      "UB": 7453,
      "_'": 7454,
      "hdr": 7455,
      "Ġops": 7456,
      "ĠUses": 7457,
      "composition": 7458,
      "Ġticket": 7459,
      "Ġitertools": 7460,
      "Ġapproxim": 7461,
      "åıĸ": 7462,
      "\"{": 7463,
      "BASE": 7464,
      "hot": 7465,
      "Ġthings": 7466,
      "Ġcompression": 7467,
      "maximum": 7468,
      "={},": 7469,
      "BR": 7470,
      "Sort": 7471,
      "pull": 7472,
      "Ġ()": 7473,
      "Ġroll": 7474,
      "Param": 7475,
      "operations": 7476,
      "Ġidentified": 7477,
      "bias": 7478,
      "hours": 7479,
      "ĠUN": 7480,
      "Ġleading": 7481,
      "weet": 7482,
      "Entity": 7483,
      "Ġprediction": 7484,
      "candidate": 7485,
      "dns": 7486,
      "dates": 7487,
      "addresses": 7488,
      "Ġboundary": 7489,
      "pickle": 7490,
      "LD": 7491,
      "Ġintern": 7492,
      "Ġ(``": 7493,
      "Ġ`~": 7494,
      "transfer": 7495,
      "transl": 7496,
      "21": 7497,
      "generic": 7498,
      "ĠURLs": 7499,
      "neighbor": 7500,
      "UI": 7501,
      "aker": 7502,
      "AST": 7503,
      "hparams": 7504,
      "Ġmicro": 7505,
      "Ġrpc": 7506,
      "Ġ\"\",": 7507,
      "Ġcalculation": 7508,
      "Merge": 7509,
      "Ġpt": 7510,
      "Ġhaving": 7511,
      "ĠAt": 7512,
      "Ġcapture": 7513,
      "notes": 7514,
      "conditions": 7515,
      "ĠCallable": 7516,
      "bb": 7517,
      "revision": 7518,
      "Reset": 7519,
      "Setup": 7520,
      "ashboard": 7521,
      "Serialize": 7522,
      "ĠSp": 7523,
      "cycle": 7524,
      "~~": 7525,
      "Ġmid": 7526,
      "ĠPack": 7527,
      "Ġperformed": 7528,
      "crypto": 7529,
      "06": 7530,
      "Ġpg": 7531,
      "modifi": 7532,
      "Ġgeneral": 7533,
      "viders": 7534,
      "VAR": 7535,
      "xies": 7536,
      "Ġwave": 7537,
      "gamma": 7538,
      "datasets": 7539,
      "Tool": 7540,
      "UND": 7541,
      "same": 7542,
      "Ġfoo": 7543,
      "ĠIs": 7544,
      "nc": 7545,
      "pip": 7546,
      "surface": 7547,
      "laint": 7548,
      "ĠMe": 7549,
      "Attempt": 7550,
      "Denied": 7551,
      "tol": 7552,
      "Ġ(-": 7553,
      "udy": 7554,
      "Ġvisit": 7555,
      "Var": 7556,
      "amel": 7557,
      "coin": 7558,
      "Ġance": 7559,
      "ĠStopIteration": 7560,
      "Json": 7561,
      "hide": 7562,
      "deps": 7563,
      "metry": 7564,
      "ances": 7565,
      "shard": 7566,
      "wrapped": 7567,
      "Ġtrial": 7568,
      "consumer": 7569,
      "timezone": 7570,
      "Ġaccepts": 7571,
      "Ġconflict": 7572,
      "PREFIX": 7573,
      "Ġke": 7574,
      "Ġamp": 7575,
      "Ġglyph": 7576,
      "Ġindicate": 7577,
      "fq": 7578,
      "lave": 7579,
      "Ġdecoder": 7580,
      "precation": 7581,
      "SSAGE": 7582,
      "Ġ1024": 7583,
      "mis": 7584,
      "Ġends": 7585,
      "mkdir": 7586,
      "udo": 7587,
      "ĠApi": 7588,
      "Ġmail": 7589,
      "acc": 7590,
      "Ġmoment": 7591,
      "LIST": 7592,
      "warnings": 7593,
      "Ġprobably": 7594,
      "phrase": 7595,
      "ĠImplemented": 7596,
      "AUTH": 7597,
      ");": 7598,
      "Sec": 7599,
      "ĠSome": 7600,
      "'ll": 7601,
      "'},": 7602,
      "endor": 7603,
      "ĠStore": 7604,
      "ĠBoolean": 7605,
      "bolic": 7606,
      "Ġcompound": 7607,
      "DoesNotExist": 7608,
      "Batch": 7609,
      "daemon": 7610,
      "Ġprocessor": 7611,
      "Ġremoving": 7612,
      "Ġmouse": 7613,
      "intervals": 7614,
      "Ġbounding": 7615,
      "Ġcombined": 7616,
      "VALID": 7617,
      "EC": 7618,
      "setLevel": 7619,
      "Required": 7620,
      "Ġdefaultdict": 7621,
      "initialized": 7622,
      "Ġroutine": 7623,
      "mtime": 7624,
      "stor": 7625,
      "cha": 7626,
      "Ġgzip": 7627,
      "processed": 7628,
      "ĠBad": 7629,
      "ĠHelper": 7630,
      "filenames": 7631,
      "Ġplane": 7632,
      "chemas": 7633,
      "Ġdetected": 7634,
      "deserialize": 7635,
      "Ġsol": 7636,
      "spf": 7637,
      "spice": 7638,
      "Ġcomplet": 7639,
      "Ġfloats": 7640,
      "Ġmaking": 7641,
      "Descriptor": 7642,
      "illiseconds": 7643,
      "/\"": 7644,
      "Finds": 7645,
      "Ġpolygon": 7646,
      "Dep": 7647,
      "ios": 7648,
      "cify": 7649,
      "abric": 7650,
      "constant": 7651,
      "MB": 7652,
      "Ġmappings": 7653,
      "Ġhierarchy": 7654,
      "ĠStream": 7655,
      "Ġtesting": 7656,
      "SN": 7657,
      "ĠEnvironment": 7658,
      "orn": 7659,
      "ĠRemoves": 7660,
      "shutdown": 7661,
      "ĠĠĠĠĠĠĠĠĠĠĠĠĠĠĠĠĠĠĠĠĠĠĠĠĠĠĠĠĠĠĠĠĠĠĠĠĠĠĠĠĠĠĠĠĠĠĠĠĠĠ": 7662,
      "serialized": 7663,
      "unicate": 7664,
      "è®": 7665,
      "Ġcar": 7666,
      "lags": 7667,
      "rices": 7668,
      "ĠSc": 7669,
      "disconnect": 7670,
      "mtree": 7671,
      "gorical": 7672,
      "fastq": 7673,
      "activate": 7674,
      "Ġfurther": 7675,
      "Cons": 7676,
      "Like": 7677,
      "Ġest": 7678,
      "Ġcopied": 7679,
      "ĠUp": 7680,
      "translate": 7681,
      "Ġaux": 7682,
      "accounts": 7683,
      "plots": 7684,
      "written": 7685,
      "Jo": 7686,
      "Settings": 7687,
      "Collect": 7688,
      "ĠHttpResponse": 7689,
      "mts": 7690,
      "Ġ\"'": 7691,
      "Ġrho": 7692,
      "Ġbasename": 7693,
      "runner": 7694,
      "ä¸ª": 7695,
      "ĠValidationError": 7696,
      "Ġestimate": 7697,
      "/<": 7698,
      "beat": 7699,
      "Ġargv": 7700,
      "ĠUTC": 7701,
      "31": 7702,
      "transpose": 7703,
      "Override": 7704,
      "Verify": 7705,
      "'d": 7706,
      "Namespace": 7707,
      "lengths": 7708,
      "Iterate": 7709,
      "--------------------------------": 7710,
      "Ġequation": 7711,
      "TRI": 7712,
      "aging": 7713,
      "objs": 7714,
      "ĠSession": 7715,
      "ticket": 7716,
      "Clean": 7717,
      "SY": 7718,
      "Unsupported": 7719,
      "kill": 7720,
      "ctypes": 7721,
      "Ġ:]": 7722,
      "Ġgamma": 7723,
      "ĠParameter": 7724,
      "Ġsessions": 7725,
      "support": 7726,
      "yy": 7727,
      "Ġrestore": 7728,
      ").\"\"\"": 7729,
      "Ġordering": 7730,
      ":.": 7731,
      "ante": 7732,
      "Ġpredictions": 7733,
      "Ġconfigs": 7734,
      "Ġperson": 7735,
      "Root": 7736,
      "_):": 7737,
      "Example": 7738,
      "ĠREST": 7739,
      "ExecutionError": 7740,
      "PM": 7741,
      "native": 7742,
      "Ġur": 7743,
      "``)": 7744,
      "ĠDO": 7745,
      "ĠDist": 7746,
      "buff": 7747,
      "ides": 7748,
      "ĠAddress": 7749,
      "alignment": 7750,
      "CLI": 7751,
      "llegal": 7752,
      "([(": 7753,
      "****": 7754,
      "Ġlengths": 7755,
      ":'": 7756,
      "plain": 7757,
      "('[": 7758,
      "Ġservers": 7759,
      "multiple": 7760,
      "laintext": 7761,
      "Net": 7762,
      "rem": 7763,
      "Ġ11": 7764,
      "locate": 7765,
      "odb": 7766,
      "sembly": 7767,
      "WA": 7768,
      "kes": 7769,
      "yes": 7770,
      "ĠTest": 7771,
      "Ġwho": 7772,
      "funcs": 7773,
      "leton": 7774,
      "cuit": 7775,
      "pw": 7776,
      "six": 7777,
      "chan": 7778,
      "pretty": 7779,
      "noise": 7780,
      "windows": 7781,
      "(\"\"": 7782,
      "__:": 7783,
      "Ġpoll": 7784,
      "ising": 7785,
      "Ġprojects": 7786,
      "naif": 7787,
      "atives": 7788,
      "spy": 7789,
      "Ġipv": 7790,
      "Ġoccurred": 7791,
      "retries": 7792,
      "RF": 7793,
      "decorator": 7794,
      "\"}": 7795,
      "tage": 7796,
      "æĺ": 7797,
      "Ġol": 7798,
      "ĠPart": 7799,
      "ĠDetermine": 7800,
      "Ġappear": 7801,
      ")\",": 7802,
      ":\",": 7803,
      "Ġdesign": 7804,
      "ĠPost": 7805,
      "ttl": 7806,
      "Ġupdating": 7807,
      "URCE": 7808,
      "ograph": 7809,
      "Specifi": 7810,
      "structions": 7811,
      "27": 7812,
      "cv": 7813,
      "decoder": 7814,
      "Expected": 7815,
      "Ġvisual": 7816,
      "CACHE": 7817,
      "ook": 7818,
      "Ġrename": 7819,
      "lica": 7820,
      "when": 7821,
      "ĠDoes": 7822,
      "Pix": 7823,
      "integr": 7824,
      "ifies": 7825,
      "velength": 7826,
      "Ġexpanded": 7827,
      "stp": 7828,
      "Ġable": 7829,
      "Ġaliases": 7830,
      "seudo": 7831,
      "Ġinstrument": 7832,
      "':'": 7833,
      "Ġderivative": 7834,
      "Ġls": 7835,
      "ĠAccess": 7836,
      "Ġnewline": 7837,
      "curr": 7838,
      "Ġzoom": 7839,
      "sgi": 7840,
      "Ġclients": 7841,
      "Ġoffsets": 7842,
      "ocus": 7843,
      "Stack": 7844,
      "Ġhdr": 7845,
      "ĠPAT": 7846,
      "Ġprinted": 7847,
      "RES": 7848,
      "ĠAllow": 7849,
      "JECT": 7850,
      "Ġsoft": 7851,
      "Ġevaluation": 7852,
      "Ġscaling": 7853,
      ":\")": 7854,
      "))))": 7855,
      "iming": 7856,
      "Ġworkspace": 7857,
      "Ġflush": 7858,
      "mavlink": 7859,
      "Ġlight": 7860,
      "Ġauthenticated": 7861,
      "ĠFIX": 7862,
      "ATOR": 7863,
      "interfaces": 7864,
      "tected": 7865,
      "Ġcoefficients": 7866,
      "Usage": 7867,
      "WOR": 7868,
      "saved": 7869,
      "Look": 7870,
      "ĠTemplate": 7871,
      "Ġanchor": 7872,
      "Ġmajor": 7873,
      "iles": 7874,
      "Ġarticle": 7875,
      ")')": 7876,
      "Ġbulk": 7877,
      "geom": 7878,
      "osome": 7879,
      "mmar": 7880,
      "cluding": 7881,
      "Ġidentifiers": 7882,
      "Ġtranscript": 7883,
      "ĠRGB": 7884,
      "Ġprovides": 7885,
      "retcode": 7886,
      "Ġocc": 7887,
      "velope": 7888,
      "xpath": 7889,
      "æį": 7890,
      "Ġinline": 7891,
      "([[": 7892,
      "COM": 7893,
      "Determines": 7894,
      "ĠConfiguration": 7895,
      "Ġatoms": 7896,
      "fr": 7897,
      "resolver": 7898,
      "lementation": 7899,
      "[::-": 7900,
      "Ġpopulation": 7901,
      "ĠPoint": 7902,
      "recursive": 7903,
      "sat": 7904,
      "Ġnotes": 7905,
      "Ġdisplayed": 7906,
      "Authorization": 7907,
      "æĹ¶": 7908,
      "Ġplo": 7909,
      "caller": 7910,
      "Ġclosest": 7911,
      "Ġrepos": 7912,
      "Ġsudo": 7913,
      "Ġiterate": 7914,
      "Ġreceiver": 7915,
      "Ġexpressions": 7916,
      "Now": 7917,
      "cles": 7918,
      "flo": 7919,
      "Ġdx": 7920,
      "ĠMy": 7921,
      "iface": 7922,
      "transition": 7923,
      "iodic": 7924,
      "Ġnamespaces": 7925,
      "ArgumentParser": 7926,
      "Ġdl": 7927,
      "ĠPol": 7928,
      "Ġdirname": 7929,
      "isis": 7930,
      "allen": 7931,
      "latitude": 7932,
      "offsets": 7933,
      "Items": 7934,
      "lexer": 7935,
      "Ġfinish": 7936,
      "CMD": 7937,
      "ĠVersion": 7938,
      "rbridge": 7939,
      "Ġexpired": 7940,
      "EP": 7941,
      "gos": 7942,
      "Ġ(_": 7943,
      "Ġlic": 7944,
      "mapper": 7945,
      "BY": 7946,
      "Empty": 7947,
      "ational": 7948,
      "Ġarc": 7949,
      "partic": 7950,
      "Ġcharset": 7951,
      "gl": 7952,
      "Ġreload": 7953,
      "Login": 7954,
      "Ġcleanup": 7955,
      "initialize": 7956,
      "ĠDescription": 7957,
      "xs": 7958,
      "Ġct": 7959,
      "Ġemit": 7960,
      "unct": 7961,
      "getcwd": 7962,
      "ilename": 7963,
      "processes": 7964,
      "Ġdetermined": 7965,
      "Ne": 7966,
      "irect": 7967,
      "arrays": 7968,
      "critical": 7969,
      "Ġsilent": 7970,
      "Builds": 7971,
      "LAN": 7972,
      "listener": 7973,
      "Ġindexed": 7974,
      "Ġworkers": 7975,
      "00000000": 7976,
      "boto": 7977,
      "Bin": 7978,
      "arc": 7979,
      "Ġrepe": 7980,
      "Ġinstruction": 7981,
      "Ġsquare": 7982,
      "('')": 7983,
      "quent": 7984,
      "leting": 7985,
      "Ġwindows": 7986,
      "finite": 7987,
      "\",\"": 7988,
      "Ġunion": 7989,
      "Ġspin": 7990,
      "$',": 7991,
      "Bind": 7992,
      "WARNING": 7993,
      "_=": 7994,
      "Ġnu": 7995,
      "Ġtools": 7996,
      "asing": 7997,
      "Ġ19": 7998,
      "attention": 7999,
      "Ġleaf": 8000,
      "phinx": 8001,
      "ĠValidate": 8002,
      "cates": 8003,
      "Ġ\"\".": 8004,
      "Ġaffect": 8005,
      "Ġbg": 8006,
      "digits": 8007,
      "globals": 8008,
      "character": 8009,
      "DP": 8010,
      "reads": 8011,
      "Ġtrying": 8012,
      "inspect": 8013,
      "Ġconsider": 8014,
      "Ġ\"__": 8015,
      "(\"_": 8016,
      "tzinfo": 8017,
      ")\"\"\"": 8018,
      "37": 8019,
      "information": 8020,
      "ros": 8021,
      "Ġinterest": 8022,
      "Ġseveral": 8023,
      "ÑĤ": 8024,
      "share": 8025,
      "ffff": 8026,
      "Ġ``(": 8027,
      "Ġlinked": 8028,
      "}:{": 8029,
      "Failure": 8030,
      "Pay": 8031,
      "incipal": 8032,
      "Ġcoroutine": 8033,
      "Ġfiltering": 8034,
      "hi": 8035,
      "ultiple": 8036,
      "ĠDocument": 8037,
      "/',": 8038,
      "ATED": 8039,
      "Sends": 8040,
      "Ġcc": 8041,
      "Ġexponent": 8042,
      "Bar": 8043,
      "Ġfire": 8044,
      "(\",": 8045,
      "ĠEX": 8046,
      "Ġshutdown": 8047,
      "Ġhandled": 8048,
      "Ġexchange": 8049,
      "Ġdeep": 8050,
      "secure": 8051,
      "cross": 8052,
      "ĠDon": 8053,
      "Sample": 8054,
      "Ġretval": 8055,
      "Ġaccounts": 8056,
      "CATION": 8057,
      "ĠSSH": 8058,
      "dataframe": 8059,
      "ialog": 8060,
      "pie": 8061,
      "ROOT": 8062,
      "Ġinvoked": 8063,
      "Ġnumer": 8064,
      "udit": 8065,
      "Next": 8066,
      "cks": 8067,
      "Report": 8068,
      "Ġsoup": 8069,
      "ĠCont": 8070,
      "åĽŀ": 8071,
      "HOST": 8072,
      "gate": 8073,
      "represent": 8074,
      "Ġtc": 8075,
      "Ġmuch": 8076,
      "SUB": 8077,
      "Hel": 8078,
      "Ġvtk": 8079,
      "Ġjs": 8080,
      "ĠGenerates": 8081,
      "Ġtrim": 8082,
      "'})": 8083,
      "localhost": 8084,
      "unused": 8085,
      "ariant": 8086,
      "definitions": 8087,
      "Ġoccurs": 8088,
      "authorization": 8089,
      "chanism": 8090,
      "Recurs": 8091,
      "Ġapps": 8092,
      "stackoverflow": 8093,
      "ale": 8094,
      "Ġdeli": 8095,
      "Ġalle": 8096,
      "Ġurlparse": 8097,
      "ouble": 8098,
      "xxxx": 8099,
      "Cor": 8100,
      "Http": 8101,
      "Stat": 8102,
      "ailab": 8103,
      "Ġreferenced": 8104,
      "Ġissues": 8105,
      "Ġsatis": 8106,
      "ĠPermissionDenied": 8107,
      "Width": 8108,
      "Ġdigit": 8109,
      "udent": 8110,
      "Ġthreading": 8111,
      "QUEST": 8112,
      "Gui": 8113,
      "ĠSchema": 8114,
      "intersection": 8115,
      "ldp": 8116,
      "Ġsymlink": 8117,
      "collections": 8118,
      "randint": 8119,
      "Ġdet": 8120,
      "ĠCalled": 8121,
      "equ": 8122,
      "unded": 8123,
      "Ġhalf": 8124,
      "Ġtransformed": 8125,
      "Loop": 8126,
      "KEN": 8127,
      "average": 8128,
      "gies": 8129,
      "vtk": 8130,
      "oth": 8131,
      "Ġcurrency": 8132,
      "Ġgoogle": 8133,
      "Ġrendering": 8134,
      "GO": 8135,
      "inations": 8136,
      "directories": 8137,
      "Ġvariance": 8138,
      "zendesk": 8139,
      "Ġrenderer": 8140,
      "respon": 8141,
      "Ġcrop": 8142,
      "urity": 8143,
      "lide": 8144,
      "Ġstrategy": 8145,
      "Ġproblems": 8146,
      "ific": 8147,
      "Ġminor": 8148,
      "Ġcustomer": 8149,
      "ä¸º": 8150,
      "fragment": 8151,
      "################": 8152,
      "Ġseem": 8153,
      "vided": 8154,
      "Ġmaint": 8155,
      "numeric": 8156,
      "Ġlooks": 8157,
      "binding": 8158,
      ")`": 8159,
      "tcp": 8160,
      "vor": 8161,
      "Ġdims": 8162,
      "minutes": 8163,
      "Ġcanvas": 8164,
      "terminal": 8165,
      "fits": 8166,
      "Ġtranslate": 8167,
      "Identifier": 8168,
      "sensor": 8169,
      "mol": 8170,
      "éĢ": 8171,
      "Ġassessment": 8172,
      "Ġlisting": 8173,
      "ĠJob": 8174,
      "flu": 8175,
      "Ġplaceholder": 8176,
      "rsplit": 8177,
      "Ġmk": 8178,
      "domains": 8179,
      "Ġweighted": 8180,
      "magic": 8181,
      "stand": 8182,
      "Enable": 8183,
      "Ġtorch": 8184,
      "UST": 8185,
      "person": 8186,
      "ught": 8187,
      "Ġcompress": 8188,
      "Prepare": 8189,
      "')))": 8190,
      "Ġ],": 8191,
      "alchemy": 8192,
      "Ġsubscrib": 8193,
      "execution": 8194,
      "TIONS": 8195,
      "wave": 8196,
      "Ġfut": 8197,
      "ement": 8198,
      "Ġcompiled": 8199,
      "clusters": 8200,
      "ĠPerform": 8201,
      "Buffer": 8202,
      "thers": 8203,
      "ĠYields": 8204,
      "Accept": 8205,
      "MT": 8206,
      "lopen": 8207,
      "Loader": 8208,
      "Changed": 8209,
      "notebook": 8210,
      "åĬ": 8211,
      "coun": 8212,
      "vides": 8213,
      "ĠPri": 8214,
      "anging": 8215,
      "without": 8216,
      "dfs": 8217,
      "ĠAdditional": 8218,
      "tenant": 8219,
      "typ": 8220,
      "assignment": 8221,
      "Ġclause": 8222,
      "/#": 8223,
      "ä½": 8224,
      "curve": 8225,
      "ĠUpdates": 8226,
      "compatible": 8227,
      "ĠPY": 8228,
      "Ġinterpolation": 8229,
      "Ġclusters": 8230,
      "Ġstddev": 8231,
      ",\"": 8232,
      "rations": 8233,
      "ĠCor": 8234,
      "ĠLine": 8235,
      "cular": 8236,
      "cookies": 8237,
      "Ġdatastore": 8238,
      "]=": 8239,
      "Ġtries": 8240,
      "Ġbalance": 8241,
      "aged": 8242,
      "ĠPage": 8243,
      "ĠMay": 8244,
      "Writer": 8245,
      "))[": 8246,
      "izations": 8247,
      "ĠItem": 8248,
      "remaining": 8249,
      "Ġreached": 8250,
      "Ġalert": 8251,
      "working": 8252,
      "=[],": 8253,
      ">',": 8254,
      "klass": 8255,
      "ĠRO": 8256,
      "ĠSSL": 8257,
      "ĠExec": 8258,
      "Ġoverlay": 8259,
      "ftp": 8260,
      "CC": 8261,
      "follow": 8262,
      "mongo": 8263,
      "Ġgate": 8264,
      "ĠFIXME": 8265,
      "Ġmi": 8266,
      "completed": 8267,
      "Ġshortcut": 8268,
      "ntaxError": 8269,
      "}\")": 8270,
      "ĠUUID": 8271,
      "ĠComm": 8272,
      "LAB": 8273,
      "Ġ'-'": 8274,
      "Ġattempts": 8275,
      "Ġreally": 8276,
      "Ġnx": 8277,
      "ingle": 8278,
      "ĠRaise": 8279,
      "DateTime": 8280,
      "Ð¸": 8281,
      "fied": 8282,
      "abc": 8283,
      "Ġ404": 8284,
      "Ġcombination": 8285,
      "ÑĢ": 8286,
      "references": 8287,
      "unce": 8288,
      "scp": 8289,
      "lements": 8290,
      "ĠView": 8291,
      "Ġ/=": 8292,
      "Ġmaybe": 8293,
      "Ġwildcard": 8294,
      "actual": 8295,
      "ĠOAuth": 8296,
      "ACT": 8297,
      "Transaction": 8298,
      "Ġpercentage": 8299,
      "Ax": 8300,
      "Ġnick": 8301,
      "ĠAtt": 8302,
      "started": 8303,
      "anning": 8304,
      "Ġzer": 8305,
      "general": 8306,
      "Ġrestrict": 8307,
      "RS": 8308,
      "Ġlisted": 8309,
      "Ġverbosity": 8310,
      "Ġdepends": 8311,
      "ĠCommandExecutionError": 8312,
      "sur": 8313,
      "hem": 8314,
      "cons": 8315,
      "Ġdiv": 8316,
      "workspace": 8317,
      "Ġpartitions": 8318,
      "likelihood": 8319,
      "Ge": 8320,
      "Take": 8321,
      "rn": 8322,
      "Ġencryption": 8323,
      "Ġcoverage": 8324,
      "avg": 8325,
      "TES": 8326,
      "difference": 8327,
      "ĠSort": 8328,
      "ĠPub": 8329,
      "Ġdoct": 8330,
      "compare": 8331,
      "ä¸Ń": 8332,
      "countered": 8333,
      "Ġasc": 8334,
      "Ġchosen": 8335,
      "Ġactivation": 8336,
      "dynamic": 8337,
      "under": 8338,
      "jectory": 8339,
      "SPACE": 8340,
      "ĠRegister": 8341,
      "attachment": 8342,
      "Ġquiet": 8343,
      "must": 8344,
      "incomplete": 8345,
      "should": 8346,
      "ĠDevice": 8347,
      "ĠMaximum": 8348,
      "->": 8349,
      "gres": 8350,
      "ov": 8351,
      "wallet": 8352,
      "Ġtheme": 8353,
      "()['": 8354,
      "reddit": 8355,
      "readable": 8356,
      "interpol": 8357,
      "tries": 8358,
      "vidence": 8359,
      "Ġinserted": 8360,
      "Ġdummy": 8361,
      "Limit": 8362,
      "Ġscheduler": 8363,
      "loy": 8364,
      "quad": 8365,
      "\":\"": 8366,
      "Stats": 8367,
      "FLAGS": 8368,
      "Ġreach": 8369,
      "examples": 8370,
      "Ġregistration": 8371,
      "Ġinitialization": 8372,
      "training": 8373,
      "SOURCE": 8374,
      "Mon": 8375,
      "Skip": 8376,
      "bridge": 8377,
      "igs": 8378,
      "adow": 8379,
      "ĠASCII": 8380,
      "Ġnearest": 8381,
      "=\"%": 8382,
      "*,": 8383,
      "rmtree": 8384,
      "Ġendpoints": 8385,
      "Ġgoing": 8386,
      "gui": 8387,
      "åľ": 8388,
      "ripts": 8389,
      "Ġsucce": 8390,
      "Shape": 8391,
      "BE": 8392,
      "[_": 8393,
      "perform": 8394,
      "Ġpreserve": 8395,
      "Coord": 8396,
      "URN": 8397,
      "defs": 8398,
      "Ġconverter": 8399,
      "Ġgrade": 8400,
      "destroy": 8401,
      "longitude": 8402,
      "separated": 8403,
      "Sim": 8404,
      "Ġdetail": 8405,
      "ĠSu": 8406,
      "fft": 8407,
      "ĠMO": 8408,
      "Init": 8409,
      "Ġneur": 8410,
      "player": 8411,
      "Align": 8412,
      "Top": 8413,
      "kv": 8414,
      "Ġttl": 8415,
      "Ġduplicates": 8416,
      "Ġ'[": 8417,
      "ĠDownload": 8418,
      "Ġappended": 8419,
      "statements": 8420,
      "Ġclassification": 8421,
      "COUN": 8422,
      "Ġplott": 8423,
      "ares": 8424,
      "Ġflask": 8425,
      "Ġ'$": 8426,
      "problem": 8427,
      "scene": 8428,
      "Interrupt": 8429,
      "Ġ'\"": 8430,
      "received": 8431,
      "bf": 8432,
      "}')": 8433,
      "alo": 8434,
      ")['": 8435,
      "ky": 8436,
      "èİ": 8437,
      "encryption": 8438,
      "etree": 8439,
      "Ġnotify": 8440,
      "ERS": 8441,
      "Ġorganization": 8442,
      "Ġnan": 8443,
      "Ġstride": 8444,
      "quared": 8445,
      "Files": 8446,
      "Ġobservation": 8447,
      "Upload": 8448,
      "ĠSpecifi": 8449,
      "LY": 8450,
      "Sto": 8451,
      "proj": 8452,
      "literal": 8453,
      "ALI": 8454,
      "UTF": 8455,
      "Prefix": 8456,
      "Ġothers": 8457,
      "Ġcovariance": 8458,
      "Ġmet": 8459,
      "ä»¶": 8460,
      "RT": 8461,
      "jar": 8462,
      "Ġhashes": 8463,
      "Performs": 8464,
      "45": 8465,
      "WT": 8466,
      "persist": 8467,
      "Ġspecifies": 8468,
      "streams": 8469,
      "Ġglobals": 8470,
      "hierarchy": 8471,
      "allback": 8472,
      "Ġstreams": 8473,
      "anitize": 8474,
      ":]:": 8475,
      "Section": 8476,
      "Ġaws": 8477,
      "subscription": 8478,
      "Ġrunner": 8479,
      "clients": 8480,
      "matching": 8481,
      "limited": 8482,
      "Ġmyminion": 8483,
      "AG": 8484,
      "HTML": 8485,
      "tip": 8486,
      "Ġdns": 8487,
      "firmware": 8488,
      "Ġraster": 8489,
      "Ġpossibly": 8490,
      "....": 8491,
      "ĠDisplay": 8492,
      "vention": 8493,
      "Ġcomputation": 8494,
      "ĠExecute": 8495,
      "Ġverb": 8496,
      "going": 8497,
      "ĠColor": 8498,
      "'^": 8499,
      "Are": 8500,
      "Ġaff": 8501,
      "precision": 8502,
      "EXT": 8503,
      "quee": 8504,
      "TODO": 8505,
      "]'": 8506,
      "ython": 8507,
      "repeat": 8508,
      "routes": 8509,
      "Ġwon": 8510,
      "Ġdeviation": 8511,
      "Ġ{!": 8512,
      "Track": 8513,
      "hit": 8514,
      "routing": 8515,
      "endpoints": 8516,
      "TIMEOUT": 8517,
      "rho": 8518,
      "inline": 8519,
      "Ġreaction": 8520,
      "ĠPDF": 8521,
      "portal": 8522,
      "associ": 8523,
      "Ġremoves": 8524,
      "Ġmanually": 8525,
      "Ġer": 8526,
      "describe": 8527,
      "FFFF": 8528,
      "Ġprotein": 8529,
      "imension": 8530,
      "ĠNormal": 8531,
      "Ġspecies": 8532,
      "START": 8533,
      "normalized": 8534,
      "enchmark": 8535,
      ":].": 8536,
      "nor": 8537,
      "Ġgrouped": 8538,
      "Ġblocking": 8539,
      "ributed": 8540,
      "usted": 8541,
      "maybe": 8542,
      "èİ·": 8543,
      "Hub": 8544,
      "mn": 8545,
      "subscribe": 8546,
      "KeyError": 8547,
      "Ġartist": 8548,
      "Ġdeployment": 8549,
      "ĠInitialize": 8550,
      "åº": 8551,
      "Ġ'+": 8552,
      "Ġkill": 8553,
      "Ġlocals": 8554,
      "theme": 8555,
      "legate": 8556,
      "Ġbed": 8557,
      "()])": 8558,
      "licable": 8559,
      "REF": 8560,
      "contrib": 8561,
      "resolved": 8562,
      "readlines": 8563,
      "Ġassum": 8564,
      "Ġpositional": 8565,
      "Ġquality": 8566,
      "dimensional": 8567,
      "MC": 8568,
      "_[": 8569,
      "arily": 8570,
      "rout": 8571,
      "lick": 8572,
      "Package": 8573,
      "Ġsv": 8574,
      "Ġextend": 8575,
      "overlay": 8576,
      "Ġgrad": 8577,
      "Ġevaluated": 8578,
      "STATUS": 8579,
      "Ġcid": 8580,
      "Ġlive": 8581,
      "Ġpanel": 8582,
      "into": 8583,
      "Ġhard": 8584,
      "Ġfilled": 8585,
      "Ġiface": 8586,
      "Ġprob": 8587,
      "artbeat": 8588,
      "partitions": 8589,
      "Ġestimator": 8590,
      "ĠShow": 8591,
      "Ġdescribed": 8592,
      "Ġtodo": 8593,
      "è¿Ķ": 8594,
      "65": 8595,
      "BB": 8596,
      "gap": 8597,
      "atel": 8598,
      "ulus": 8599,
      "Ġ{}:": 8600,
      "pay": 8601,
      "Asset": 8602,
      "]',": 8603,
      "åį": 8604,
      "Ġaut": 8605,
      "Ġcmap": 8606,
      "urnal": 8607,
      "strptime": 8608,
      "MESSAGE": 8609,
      "uniform": 8610,
      "temperature": 8611,
      "operational": 8612,
      "Ġdegree": 8613,
      "Ġstar": 8614,
      "mpy": 8615,
      "prot": 8616,
      "Ġprefixes": 8617,
      "Ġdestroy": 8618,
      "genes": 8619,
      "Ġ','.": 8620,
      "Grid": 8621,
      "SB": 8622,
      "questions": 8623,
      "Ġunused": 8624,
      "Ġmigration": 8625,
      "Simple": 8626,
      "Ġsl": 8627,
      "concatenate": 8628,
      "ĠCustom": 8629,
      "shutit": 8630,
      "Ġinputed": 8631,
      "(',')": 8632,
      "ailability": 8633,
      "Custom": 8634,
      "border": 8635,
      "fobj": 8636,
      "REC": 8637,
      "Ġqubits": 8638,
      "NUM": 8639,
      "imize": 8640,
      "mous": 8641,
      "Ġforms": 8642,
      "filtered": 8643,
      "Ġmarked": 8644,
      "UNK": 8645,
      "cutoff": 8646,
      "pas": 8647,
      "upt": 8648,
      "ĠFI": 8649,
      "Ġretries": 8650,
      "subset": 8651,
      "Ġ\"{}\"": 8652,
      "predicate": 8653,
      "Dialog": 8654,
      "}',": 8655,
      "('\"": 8656,
      "Ġui": 8657,
      "queries": 8658,
      "Ġxpath": 8659,
      "itories": 8660,
      "located": 8661,
      "Ġlaunch": 8662,
      "Ġconsistent": 8663,
      "todo": 8664,
      "Ġhighest": 8665,
      ":**": 8666,
      "vectors": 8667,
      "ĠEither": 8668,
      "Database": 8669,
      "entifiers": 8670,
      "mx": 8671,
      "oll": 8672,
      "ĠVariable": 8673,
      "ĠGeo": 8674,
      "ĠBu": 8675,
      "SSL": 8676,
      "ĠChange": 8677,
      "ĠColumn": 8678,
      "utcnow": 8679,
      "ynomial": 8680,
      "Domain": 8681,
      "Ġrecomm": 8682,
      "poses": 8683,
      "Export": 8684,
      "pients": 8685,
      "PEN": 8686,
      "Ġviews": 8687,
      "allenge": 8688,
      "quis": 8689,
      "ĠFlask": 8690,
      "Ġalternative": 8691,
      "resize": 8692,
      "Ġroutes": 8693,
      "ĠConnect": 8694,
      "Parent": 8695,
      "Go": 8696,
      "Title": 8697,
      "andi": 8698,
      "Ġec": 8699,
      "olding": 8700,
      "Ġcontainers": 8701,
      "Ġintersection": 8702,
      "Ġ400": 8703,
      "Ġnonce": 8704,
      "Handles": 8705,
      "è¿ĶåĽŀ": 8706,
      "increment": 8707,
      "eta": 8708,
      "kwds": 8709,
      "rune": 8710,
      "%%": 8711,
      "void": 8712,
      "Ġsr": 8713,
      "ĠAST": 8714,
      "ĠWh": 8715,
      "spaces": 8716,
      "Ġphone": 8717,
      "TOKEN": 8718,
      "09": 8719,
      "Rect": 8720,
      "Ġcs": 8721,
      "ĠTarget": 8722,
      "Ġassets": 8723,
      "ĠPh": 8724,
      "topics": 8725,
      "CHAR": 8726,
      "Ġdebugging": 8727,
      "ĠGoogle": 8728,
      "onymous": 8729,
      "Turn": 8730,
      "Ġrs": 8731,
      "DEF": 8732,
      "Ġrecipe": 8733,
      "retrieve": 8734,
      "Ġgateway": 8735,
      "ĠMem": 8736,
      "Ġclosing": 8737,
      "square": 8738,
      "Ġwrites": 8739,
      "Ġauthenticate": 8740,
      "nado": 8741,
      "roke": 8742,
      "tolist": 8743,
      "probab": 8744,
      "foc": 8745,
      "Ġpayment": 8746,
      "Ġpreferred": 8747,
      "Ġ</": 8748,
      "ĠAccount": 8749,
      "ĠReplace": 8750,
      ">.": 8751,
      "Ġ:,": 8752,
      "mainder": 8753,
      "genome": 8754,
      "lapse": 8755,
      "å½": 8756,
      "reload": 8757,
      "fileobj": 8758,
      "pat": 8759,
      "qubits": 8760,
      "payment": 8761,
      ":',": 8762,
      "Man": 8763,
      "ĠĠĠĠĠĠĠĠĠĠĠĠĠĠĠĠĠĠĠĠĠĠĠĠĠĠĠĠĠĠĠĠĠĠĠĠĠĠĠĠĠĠĠĠĠĠĠĠĠĠĠĠ": 8764,
      "shapes": 8765,
      "Ġlazy": 8766,
      "bon": 8767,
      "fpath": 8768,
      "hint": 8769,
      "Ġborder": 8770,
      "keyid": 8771,
      "responses": 8772,
      "Ġiteritems": 8773,
      "ĠCopy": 8774,
      "Ġscopes": 8775,
      "Ġestimated": 8776,
      "Total": 8777,
      "æī": 8778,
      "ĠWait": 8779,
      "ĠLook": 8780,
      "legend": 8781,
      "Doc": 8782,
      "Ġ^": 8783,
      "Ġrepeat": 8784,
      "rich": 8785,
      "west": 8786,
      "docstring": 8787,
      "Ġquantity": 8788,
      "uli": 8789,
      "Ġlab": 8790,
      "Ġ_(\"": 8791,
      "cay": 8792,
      "ĠParses": 8793,
      "Ġbroadcast": 8794,
      "Ġdy": 8795,
      "Ġcare": 8796,
      "Ġgeneration": 8797,
      "communicate": 8798,
      "COMM": 8799,
      "Ġchoose": 8800,
      "authenticated": 8801,
      "neighbors": 8802,
      "Socket": 8803,
      "Fl": 8804,
      "NN": 8805,
      "Op": 8806,
      "Volume": 8807,
      "gi": 8808,
      "restore": 8809,
      "Ġstation": 8810,
      "Timestamp": 8811,
      "Ġvariants": 8812,
      "CD": 8813,
      "inate": 8814,
      "Ġoauth": 8815,
      "Ġ'?": 8816,
      "cipher": 8817,
      "Protocol": 8818,
      "Ġdefines": 8819,
      "COMP": 8820,
      "Ġerrno": 8821,
      "seen": 8822,
      "pex": 8823,
      "Ġdead": 8824,
      "ĠMed": 8825,
      "Ġuniform": 8826,
      "Unit": 8827,
      "Ġdatatype": 8828,
      "Ġobtained": 8829,
      "llable": 8830,
      "live": 8831,
      "Ġdoing": 8832,
      "ifiers": 8833,
      "Ġcorpus": 8834,
      "finish": 8835,
      "Ġexpires": 8836,
      "Ġpressure": 8837,
      "IME": 8838,
      "hardware": 8839,
      "acquire": 8840,
      "ĠQueue": 8841,
      "Ġoverrides": 8842,
      "ĠApply": 8843,
      "STRING": 8844,
      "thresh": 8845,
      "Ġgl": 8846,
      "Ġalphabet": 8847,
      "cleaned": 8848,
      "Extracts": 8849,
      "expires": 8850,
      "two": 8851,
      "89": 8852,
      "TT": 8853,
      "Ġfoot": 8854,
      "Ġinc": 8855,
      "Short": 8856,
      "Ġrequirement": 8857,
      "ĠSplit": 8858,
      "peak": 8859,
      "quant": 8860,
      "calar": 8861,
      "rief": 8862,
      "Ġwidgets": 8863,
      "Ġhooks": 8864,
      "hyper": 8865,
      "Ġcutoff": 8866,
      "Ġneighbors": 8867,
      "500": 8868,
      "Ġbatches": 8869,
      "ategory": 8870,
      "some": 8871,
      "Ġcorresponds": 8872,
      "blue": 8873,
      ")\")": 8874,
      "Ġack": 8875,
      "Ġresolver": 8876,
      "__'):": 8877,
      "ye": 8878,
      "Ġcoefficient": 8879,
      "Ġquick": 8880,
      "Random": 8881,
      "Ġcredential": 8882,
      "Ġrem": 8883,
      "ulator": 8884,
      "Ġhide": 8885,
      "Ġens": 8886,
      "traffic": 8887,
      "ele": 8888,
      "ners": 8889,
      "yield": 8890,
      "ĠHE": 8891,
      "Properties": 8892,
      "!\"": 8893,
      "400": 8894,
      "Ġcr": 8895,
      "mpath": 8896,
      "duction": 8897,
      "Ġ500": 8898,
      "grp": 8899,
      ":`~.": 8900,
      "Ġcleaned": 8901,
      "nonce": 8902,
      "Ġbelongs": 8903,
      "qos": 8904,
      "recognized": 8905,
      "ĠLink": 8906,
      "starting": 8907,
      "Ġcorrelation": 8908,
      "degree": 8909,
      "ggle": 8910,
      "pod": 8911,
      "ups": 8912,
      "Ġthumbnail": 8913,
      "...\")": 8914,
      "ITS": 8915,
      "Ġwebsocket": 8916,
      "iline": 8917,
      "dialog": 8918,
      "Ġminute": 8919,
      "namespaces": 8920,
      "ĠTimeout": 8921,
      "Double": 8922,
      "mappings": 8923,
      "gsize": 8924,
      "additional": 8925,
      "Ġbases": 8926,
      "...,": 8927,
      "sky": 8928,
      "ĠOverride": 8929,
      "exchange": 8930,
      "ĠSimple": 8931,
      "Ġproj": 8932,
      "Repository": 8933,
      "Ġage": 8934,
      "etched": 8935,
      "minute": 8936,
      "Ġapplies": 8937,
      "ĠPropert": 8938,
      "Ġletter": 8939,
      "rx": 8940,
      "illa": 8941,
      "charset": 8942,
      "128": 8943,
      "07": 8944,
      "One": 8945,
      "Ġpdb": 8946,
      "Ġins": 8947,
      "Ġ[('": 8948,
      "artist": 8949,
      "ĠMin": 8950,
      "qualified": 8951,
      "POINT": 8952,
      "afka": 8953,
      "Ġdeclared": 8954,
      "mf": 8955,
      "peg": 8956,
      "Ġexcluded": 8957,
      "Ġusually": 8958,
      "Ġcomps": 8959,
      "Ġlikelihood": 8960,
      "Ġpredicted": 8961,
      "breviation": 8962,
      "Used": 8963,
      "\\\"": 8964,
      "bulk": 8965,
      "upy": 8966,
      "locked": 8967,
      "spection": 8968,
      "Ġdistances": 8969,
      "Ġbootstrap": 8970,
      "aux": 8971,
      "arp": 8972,
      "Ġelapsed": 8973,
      "Ġparagraph": 8974,
      "èİ·åıĸ": 8975,
      "}\",": 8976,
      "ĠĠčĊ": 8977,
      "degrees": 8978,
      "Ġdc": 8979,
      "Ġtoler": 8980,
      "ĠFetch": 8981,
      "ĠMapping": 8982,
      "Ġstores": 8983,
      "Flags": 8984,
      "Ġffi": 8985,
      "Ġcookies": 8986,
      "Ġcolour": 8987,
      "Ġcheckpoint": 8988,
      "Ġlikely": 8989,
      "removed": 8990,
      "TEMPLATE": 8991,
      "Float": 8992,
      "GIN": 8993,
      "Raw": 8994,
      "tls": 8995,
      "zed": 8996,
      "Ġpprint": 8997,
      "minor": 8998,
      "Ġverification": 8999,
      "çĽ": 9000,
      "Ġlif": 9001,
      "station": 9002,
      "ĠSkip": 9003,
      "article": 9004,
      "Ġsubclasses": 9005,
      "compound": 9006,
      "cleanup": 9007,
      "ĠReads": 9008,
      "functools": 9009,
      "(':')": 9010,
      "Has": 9011,
      "']}": 9012,
      "Ġmemo": 9013,
      "pared": 9014,
      "Extension": 9015,
      "Word": 9016,
      "ĠččĊ": 9017,
      "ĠĠĠĠĠĠĠĠĠĠĠĠĠĠĠĠĠĠĠĠĠĠĠĠĠĠĠĠĠĠĠĠĠĠĠĠĠĠĠĠĠĠĠĠĠĠĠĠĠĠĠĠĠ": 9018,
      "dition": 9019,
      "iro": 9020,
      "ĠMatrix": 9021,
      "Ġacc": 9022,
      "ĠLocation": 9023,
      "boardInterrupt": 9024,
      "Ġlocator": 9025,
      "Rate": 9026,
      "pillar": 9027,
      "sequent": 9028,
      "Ġpillar": 9029,
      "chart": 9030,
      "ĠPandas": 9031,
      "quiet": 9032,
      "Ġvalidated": 9033,
      "dependency": 9034,
      "panel": 9035,
      "Fetches": 9036,
      "evaluate": 9037,
      "fed": 9038,
      "gg": 9039,
      "uit": 9040,
      "Ġconfigurations": 9041,
      "symlink": 9042,
      "relpath": 9043,
      "Space": 9044,
      "ĠRFC": 9045,
      "resolution": 9046,
      "inds": 9047,
      "])[": 9048,
      "cmds": 9049,
      "MAC": 9050,
      "Yield": 9051,
      "aming": 9052,
      "bases": 9053,
      "Ġiterations": 9054,
      "...)": 9055,
      "000000": 9056,
      "Ġindicator": 9057,
      "48": 9058,
      "Ip": 9059,
      "chdir": 9060,
      "updates": 9061,
      "REQUEST": 9062,
      "Ġloads": 9063,
      "Ġdescend": 9064,
      "Symbol": 9065,
      "Menu": 9066,
      "arante": 9067,
      "orders": 9068,
      "Ġencountered": 9069,
      "Ġpublished": 9070,
      "ĠKE": 9071,
      "indicator": 9072,
      "ika": 9073,
      "DecodeError": 9074,
      "rees": 9075,
      "hell": 9076,
      "Elements": 9077,
      "ĠSelect": 9078,
      "------------": 9079,
      "hashes": 9080,
      "Ġrectangle": 9081,
      "Ġspectrum": 9082,
      "Ada": 9083,
      "half": 9084,
      "Ġfits": 9085,
      "phone": 9086,
      "LIB": 9087,
      "Analysis": 9088,
      "Attach": 9089,
      "åŃĹ": 9090,
      "æį®": 9091,
      "Ġlicense": 9092,
      "Ġzeros": 9093,
      "dk": 9094,
      "ipt": 9095,
      "Ġpys": 9096,
      "ĠDNS": 9097,
      "Ġgreen": 9098,
      "density": 9099,
      "ium": 9100,
      "atural": 9101,
      "legram": 9102,
      "rols": 9103,
      "Ġstand": 9104,
      "Ġliteral": 9105,
      "ĠAzure": 9106,
      "Lock": 9107,
      "pixels": 9108,
      "Ġhigher": 9109,
      "Release": 9110,
      "Ġnotifications": 9111,
      "Ġfu": 9112,
      "umor": 9113,
      "Unexpected": 9114,
      "Ġmasked": 9115,
      "ĠChannel": 9116,
      "Ġscaled": 9117,
      "WE": 9118,
      "osed": 9119,
      "æł": 9120,
      "inated": 9121,
      "Ġndim": 9122,
      "Ġmilliseconds": 9123,
      "Ġxs": 9124,
      "ARD": 9125,
      "Ġstopped": 9126,
      "receive": 9127,
      "Layout": 9128,
      "ĠInteger": 9129,
      "Ð¾Ð": 9130,
      "HI": 9131,
      "bel": 9132,
      "ox": 9133,
      "inux": 9134,
      "atar": 9135,
      "Ġ256": 9136,
      "rightness": 9137,
      "antiate": 9138,
      "Ġaddition": 9139,
      "RECT": 9140,
      "ibling": 9141,
      "ĠAssume": 9142,
      "Ġpiece": 9143,
      "ä¼": 9144,
      "onts": 9145,
      "Ġsuggest": 9146,
      "Ġlocated": 9147,
      "special": 9148,
      "Ġcollector": 9149,
      "Ġrecipient": 9150,
      "negative": 9151,
      "^{": 9152,
      "ball": 9153,
      "clock": 9154,
      "front": 9155,
      "vailable": 9156,
      "Ġfrozen": 9157,
      "datastore": 9158,
      "Ġ%}": 9159,
      "avasc": 9160,
      "Lists": 9161,
      "...')": 9162,
      "DIS": 9163,
      "ĠRedis": 9164,
      "ĠPATH": 9165,
      "Ġreserved": 9166,
      "Ġouter": 9167,
      "renderer": 9168,
      "litude": 9169,
      "Ġmatrices": 9170,
      "PARE": 9171,
      "queeze": 9172,
      "></": 9173,
      "wers": 9174,
      "Ġsi": 9175,
      "olves": 9176,
      "ĠCIM": 9177,
      "Ġprofiles": 9178,
      "letter": 9179,
      "widgets": 9180,
      "onic": 9181,
      "ulary": 9182,
      "Ġrr": 9183,
      "HTTPError": 9184,
      "Attributes": 9185,
      "onom": 9186,
      "heet": 9187,
      "ĠThen": 9188,
      "Ġupgrade": 9189,
      "ANCE": 9190,
      "Endpoint": 9191,
      "Offset": 9192,
      "Makes": 9193,
      "å¼": 9194,
      "Ġpat": 9195,
      "scriptors": 9196,
      "Ġsecure": 9197,
      "GRO": 9198,
      "city": 9199,
      "ana": 9200,
      "ulates": 9201,
      "Ġgetter": 9202,
      "}.{": 9203,
      "Ġhighlight": 9204,
      "'ve": 9205,
      "xc": 9206,
      "reat": 9207,
      "Ġcm": 9208,
      "ravel": 9209,
      "coped": 9210,
      "Ġenter": 9211,
      "Selection": 9212,
      "ADD": 9213,
      "Ġobserved": 9214,
      "trl": 9215,
      "ĠDocker": 9216,
      "Ġtriggered": 9217,
      "specified": 9218,
      "Ġir": 9219,
      "tailed": 9220,
      "ĠNet": 9221,
      "infos": 9222,
      "Convenience": 9223,
      "speci": 9224,
      "Ġsorting": 9225,
      "matched": 9226,
      "There": 9227,
      "ParseError": 9228,
      "ormap": 9229,
      "``:": 9230,
      "gnoring": 9231,
      "Ġadjac": 9232,
      "Relation": 9233,
      "CLASS": 9234,
      "blacklist": 9235,
      "sampling": 9236,
      "Ġfa": 9237,
      "Ġ'&": 9238,
      "Ġlanguages": 9239,
      "Ġobserver": 9240,
      "Ġ128": 9241,
      "Integer": 9242,
      "Recursively": 9243,
      "600": 9244,
      "ĠĠĠĠĠĠĠĠĠĠĠĠĠĠĠĠčĊ": 9245,
      "ĠCF": 9246,
      "tau": 9247,
      "Ġencrypt": 9248,
      "how": 9249,
      "Ġsolver": 9250,
      "Ġbam": 9251,
      "Ġbias": 9252,
      "dients": 9253,
      "Ġ[_": 9254,
      "ĠVAL": 9255,
      "Abstract": 9256,
      "Success": 9257,
      "BACK": 9258,
      "Saves": 9259,
      "æŀ": 9260,
      "aring": 9261,
      "rics": 9262,
      "Ġconsum": 9263,
      "Ġhardware": 9264,
      "Ġfirmware": 9265,
      "ĠDep": 9266,
      "ĠĠĠĠĠĠĠĠĠĠĠĠĠĠĠĠĠĠĠĠĠĠĠĠĠĠĠĠĠĠĠĠĠĠĠĠĠĠĠĠĠĠĠĠĠĠĠĠĠĠĠĠĠĠĠ": 9267,
      "Ġbp": 9268,
      "extended": 9269,
      "ĠAnd": 9270,
      "Ġembedded": 9271,
      "Comment": 9272,
      "Redirect": 9273,
      "Pe": 9274,
      "lv": 9275,
      "recur": 9276,
      "Ġtaking": 9277,
      "alert": 9278,
      "Ġsem": 9279,
      "Ġgenerates": 9280,
      "Ġmolecule": 9281,
      "rotation": 9282,
      "Ġcrypto": 9283,
      "Flag": 9284,
      "Val": 9285,
      "`).": 9286,
      "Ġinfer": 9287,
      "Ġnice": 9288,
      "Ġmgr": 9289,
      "istant": 9290,
      "Ġupon": 9291,
      "ĠJava": 9292,
      "ĠThread": 9293,
      "Mixin": 9294,
      "nm": 9295,
      "ctype": 9296,
      "ValidationError": 9297,
      "authorized": 9298,
      "ConnectionError": 9299,
      "Ġoptimizer": 9300,
      "/{}/": 9301,
      "38": 9302,
      "éĹ": 9303,
      "Ġcod": 9304,
      "Ġhold": 9305,
      "Ġ{%": 9306,
      "translation": 9307,
      "sudo": 9308,
      "Points": 9309,
      "Expression": 9310,
      "RGB": 9311,
      "Ġconver": 9312,
      "ĠCPU": 9313,
      "Ġfloating": 9314,
      "median": 9315,
      "seqs": 9316,
      "sensus": 9317,
      "('.',": 9318,
      "ĠStruct": 9319,
      "42": 9320,
      "ji": 9321,
      "ĠSQ": 9322,
      "ĠPlot": 9323,
      "Ġchr": 9324,
      "Ġ[{'": 9325,
      "-{": 9326,
      "cmap": 9327,
      "declaration": 9328,
      "Ġlocally": 9329,
      "ĠSO": 9330,
      "Ġcalendar": 9331,
      "Ġtopics": 9332,
      "avascript": 9333,
      "Bit": 9334,
      "Ġpalette": 9335,
      "Ġapplicable": 9336,
      "TEN": 9337,
      "Prints": 9338,
      "Basic": 9339,
      "GL": 9340,
      "celer": 9341,
      "usion": 9342,
      "prod": 9343,
      "Ġscroll": 9344,
      "focus": 9345,
      "za": 9346,
      "laps": 9347,
      "ĠAppend": 9348,
      "ĠEC": 9349,
      "returncode": 9350,
      "hello": 9351,
      "wind": 9352,
      "Ġinvoke": 9353,
      "ceil": 9354,
      "Ġexported": 9355,
      "Ġdeal": 9356,
      "setText": 9357,
      "Ġfollowed": 9358,
      "Ġprobabilities": 9359,
      "Put": 9360,
      "TING": 9361,
      "lr": 9362,
      "Ġsink": 9363,
      "('>": 9364,
      "Ġcalibration": 9365,
      "Ġembedding": 9366,
      "'\",": 9367,
      "Fore": 9368,
      "ä¿": 9369,
      "Ġfake": 9370,
      "means": 9371,
      "rome": 9372,
      "lored": 9373,
      "filer": 9374,
      "abort": 9375,
      "phot": 9376,
      "Ġexpiration": 9377,
      "canonical": 9378,
      "Ġadapt": 9379,
[...]
